#include <cstdint>
#include "control_net.hpp"

alignas(16) const unsigned char control_net_tflite[] = {
	0x1c, 0x00, 0x00, 0x00, 0x54, 0x46, 0x4c, 0x33, 0x14, 0x00, 0x20, 0x00,
	0x1c, 0x00, 0x18, 0x00, 0x14, 0x00, 0x10, 0x00, 0x0c, 0x00, 0x00, 0x00,
	0x08, 0x00, 0x04, 0x00, 0x14, 0x00, 0x00, 0x00, 0x1c, 0x00, 0x00, 0x00,
	0x90, 0x00, 0x00, 0x00, 0xe8, 0x00, 0x00, 0x00, 0xb0, 0x35, 0x00, 0x00,
	0xc0, 0x35, 0x00, 0x00, 0x2c, 0x3b, 0x00, 0x00, 0x03, 0x00, 0x00, 0x00,
	0x01, 0x00, 0x00, 0x00, 0x10, 0x00, 0x00, 0x00, 0x00, 0x00, 0x0a, 0x00,
	0x10, 0x00, 0x0c, 0x00, 0x08, 0x00, 0x04, 0x00, 0x0a, 0x00, 0x00, 0x00,
	0x0c, 0x00, 0x00, 0x00, 0x1c, 0x00, 0x00, 0x00, 0x3c, 0x00, 0x00, 0x00,
	0x0f, 0x00, 0x00, 0x00, 0x73, 0x65, 0x72, 0x76, 0x69, 0x6e, 0x67, 0x5f,
	0x64, 0x65, 0x66, 0x61, 0x75, 0x6c, 0x74, 0x00, 0x01, 0x00, 0x00, 0x00,
	0x04, 0x00, 0x00, 0x00, 0x98, 0xff, 0xff, 0xff, 0x09, 0x00, 0x00, 0x00,
	0x04, 0x00, 0x00, 0x00, 0x08, 0x00, 0x00, 0x00, 0x6f, 0x75, 0x74, 0x70,
	0x75, 0x74, 0x5f, 0x30, 0x00, 0x00, 0x00, 0x00, 0x01, 0x00, 0x00, 0x00,
	0x04, 0x00, 0x00, 0x00, 0xf6, 0xca, 0xff, 0xff, 0x04, 0x00, 0x00, 0x00,
	0x06, 0x00, 0x00, 0x00, 0x61, 0x72, 0x67, 0x73, 0x5f, 0x30, 0x00, 0x00,
	0x02, 0x00, 0x00, 0x00, 0x34, 0x00, 0x00, 0x00, 0x04, 0x00, 0x00, 0x00,
	0xdc, 0xff, 0xff, 0xff, 0x0c, 0x00, 0x00, 0x00, 0x04, 0x00, 0x00, 0x00,
	0x13, 0x00, 0x00, 0x00, 0x43, 0x4f, 0x4e, 0x56, 0x45, 0x52, 0x53, 0x49,
	0x4f, 0x4e, 0x5f, 0x4d, 0x45, 0x54, 0x41, 0x44, 0x41, 0x54, 0x41, 0x00,
	0x08, 0x00, 0x0c, 0x00, 0x08, 0x00, 0x04, 0x00, 0x08, 0x00, 0x00, 0x00,
	0x0b, 0x00, 0x00, 0x00, 0x04, 0x00, 0x00, 0x00, 0x13, 0x00, 0x00, 0x00,
	0x6d, 0x69, 0x6e, 0x5f, 0x72, 0x75, 0x6e, 0x74, 0x69, 0x6d, 0x65, 0x5f,
	0x76, 0x65, 0x72, 0x73, 0x69, 0x6f, 0x6e, 0x00, 0x0d, 0x00, 0x00, 0x00,
	0xc4, 0x34, 0x00, 0x00, 0xbc, 0x34, 0x00, 0x00, 0x94, 0x34, 0x00, 0x00,
	0xfc, 0x33, 0x00, 0x00, 0xec, 0x30, 0x00, 0x00, 0xdc, 0x10, 0x00, 0x00,
	0xcc, 0x01, 0x00, 0x00, 0xbc, 0x00, 0x00, 0x00, 0xb4, 0x00, 0x00, 0x00,
	0xac, 0x00, 0x00, 0x00, 0xa4, 0x00, 0x00, 0x00, 0x84, 0x00, 0x00, 0x00,
	0x04, 0x00, 0x00, 0x00, 0x9e, 0xcb, 0xff, 0xff, 0x04, 0x00, 0x00, 0x00,
	0x70, 0x00, 0x00, 0x00, 0x10, 0x00, 0x00, 0x00, 0x00, 0x00, 0x00, 0x00,
	0x08, 0x00, 0x0e, 0x00, 0x08, 0x00, 0x04, 0x00, 0x08, 0x00, 0x00, 0x00,
	0x10, 0x00, 0x00, 0x00, 0x24, 0x00, 0x00, 0x00, 0x00, 0x00, 0x06, 0x00,
	0x08, 0x00, 0x04, 0x00, 0x06, 0x00, 0x00, 0x00, 0x04, 0x00, 0x00, 0x00,
	0x00, 0x00, 0x00, 0x00, 0x0c, 0x00, 0x1c, 0x00, 0x18, 0x00, 0x14, 0x00,
	0x10, 0x00, 0x04, 0x00, 0x0c, 0x00, 0x00, 0x00, 0x65, 0xf3, 0x71, 0x9e,
	0x86, 0x9a, 0xb9, 0x4d, 0x00, 0x00, 0x00, 0x00, 0x01, 0x00, 0x00, 0x00,
	0x02, 0x00, 0x00, 0x00, 0x04, 0x00, 0x00, 0x00, 0x12, 0x00, 0x00, 0x00,
	0x32, 0x2e, 0x32, 0x31, 0x2e, 0x30, 0x2d, 0x64, 0x65, 0x76, 0x32, 0x30,
	0x32, 0x35, 0x30, 0x38, 0x31, 0x38, 0x00, 0x00, 0x1a, 0xcc, 0xff, 0xff,
	0x04, 0x00, 0x00, 0x00, 0x10, 0x00, 0x00, 0x00, 0x32, 0x2e, 0x30, 0x2e,
	0x30, 0x00, 0x00, 0x00, 0x00, 0x00, 0x00, 0x00, 0x00, 0x00, 0x00, 0x00,
	0xb4, 0xc6, 0xff, 0xff, 0xb8, 0xc6, 0xff, 0xff, 0xbc, 0xc6, 0xff, 0xff,
	0x42, 0xcc, 0xff, 0xff, 0x04, 0x00, 0x00, 0x00, 0x00, 0x01, 0x00, 0x00,
	0x04, 0x35, 0xa9, 0xbf, 0x54, 0xa5, 0x04, 0xbf, 0xfd, 0xd3, 0xa0, 0xbf,
	0x39, 0xbd, 0x50, 0xbf, 0xe9, 0xe5, 0xa2, 0xbf, 0x2e, 0xd1, 0x33, 0xbf,
	0x0b, 0xc7, 0x21, 0xbf, 0xa7, 0x3a, 0x06, 0xc0, 0x63, 0x79, 0x8e, 0xbf,
	0x8b, 0xdb, 0x6d, 0xbd, 0x81, 0x39, 0xe4, 0xbe, 0x15, 0xa3, 0x15, 0xc0,
	0xf0, 0x20, 0x11, 0x3f, 0x77, 0x8d, 0xeb, 0xbe, 0x89, 0xac, 0xc8, 0xbe,
	0xe6, 0x93, 0xc4, 0xbf, 0xa4, 0x4e, 0xc2, 0xbf, 0xa4, 0x5f, 0xca, 0x3c,
	0x64, 0xa9, 0xfe, 0xbf, 0xad, 0xe0, 0x51, 0xbd, 0x12, 0xa7, 0xc6, 0xbf,
	0x46, 0x53, 0xca, 0xbf, 0xb0, 0xb3, 0xc6, 0x3f, 0x7f, 0xdf, 0x9f, 0xbe,
	0xc9, 0x5c, 0x2e, 0x3c, 0xc5, 0x80, 0x4b, 0xbf, 0xe7, 0xe7, 0x90, 0xbf,
	0x34, 0x8a, 0xc0, 0xbf, 0x35, 0x97, 0x83, 0xbe, 0x84, 0x92, 0xb5, 0xbf,
	0xc8, 0x0a, 0x49, 0xbb, 0x6d, 0x01, 0x47, 0xbf, 0x80, 0xd8, 0x37, 0xbf,
	0x82, 0x25, 0x6c, 0xbc, 0x4f, 0x69, 0x1e, 0xbf, 0x46, 0xa9, 0x5a, 0xbf,
	0x43, 0x13, 0xea, 0x3a, 0xcf, 0x7c, 0xba, 0xbf, 0xf1, 0xbd, 0xa3, 0xbf,
	0xc6, 0x20, 0x87, 0xbf, 0x81, 0xde, 0x2a, 0xbe, 0x93, 0xc9, 0x56, 0xbe,
	0xb6, 0x05, 0x32, 0xbe, 0x60, 0xa2, 0x89, 0xbf, 0xae, 0xd0, 0xb5, 0xbe,
	0x2d, 0x8b, 0xb1, 0x3b, 0x83, 0x8d, 0xa2, 0xbe, 0xae, 0x71, 0xa0, 0xbf,
	0xa6, 0xbd, 0x36, 0xc0, 0x20, 0xc3, 0x9c, 0xbe, 0xc1, 0x83, 0x16, 0xbb,
	0xa8, 0xa8, 0x46, 0x3d, 0x60, 0xe2, 0x86, 0xbf, 0xfa, 0xd4, 0xc0, 0xbf,
	0xbc, 0x93, 0x60, 0xbc, 0x3f, 0x65, 0x4c, 0xbf, 0x76, 0x7a, 0x1d, 0x3d,
	0xb0, 0xfa, 0x03, 0xbf, 0x91, 0xff, 0x1c, 0xbd, 0xac, 0x5d, 0xd1, 0xbf,
	0xc5, 0x4a, 0x8f, 0xbc, 0x60, 0x9e, 0x8c, 0xbf, 0x38, 0x54, 0x1c, 0xbf,
	0x11, 0x1b, 0x90, 0xbd, 0x4e, 0xcd, 0xff, 0xff, 0x04, 0x00, 0x00, 0x00,
	0x00, 0x0f, 0x00, 0x00, 0x54, 0x22, 0xcd, 0x3f, 0x44, 0xf1, 0x4e, 0x3f,
	0x61, 0xbf, 0x2f, 0x3f, 0xed, 0x6d, 0x27, 0xbf, 0x8f, 0x0c, 0xee, 0x3d,
	0x1c, 0x8a, 0x3f, 0xc0, 0xe9, 0xae, 0x33, 0x3e, 0x73, 0x30, 0x89, 0xbf,
	0xbb, 0xea, 0x01, 0xbf, 0xba, 0x8b, 0x10, 0xbf, 0xf3, 0xfc, 0xd2, 0xbe,
	0xed, 0x4a, 0x0c, 0xbf, 0x97, 0x29, 0x6a, 0x3e, 0x3f, 0xb5, 0xa5, 0xbe,
	0x22, 0x25, 0x8e, 0x3e, 0xd3, 0x42, 0x81, 0xbf, 0x29, 0x62, 0x1e, 0xbf,
	0x25, 0x64, 0x9e, 0xbe, 0xd1, 0x27, 0x40, 0xbf, 0x16, 0x2e, 0xa1, 0x3f,
	0x4a, 0x68, 0xff, 0x3f, 0xf5, 0x0c, 0x57, 0xbf, 0x4e, 0xb1, 0xde, 0x3c,
	0x84, 0x6d, 0x01, 0xbf, 0x2e, 0xf5, 0xc6, 0xbf, 0xa5, 0x43, 0xe0, 0xbe,
	0x83, 0x7e, 0x93, 0x3f, 0xa5, 0xaa, 0xa7, 0xbe, 0x2b, 0x47, 0xff, 0x3d,
	0x94, 0x25, 0xf6, 0x3e, 0xfe, 0x44, 0x57, 0x40, 0x67, 0x72, 0x3a, 0x3e,
	0xde, 0x97, 0x3e, 0xbe, 0x01, 0x94, 0x61, 0xbf, 0x10, 0x22, 0xdc, 0x3d,
	0x49, 0x79, 0xf2, 0xbf, 0x36, 0xa9, 0xcb, 0xbe, 0x60, 0x88, 0xd5, 0x3d,
	0x95, 0xbd, 0xbe, 0xbe, 0x03, 0xa6, 0xf0, 0xbf, 0xe6, 0x88, 0x54, 0xbe,
	0x06, 0x7f, 0x1b, 0x3f, 0x1d, 0x31, 0xe9, 0x3d, 0xe6, 0x2f, 0xc1, 0x3d,
	0xdd, 0xfd, 0x40, 0x3b, 0x09, 0xf8, 0xc2, 0x3d, 0x6a, 0x13, 0xa3, 0xbf,
	0xfe, 0x95, 0x4b, 0xbf, 0x7f, 0x2f, 0x17, 0xbf, 0x40, 0x46, 0xbb, 0xbe,
	0xd4, 0x3b, 0x8b, 0xc0, 0x24, 0x52, 0xee, 0xbd, 0x98, 0x36, 0xd7, 0x3e,
	0x29, 0x2c, 0xa5, 0x3f, 0x06, 0xd1, 0x89, 0xbf, 0x0c, 0xc3, 0x0b, 0x3f,
	0xcf, 0xfd, 0x43, 0x3f, 0xcd, 0x0f, 0x15, 0xbe, 0xf1, 0x37, 0x3b, 0xbf,
	0xc4, 0x91, 0xc8, 0x3c, 0x01, 0x7c, 0xfd, 0xbe, 0xc8, 0x22, 0x40, 0xbf,
	0xcb, 0xb8, 0x8a, 0xbf, 0x81, 0xe7, 0x64, 0xbf, 0x74, 0xf9, 0x34, 0x40,
	0x3b, 0xe9, 0x59, 0x3f, 0x7f, 0x3a, 0xc4, 0xbe, 0xb2, 0x04, 0xc6, 0x3d,
	0xae, 0x5d, 0x15, 0x40, 0xd2, 0x80, 0xb3, 0x3d, 0x61, 0xf4, 0x7e, 0x3f,
	0xc7, 0xbf, 0x94, 0x3f, 0xcb, 0x9a, 0xa7, 0x3e, 0x5c, 0xb6, 0x93, 0xbe,
	0x6b, 0xae, 0x3b, 0xbf, 0x3e, 0x8b, 0xef, 0xbc, 0x1c, 0xed, 0x5d, 0x40,
	0xc6, 0x1c, 0x5d, 0xbf, 0x95, 0x55, 0xbb, 0x3e, 0x53, 0x35, 0x76, 0x3e,
	0xb3, 0x60, 0xe3, 0x3d, 0x23, 0x16, 0xee, 0xbe, 0xc4, 0x76, 0x2c, 0xbc,
	0x51, 0xcf, 0x1b, 0xc0, 0x29, 0x1a, 0x42, 0xbe, 0xf6, 0xa8, 0xcc, 0xbf,
	0x54, 0xf8, 0x5e, 0x3f, 0xe1, 0x98, 0x93, 0x3e, 0x57, 0x70, 0xd6, 0x3d,
	0xa2, 0x52, 0x1d, 0x3e, 0x18, 0x8f, 0xe0, 0x3e, 0x69, 0x92, 0x33, 0x3f,
	0x09, 0x24, 0x79, 0x3e, 0x00, 0xc8, 0xd1, 0xbf, 0x28, 0x0e, 0x08, 0xc0,
	0xc4, 0x05, 0xf5, 0x3f, 0x86, 0x7d, 0xa3, 0x3e, 0x41, 0xe6, 0xfb, 0x3e,
	0xb1, 0x21, 0x9e, 0xbf, 0x16, 0x00, 0x13, 0xbf, 0x9a, 0x24, 0x73, 0xbf,
	0xf2, 0x4e, 0x45, 0x3f, 0x20, 0xcc, 0x88, 0xbe, 0xd7, 0x07, 0x96, 0x3d,
	0x7e, 0xf6, 0x40, 0x3f, 0x62, 0x4f, 0xa4, 0x3c, 0xf5, 0xf3, 0x10, 0x40,
	0x23, 0x84, 0x3e, 0x40, 0xe2, 0x2f, 0x9b, 0x3e, 0x1a, 0xad, 0x6a, 0x3e,
	0x3e, 0x22, 0x81, 0x3f, 0x93, 0x55, 0x85, 0xbe, 0xfd, 0x93, 0x11, 0xbd,
	0x84, 0x74, 0x23, 0x3f, 0xbd, 0x96, 0x43, 0x3f, 0xb4, 0x81, 0xad, 0xbe,
	0xf5, 0x79, 0xf6, 0xbe, 0x6f, 0x3f, 0x00, 0xbe, 0x14, 0xae, 0x65, 0x3c,
	0xf0, 0x37, 0x23, 0x3d, 0x14, 0xe3, 0x65, 0xbf, 0x29, 0x89, 0x5a, 0xbf,
	0xd5, 0xd5, 0xaa, 0x3e, 0x7c, 0xb5, 0x5a, 0x3d, 0xe7, 0xe9, 0x02, 0xbf,
	0xdd, 0xbf, 0x64, 0xbf, 0xee, 0x35, 0x18, 0x3e, 0xff, 0xe8, 0xe2, 0x3e,
	0x9d, 0xb1, 0xdf, 0xbf, 0x28, 0xd6, 0xa8, 0x3e, 0xbc, 0x7a, 0x31, 0xbf,
	0x4e, 0xf5, 0x8b, 0x3f, 0xca, 0x05, 0xdd, 0x3d, 0x36, 0xad, 0x6c, 0xbe,
	0x63, 0x0e, 0xc6, 0x3c, 0xea, 0xd6, 0xe4, 0xbd, 0xde, 0xc1, 0xc6, 0xbc,
	0x15, 0x54, 0xa9, 0xbd, 0x0b, 0x31, 0x12, 0x3d, 0x15, 0x26, 0x7b, 0x3c,
	0x1a, 0xae, 0xb1, 0x3e, 0x9c, 0xfd, 0x68, 0x3c, 0x25, 0x90, 0xb3, 0x3d,
	0x55, 0x2a, 0x23, 0xbe, 0x82, 0x6c, 0x7c, 0xbe, 0xd2, 0x8d, 0x90, 0x3e,
	0x6f, 0x11, 0x89, 0xbd, 0x15, 0x00, 0xad, 0xbd, 0xd6, 0x2f, 0x59, 0x3b,
	0x67, 0xa5, 0x9c, 0x3c, 0x4b, 0x32, 0x94, 0x3f, 0x63, 0xfb, 0x45, 0xbe,
	0xe9, 0x93, 0x18, 0xbf, 0x60, 0xe7, 0xb1, 0xbe, 0x42, 0x8d, 0xc1, 0x3f,
	0x0e, 0x2c, 0xe5, 0xbf, 0x25, 0x2d, 0x1f, 0xbf, 0xd6, 0xc6, 0x61, 0x3f,
	0xca, 0x17, 0xf7, 0x3e, 0xa3, 0xc6, 0xbf, 0xbf, 0x5f, 0xba, 0x84, 0xbe,
	0x3d, 0x2e, 0xa8, 0x3f, 0x3a, 0x5d, 0x87, 0x3e, 0x96, 0x15, 0x8e, 0xbd,
	0x5a, 0x32, 0xd8, 0xbc, 0x96, 0xcd, 0xc1, 0xbf, 0x34, 0x69, 0x8d, 0xbf,
	0x65, 0x53, 0x17, 0x40, 0x25, 0x11, 0xc8, 0xbf, 0x1a, 0xcc, 0x85, 0x3e,
	0x02, 0x60, 0x30, 0xbe, 0x8a, 0xce, 0x52, 0xbe, 0x87, 0xb9, 0x9c, 0x3f,
	0xdf, 0xd2, 0x6a, 0xbf, 0x60, 0x3e, 0xbf, 0x3e, 0x80, 0xd3, 0x3d, 0x3e,
	0x55, 0xd9, 0xde, 0xbe, 0x59, 0xb1, 0xe3, 0x3c, 0x65, 0x25, 0x71, 0x3d,
	0xcb, 0x8a, 0x20, 0xbe, 0xf2, 0x18, 0x23, 0xbe, 0x84, 0x37, 0x84, 0xbe,
	0xa0, 0x1a, 0xb6, 0xbc, 0x8e, 0x0c, 0x2d, 0x3f, 0x04, 0x9c, 0x16, 0x3f,
	0xe7, 0x5c, 0x87, 0x3e, 0x0f, 0xa1, 0x1b, 0x3b, 0x4f, 0xc3, 0x9e, 0xbf,
	0x28, 0x97, 0x4b, 0x3f, 0x5e, 0xc7, 0xeb, 0x3e, 0xb7, 0xc0, 0xd8, 0x3e,
	0xd0, 0x17, 0x68, 0x3f, 0x62, 0x18, 0x28, 0x3d, 0xd3, 0xc1, 0xd9, 0x3d,
	0xa5, 0x93, 0x98, 0xbe, 0x4a, 0x85, 0x32, 0xbe, 0xff, 0xa5, 0xd1, 0xbf,
	0x3c, 0xbc, 0x81, 0xbf, 0x80, 0x02, 0xaa, 0xbc, 0xc9, 0x67, 0x90, 0xbf,
	0x5f, 0xce, 0x0e, 0xbf, 0x47, 0x98, 0x24, 0xbf, 0x37, 0xb3, 0xae, 0x3e,
	0x05, 0x46, 0x93, 0xbe, 0xc3, 0x47, 0x56, 0xbf, 0xcf, 0xaf, 0x8f, 0xbf,
	0x3e, 0xd3, 0x57, 0x3a, 0xa5, 0xd9, 0xb7, 0x3e, 0x58, 0x73, 0x28, 0x3c,
	0x2c, 0x65, 0x8a, 0xbc, 0x5f, 0xad, 0xba, 0xbe, 0x41, 0x21, 0x62, 0xbe,
	0xd2, 0xa5, 0x8a, 0xbf, 0x24, 0x22, 0x1e, 0xbd, 0xa9, 0x7b, 0x4b, 0x3e,
	0xfd, 0x15, 0xd2, 0xbf, 0xbe, 0x6f, 0x63, 0xbf, 0x6f, 0x64, 0x42, 0x3f,
	0xba, 0xfc, 0x95, 0xbf, 0xdc, 0x20, 0xba, 0xbf, 0x56, 0x5b, 0x87, 0xbf,
	0x29, 0x9a, 0xe1, 0x3f, 0x45, 0xa5, 0x8a, 0x3e, 0xd4, 0xa5, 0x3a, 0x3e,
	0xb6, 0x58, 0x82, 0xbe, 0x77, 0x9b, 0x2b, 0x3f, 0x42, 0x14, 0x60, 0x3f,
	0xfe, 0x39, 0x02, 0xbf, 0x32, 0xf5, 0x2a, 0xc0, 0x86, 0xa1, 0x69, 0xbf,
	0x19, 0xa9, 0x43, 0xbf, 0xff, 0x41, 0x0d, 0xbd, 0xf9, 0xf2, 0x88, 0xbf,
	0xa2, 0x1f, 0x8a, 0xbf, 0xa8, 0x4f, 0xe3, 0x3e, 0x81, 0xa2, 0xb1, 0xbf,
	0xcd, 0x00, 0x00, 0x40, 0x69, 0x3a, 0xd1, 0xbd, 0xa3, 0x41, 0x3f, 0x3f,
	0x3b, 0x93, 0x99, 0x3e, 0x42, 0x08, 0x50, 0xbf, 0x92, 0xcb, 0xf3, 0xbf,
	0x62, 0x6f, 0xcb, 0xbf, 0x04, 0x0f, 0x27, 0xc0, 0x9a, 0xff, 0x02, 0xc0,
	0x80, 0x80, 0x2c, 0x3f, 0x89, 0x6e, 0xbb, 0xbd, 0x15, 0x11, 0xa1, 0xbf,
	0x4d, 0xcb, 0x13, 0xbf, 0xc1, 0xcf, 0x1d, 0xbf, 0x1f, 0xd7, 0x50, 0xbf,
	0x01, 0xdb, 0x62, 0x3f, 0xc1, 0x37, 0x01, 0x3f, 0xba, 0x7a, 0x49, 0xbe,
	0xd3, 0x29, 0x84, 0xbe, 0x79, 0xd9, 0x21, 0xbf, 0xcc, 0x54, 0xb3, 0xbf,
	0x24, 0x5b, 0x5b, 0xc0, 0xfc, 0x95, 0xf6, 0xbd, 0xc4, 0x23, 0x95, 0xbf,
	0x12, 0xca, 0x9c, 0x3f, 0x77, 0x7e, 0x9c, 0xba, 0x6f, 0xa6, 0x56, 0x3d,
	0x31, 0x75, 0x58, 0x3f, 0x46, 0x20, 0xb2, 0x3f, 0xa0, 0xf4, 0x4e, 0x3f,
	0x08, 0x72, 0x37, 0x3f, 0x89, 0x19, 0xc2, 0xbd, 0x06, 0x15, 0x17, 0x3e,
	0x90, 0x23, 0xd6, 0x3e, 0x82, 0xa8, 0x3a, 0x3f, 0x8e, 0x36, 0xc2, 0x3f,
	0x02, 0x6c, 0xd6, 0x3f, 0x99, 0xd7, 0x22, 0xc0, 0xbb, 0x73, 0x5a, 0xbf,
	0x02, 0xe4, 0xe9, 0xbf, 0x36, 0x36, 0xb9, 0x3d, 0x55, 0x25, 0x0c, 0x3f,
	0x82, 0x22, 0x97, 0xbd, 0x33, 0x2a, 0x2d, 0x3f, 0x07, 0x25, 0xc6, 0xbe,
	0xe1, 0xf9, 0xfe, 0x3c, 0x71, 0x2e, 0xe5, 0xbd, 0x17, 0xa3, 0xe3, 0x3d,
	0x2f, 0x85, 0x63, 0xbe, 0xcb, 0xd4, 0x1d, 0xbe, 0xc1, 0x6f, 0x83, 0xbe,
	0xec, 0x2a, 0x83, 0xbd, 0x3d, 0xcb, 0x95, 0x3d, 0xd3, 0x16, 0xdd, 0xbd,
	0x16, 0xb8, 0x16, 0x3f, 0xb5, 0x27, 0x42, 0xbe, 0xbf, 0x3c, 0x0f, 0x3e,
	0xf2, 0x5f, 0x60, 0x3c, 0x70, 0x50, 0x5f, 0xbe, 0x84, 0x5f, 0x09, 0x3c,
	0x31, 0x69, 0xd8, 0x3c, 0x1e, 0x16, 0x1f, 0xbe, 0x7f, 0xee, 0x04, 0x3d,
	0xd6, 0x71, 0x14, 0xbe, 0xa5, 0xd3, 0xb9, 0xbe, 0xe7, 0x2b, 0xe9, 0x3d,
	0x81, 0xb6, 0x20, 0xbe, 0xb5, 0xb4, 0x62, 0x3f, 0x7d, 0x9e, 0xb0, 0x3e,
	0xdf, 0xb7, 0x53, 0x3e, 0x59, 0x98, 0x3d, 0xbf, 0xe9, 0xd2, 0xb7, 0x3f,
	0x3c, 0xf4, 0x2e, 0x3f, 0x6b, 0xab, 0xad, 0x3e, 0xbf, 0x76, 0xd3, 0x3d,
	0xcc, 0x4c, 0x66, 0x3f, 0x6e, 0x6d, 0x16, 0x3e, 0xae, 0xb9, 0xaf, 0xbc,
	0x61, 0xb1, 0x0f, 0x3f, 0x4c, 0xb0, 0xa6, 0xbf, 0x91, 0x45, 0x97, 0xbe,
	0x2d, 0xe1, 0x65, 0xbf, 0xe6, 0xb4, 0x0b, 0xc0, 0x77, 0x71, 0x06, 0x40,
	0xfa, 0x61, 0x67, 0xbe, 0x79, 0xeb, 0x08, 0xbd, 0x5c, 0xae, 0xcf, 0xbe,
	0xad, 0xeb, 0xd2, 0xbe, 0xed, 0x62, 0xc5, 0x3e, 0xc3, 0xa2, 0x77, 0xbe,
	0xaa, 0xb5, 0x83, 0x3f, 0x23, 0xf5, 0x6c, 0xbe, 0x04, 0x45, 0x66, 0xbe,
	0x0a, 0xd1, 0xbe, 0xbe, 0x84, 0xe0, 0x34, 0xbf, 0x3d, 0xbd, 0x84, 0xbf,
	0xaf, 0x08, 0x62, 0x3e, 0x1f, 0x4b, 0x98, 0xbe, 0x6a, 0xc8, 0xe5, 0xbd,
	0xa6, 0x2c, 0x28, 0xbf, 0x48, 0xce, 0x6c, 0xbe, 0x7f, 0x47, 0xf6, 0x3e,
	0x63, 0x9f, 0xdb, 0x3d, 0x9e, 0x06, 0x12, 0x3f, 0x71, 0x59, 0xb6, 0xbc,
	0xd6, 0x8d, 0x00, 0x40, 0x48, 0xda, 0xaa, 0xbd, 0x83, 0x26, 0x4e, 0x3d,
	0x0f, 0xe2, 0x07, 0x3e, 0xee, 0xbe, 0xb6, 0xbe, 0x4d, 0x2d, 0xa8, 0x3f,
	0x8f, 0xb7, 0xf3, 0xbf, 0x77, 0x6b, 0x80, 0x3e, 0x1c, 0x94, 0x8e, 0xbc,
	0xf9, 0xa1, 0x25, 0xbf, 0xc9, 0xdc, 0x0e, 0xbf, 0xea, 0xa3, 0x37, 0x3e,
	0x04, 0x20, 0x10, 0xc0, 0x0d, 0x16, 0x27, 0x3f, 0xdc, 0xc3, 0x41, 0xbf,
	0x64, 0x6f, 0x10, 0x40, 0xca, 0x39, 0x17, 0x3f, 0x95, 0xcd, 0x3f, 0x3e,
	0x7c, 0x0d, 0x4d, 0x3e, 0x64, 0x17, 0xd7, 0x3c, 0x00, 0x9e, 0xa9, 0xbc,
	0x4d, 0xec, 0xb3, 0x3c, 0x78, 0xec, 0x8d, 0xbd, 0x93, 0x57, 0x74, 0x3e,
	0x25, 0xe9, 0x5b, 0xbe, 0x18, 0xce, 0x42, 0x3e, 0x9f, 0x58, 0xcc, 0x3c,
	0xd1, 0x22, 0xa9, 0x3d, 0xb4, 0x4c, 0x18, 0x3e, 0xc6, 0xee, 0x3f, 0xbe,
	0x65, 0xa2, 0x53, 0x3d, 0x79, 0x28, 0x84, 0x3c, 0x27, 0x55, 0x6c, 0xbb,
	0x8c, 0x8e, 0x43, 0xbc, 0x9e, 0x34, 0xe5, 0xbe, 0x43, 0xf9, 0xe6, 0xbe,
	0x78, 0xbf, 0x62, 0x3f, 0xaa, 0xd5, 0xc2, 0xbf, 0x99, 0x0d, 0xb6, 0xbd,
	0x9f, 0xca, 0x06, 0xbf, 0x5b, 0x10, 0x8a, 0xbe, 0xae, 0x4a, 0x99, 0xbf,
	0x66, 0x8d, 0x21, 0x40, 0x10, 0xa9, 0x2b, 0xbf, 0x8a, 0x80, 0xfb, 0x3e,
	0x3a, 0xa0, 0xd8, 0xbf, 0x45, 0x09, 0xf7, 0xbe, 0xcc, 0xf1, 0x87, 0x3d,
	0xb9, 0x0a, 0x57, 0xbe, 0x66, 0x20, 0x86, 0x3d, 0x25, 0x79, 0xaa, 0xbe,
	0x64, 0xc6, 0x83, 0xbd, 0xe2, 0x43, 0x72, 0xbe, 0x02, 0x7f, 0x58, 0x3d,
	0xf9, 0xf2, 0x2f, 0xc0, 0xec, 0x7c, 0xf7, 0x3e, 0x68, 0x6e, 0x0f, 0x3d,
	0xf9, 0x9a, 0x0d, 0xbe, 0x5d, 0x0e, 0x5a, 0xc0, 0x41, 0x4f, 0xc8, 0x3d,
	0x74, 0x75, 0x37, 0x3f, 0xc1, 0xb0, 0x86, 0x3d, 0xef, 0xe0, 0xef, 0xbc,
	0xf7, 0x1f, 0xb7, 0x3e, 0x9b, 0x85, 0x61, 0xbf, 0xf6, 0xa1, 0xa6, 0xbe,
	0x04, 0xdf, 0x96, 0xbf, 0x44, 0x0e, 0x0f, 0x40, 0x46, 0x66, 0x43, 0xbd,
	0x88, 0x87, 0x45, 0xc0, 0xfa, 0x1c, 0xe0, 0x3d, 0xbc, 0xb3, 0x40, 0x3e,
	0x90, 0x6b, 0x3d, 0xbe, 0x9d, 0x36, 0x60, 0x3f, 0x10, 0x86, 0x01, 0xbe,
	0xc8, 0x9a, 0xaf, 0x3f, 0xdf, 0x3c, 0x89, 0xbd, 0x99, 0x35, 0x53, 0x3e,
	0x9b, 0x0f, 0xad, 0x3e, 0xd1, 0xa9, 0x74, 0xbf, 0x75, 0x46, 0x08, 0xbc,
	0x31, 0x35, 0x98, 0xbf, 0x0f, 0x36, 0x35, 0xbe, 0x4a, 0x1f, 0x54, 0xbf,
	0xf2, 0x8a, 0x47, 0xbd, 0x15, 0x40, 0x3b, 0x3f, 0xc9, 0x56, 0x78, 0xbe,
	0x78, 0xd7, 0x81, 0x3d, 0x6e, 0x57, 0x05, 0x40, 0x77, 0x95, 0x8a, 0x3e,
	0xe5, 0x66, 0xc8, 0x3f, 0x36, 0x66, 0x22, 0x3e, 0x7b, 0xac, 0x36, 0xbe,
	0x26, 0xc2, 0x26, 0xbf, 0xa2, 0xea, 0xc9, 0xbf, 0x17, 0x92, 0x60, 0xbf,
	0x86, 0x94, 0x69, 0xbf, 0x0b, 0x84, 0x8f, 0x3e, 0x22, 0x5c, 0x36, 0x3f,
	0x05, 0xf8, 0x4a, 0xbe, 0x2a, 0x26, 0x87, 0xbe, 0xc1, 0xc7, 0x40, 0xbf,
	0x19, 0xf7, 0xca, 0xbf, 0x37, 0x60, 0xa3, 0x3e, 0xc7, 0xcf, 0xd9, 0xbe,
	0xde, 0x93, 0x53, 0x3f, 0xff, 0xab, 0x05, 0xbd, 0xad, 0xad, 0x27, 0x3e,
	0xbd, 0x48, 0x20, 0xbf, 0xa0, 0x37, 0xbd, 0xc0, 0xb0, 0x22, 0x94, 0x3e,
	0x86, 0x3d, 0x59, 0x3e, 0x23, 0x97, 0x1c, 0xbf, 0x6b, 0xd7, 0xc9, 0x3d,
	0x21, 0x01, 0x26, 0x40, 0x4f, 0x32, 0x45, 0x3e, 0x0f, 0x9e, 0x1b, 0x3f,
	0x66, 0x73, 0x16, 0xbe, 0xa3, 0xea, 0x09, 0x40, 0xee, 0x3d, 0x3e, 0x3e,
	0x1b, 0x6c, 0xb2, 0xbe, 0xde, 0xd8, 0xa8, 0x3d, 0xe3, 0xa8, 0xcb, 0x3c,
	0x1b, 0xe7, 0xb7, 0xbe, 0xf1, 0xbc, 0xf0, 0x3d, 0x8e, 0xa7, 0xac, 0xbf,
	0xc8, 0xf7, 0xc8, 0x3d, 0x06, 0xf3, 0xb3, 0xbc, 0x4c, 0x11, 0x28, 0x3f,
	0x7e, 0x00, 0xb7, 0x3e, 0x6a, 0x07, 0xce, 0x3e, 0x03, 0xb9, 0x89, 0x3f,
	0x57, 0x5c, 0x4f, 0x40, 0x40, 0x4b, 0xa2, 0x3c, 0x12, 0xa3, 0x56, 0x3f,
	0xe1, 0x60, 0x96, 0x3d, 0x31, 0xf4, 0x08, 0xbf, 0x7a, 0x8b, 0x06, 0x3e,
	0x9b, 0x84, 0x1b, 0xbf, 0x4f, 0xc9, 0x9c, 0x3e, 0xb2, 0xdf, 0x80, 0x3f,
	0x05, 0x64, 0x8c, 0x3e, 0x2a, 0x6f, 0xe6, 0x3f, 0xe4, 0x6c, 0x1d, 0xbe,
	0xec, 0xec, 0xc6, 0xbe, 0xc8, 0xdb, 0xf8, 0x3d, 0x16, 0xec, 0xaf, 0xbf,
	0x00, 0x84, 0x78, 0x3f, 0x5f, 0x8b, 0x03, 0x3c, 0x5c, 0x73, 0x77, 0xbf,
	0x74, 0x99, 0x8e, 0x3f, 0x21, 0xfc, 0x93, 0xbe, 0x66, 0x94, 0x33, 0xbe,
	0xe3, 0x7c, 0x52, 0xbc, 0xc6, 0x97, 0x8e, 0xbd, 0x40, 0xdb, 0xc6, 0x3d,
	0xab, 0x46, 0x8f, 0xbd, 0xb0, 0x99, 0x41, 0x3c, 0x14, 0xd3, 0x5e, 0xbe,
	0xd0, 0xcf, 0xb6, 0xbd, 0xdf, 0xec, 0x3d, 0xbe, 0x30, 0x70, 0x60, 0xbd,
	0x6e, 0x5d, 0x89, 0xbd, 0xbe, 0x77, 0x90, 0xbe, 0x70, 0x9a, 0x7f, 0x3e,
	0x45, 0x37, 0x4f, 0xbd, 0x99, 0x5e, 0x2f, 0xbd, 0x59, 0x6c, 0x80, 0xbd,
	0xf3, 0x23, 0x21, 0x3e, 0x3c, 0x73, 0x04, 0xbf, 0x4c, 0x9b, 0x40, 0xbf,
	0xe6, 0xb4, 0x06, 0x3e, 0x9f, 0x32, 0xd9, 0xbf, 0xe2, 0x1a, 0xf2, 0x3f,
	0xf3, 0x7c, 0x48, 0x3f, 0x58, 0x01, 0xda, 0x3e, 0xb1, 0x1f, 0x21, 0xbf,
	0x74, 0xab, 0xeb, 0x3e, 0x5d, 0x0c, 0xe9, 0x3e, 0xf6, 0x36, 0x18, 0x3f,
	0x98, 0xd2, 0x3c, 0xbe, 0xf8, 0xc7, 0xfa, 0x3d, 0x7c, 0x0f, 0x4a, 0x3d,
	0xdd, 0x29, 0x97, 0xbf, 0xb1, 0x29, 0xd9, 0x3e, 0xec, 0xcb, 0x92, 0x3f,
	0xc3, 0xed, 0x10, 0x3f, 0x68, 0x26, 0x31, 0xbf, 0x27, 0xce, 0x29, 0xbe,
	0x65, 0x94, 0x86, 0xbf, 0x81, 0x55, 0xd5, 0x3a, 0xfd, 0xfc, 0x96, 0x3f,
	0xbe, 0xed, 0x9a, 0xbf, 0xf7, 0x65, 0x73, 0xbf, 0xdb, 0x97, 0x8d, 0xbe,
	0xb6, 0x69, 0x32, 0x3f, 0xd9, 0xea, 0x34, 0x3e, 0x91, 0xec, 0x6d, 0xbe,
	0x3b, 0xc4, 0x17, 0xbf, 0xf9, 0xaa, 0x91, 0xbc, 0xad, 0x3d, 0xb0, 0x3c,
	0xf3, 0xe9, 0x4a, 0xbd, 0x5a, 0x54, 0x02, 0xbc, 0xae, 0xac, 0xa8, 0xbb,
	0x56, 0x34, 0xbb, 0xbd, 0x59, 0xdb, 0x97, 0xbd, 0xf1, 0x76, 0x65, 0x3c,
	0xc7, 0xaa, 0x29, 0xbe, 0xee, 0x4b, 0x92, 0xbd, 0x92, 0x09, 0x5d, 0x3e,
	0x9d, 0xfc, 0x72, 0xbd, 0xc1, 0x39, 0x46, 0xbd, 0x2a, 0x4d, 0x1c, 0x3c,
	0xb6, 0xa2, 0x69, 0x3c, 0x6d, 0x09, 0xe7, 0xbe, 0x97, 0x55, 0x6e, 0x3e,
	0x4d, 0x17, 0x66, 0xc0, 0x71, 0xf2, 0x96, 0x3f, 0xdf, 0x9e, 0xda, 0xbe,
	0xd3, 0x18, 0x8d, 0x3e, 0x21, 0x76, 0xc2, 0x3d, 0xad, 0xec, 0xc4, 0x3e,
	0x3b, 0xd2, 0xa2, 0x3c, 0x7b, 0xf5, 0x41, 0xbd, 0xa6, 0x4d, 0x57, 0x3d,
	0xac, 0x77, 0x8b, 0x3f, 0x45, 0xbd, 0xd6, 0x3c, 0x24, 0x5f, 0x4f, 0xbd,
	0x18, 0xff, 0xac, 0xbd, 0x90, 0xde, 0xd7, 0xbd, 0x42, 0x17, 0xe2, 0xc0,
	0x00, 0x36, 0x7f, 0xbd, 0xf1, 0x8b, 0x5e, 0x3d, 0xcd, 0xde, 0x84, 0x3e,
	0x0f, 0x8a, 0x9a, 0xbe, 0x19, 0xd6, 0x14, 0xbc, 0xa5, 0x3c, 0xae, 0x3e,
	0x33, 0xda, 0x16, 0x40, 0xf0, 0x28, 0xf3, 0x3b, 0x76, 0x7a, 0xbb, 0x3f,
	0x60, 0x53, 0xdf, 0x3d, 0x2c, 0x00, 0x37, 0xbe, 0x2b, 0x0a, 0x7b, 0xbd,
	0xd7, 0xbd, 0xcb, 0xbd, 0x31, 0x9c, 0xd9, 0xc0, 0x2b, 0xcc, 0x23, 0x3f,
	0x5a, 0xae, 0xf5, 0xbc, 0x96, 0xb7, 0x2e, 0xbf, 0x56, 0xec, 0xec, 0xbe,
	0xe9, 0xbf, 0x89, 0xbf, 0x48, 0x2d, 0xf5, 0x3e, 0x45, 0x7b, 0x8d, 0x3d,
	0x86, 0x69, 0x48, 0x3b, 0x10, 0x0d, 0x64, 0x3f, 0x23, 0x65, 0x52, 0x3d,
	0x94, 0xd2, 0x1b, 0xbd, 0xf0, 0x79, 0xdf, 0xbd, 0x56, 0x40, 0x38, 0xbe,
	0x73, 0xab, 0x9e, 0xbd, 0xd9, 0x6f, 0xc5, 0x3e, 0x2d, 0x37, 0x5f, 0x3e,
	0x1e, 0x0f, 0x54, 0x3d, 0x60, 0xe8, 0x02, 0xbe, 0x3b, 0x2d, 0x47, 0xbc,
	0xa5, 0xa6, 0x57, 0xbe, 0x0d, 0xb5, 0xf7, 0x3e, 0x7d, 0xb6, 0x26, 0xbd,
	0xda, 0x60, 0x18, 0xbf, 0x78, 0x49, 0x43, 0x3e, 0xfd, 0x6e, 0x2e, 0x3e,
	0x52, 0x0e, 0x47, 0x3f, 0x13, 0xbd, 0x52, 0x3d, 0x40, 0x4e, 0xaf, 0xbd,
	0xda, 0x49, 0x15, 0x3e, 0x6b, 0x6e, 0x36, 0x3e, 0xc9, 0xdd, 0x68, 0x3d,
	0xdf, 0xb2, 0x1e, 0xbf, 0xd5, 0x0a, 0x85, 0x3f, 0x3e, 0x70, 0x16, 0xbf,
	0xd4, 0x2f, 0xb2, 0xc0, 0x37, 0x96, 0x72, 0xbe, 0x98, 0xe8, 0xd6, 0x3e,
	0x80, 0x50, 0x5a, 0x3e, 0x81, 0x4f, 0x86, 0xbe, 0x29, 0x0e, 0xa1, 0x3e,
	0x75, 0x29, 0x80, 0x3e, 0x6a, 0x7a, 0x98, 0x3c, 0x95, 0xd1, 0x52, 0xbf,
	0xc6, 0xbd, 0x46, 0x3d, 0x3a, 0x4f, 0xf7, 0xbe, 0xf0, 0xa8, 0x3b, 0xbf,
	0xd8, 0x47, 0x03, 0x3e, 0xc4, 0x1f, 0xee, 0xbd, 0x58, 0x7c, 0x8f, 0x3f,
	0xa1, 0x0a, 0x40, 0x40, 0x7c, 0xb1, 0x18, 0xbf, 0x6d, 0x6f, 0x3f, 0x3f,
	0x47, 0xdf, 0xa0, 0xbd, 0x13, 0xa9, 0x2a, 0x3e, 0xc9, 0x62, 0x4f, 0xbf,
	0xa6, 0xd2, 0x6d, 0x3d, 0x5f, 0xed, 0x23, 0xbe, 0x5a, 0xb1, 0xfe, 0x3e,
	0x39, 0x04, 0x13, 0x3e, 0xaa, 0x17, 0x65, 0x3f, 0x8a, 0x40, 0xac, 0x3f,
	0x76, 0xd0, 0xb0, 0x3f, 0x93, 0x0a, 0xdd, 0xbf, 0x4f, 0x72, 0xfa, 0xbd,
	0xc6, 0x78, 0xdf, 0xbe, 0x99, 0x92, 0x3c, 0x3e, 0x84, 0x8f, 0x8e, 0xbf,
	0x16, 0x4e, 0x2d, 0xc0, 0xcb, 0x2a, 0x2a, 0xbf, 0x9b, 0x84, 0xe6, 0xbe,
	0x74, 0x55, 0xd7, 0xbf, 0x60, 0xbc, 0x05, 0x3f, 0xd5, 0x17, 0x8c, 0xbc,
	0xc9, 0x71, 0xe6, 0x3d, 0x8f, 0x8b, 0x12, 0xc0, 0xe3, 0x4a, 0xb5, 0xbf,
	0x5f, 0x03, 0x69, 0xbf, 0xb7, 0x85, 0x83, 0xbc, 0x7a, 0x03, 0x94, 0xbe,
	0xf6, 0x39, 0x0d, 0xbf, 0x79, 0x87, 0x80, 0x3f, 0x31, 0xbc, 0x8d, 0x3e,
	0x38, 0xbb, 0x1f, 0x40, 0x95, 0x85, 0x30, 0x3f, 0x27, 0x7d, 0x3a, 0x3f,
	0x75, 0xf9, 0x15, 0x3c, 0xe0, 0x54, 0xe5, 0xbd, 0x8f, 0xbc, 0x40, 0x3e,
	0x58, 0x09, 0xcf, 0x3e, 0xe2, 0x8d, 0x7f, 0xbc, 0xfc, 0x8c, 0xc4, 0x3b,
	0x08, 0xc7, 0x08, 0x3c, 0xd7, 0xa9, 0xff, 0xbb, 0xcf, 0x4c, 0x3a, 0x3d,
	0xb8, 0x48, 0x3a, 0x3d, 0x09, 0x89, 0x21, 0x3d, 0x37, 0xb2, 0xe5, 0x3b,
	0xfc, 0xc7, 0x3b, 0x3c, 0xf8, 0x08, 0x55, 0x3b, 0xb5, 0x0f, 0xd5, 0xbc,
	0x6c, 0x0d, 0x1b, 0x3c, 0x2d, 0xd5, 0x08, 0x3c, 0xf3, 0x2b, 0x80, 0x3b,
	0xd7, 0xe9, 0x9c, 0x3c, 0x89, 0x1a, 0x9c, 0xc0, 0xae, 0xa6, 0x74, 0x3f,
	0x70, 0x05, 0xb8, 0x3e, 0xe8, 0x86, 0xdd, 0x3f, 0x54, 0xc3, 0xc0, 0x3d,
	0xed, 0x44, 0xb7, 0x3e, 0xc0, 0x1c, 0xb7, 0x3e, 0x01, 0xcd, 0x0f, 0xbf,
	0xf9, 0xe4, 0x8f, 0xbe, 0xa0, 0xee, 0x4b, 0x3f, 0xd2, 0x14, 0xb4, 0xbe,
	0x81, 0x46, 0x89, 0x3d, 0x5f, 0xe1, 0x2a, 0x3d, 0x60, 0x58, 0x97, 0x3c,
	0x40, 0x20, 0x95, 0xbd, 0x8b, 0xdc, 0x82, 0x3f, 0x33, 0xcc, 0x9d, 0xbe,
	0x10, 0x3c, 0x81, 0xbe, 0x95, 0xf4, 0x81, 0xbe, 0x53, 0x08, 0xdf, 0xbd,
	0x95, 0x5d, 0x18, 0xbf, 0xa9, 0x9d, 0x2e, 0x3e, 0xb4, 0xdd, 0x9b, 0x3f,
	0x21, 0x1a, 0x99, 0x3f, 0xe5, 0x1f, 0x82, 0xbf, 0xc9, 0x6c, 0x56, 0x3f,
	0x6d, 0x13, 0x02, 0x40, 0x4b, 0xb3, 0x4c, 0xbe, 0x8e, 0x08, 0x90, 0xbc,
	0x1d, 0xc0, 0x6c, 0x3f, 0x92, 0x6e, 0x51, 0x3f, 0x49, 0xf2, 0x0e, 0xc0,
	0x76, 0xa9, 0x23, 0xbf, 0x1d, 0x97, 0x19, 0x3e, 0x2d, 0xa6, 0xd2, 0x3e,
	0x34, 0xbb, 0x5c, 0xbe, 0x18, 0xff, 0x19, 0xbf, 0x1a, 0x41, 0xac, 0x3e,
	0x79, 0xf6, 0xbc, 0xbf, 0x5e, 0xa5, 0xff, 0x3e, 0xb3, 0xab, 0xe3, 0x3e,
	0xff, 0xf9, 0x19, 0x3f, 0x2a, 0x91, 0xaf, 0x3c, 0x08, 0xae, 0xb3, 0xbd,
	0xaa, 0x5d, 0x18, 0xbb, 0xca, 0xf9, 0x65, 0xbd, 0x06, 0xf3, 0xa3, 0x3d,
	0x01, 0x13, 0xfd, 0x3d, 0x03, 0xff, 0x60, 0xbf, 0xca, 0xc0, 0x32, 0xbe,
	0xa8, 0xe7, 0xae, 0xbf, 0x9f, 0xe2, 0xcf, 0xbc, 0xa5, 0x18, 0xb6, 0x3f,
	0x66, 0x12, 0xc5, 0xbf, 0x30, 0x82, 0xbd, 0xbd, 0x1e, 0x58, 0x46, 0xbf,
	0xa9, 0xf6, 0x2a, 0x3f, 0xe6, 0x08, 0xdc, 0x3e, 0xeb, 0x5b, 0x7f, 0xbe,
	0x7c, 0xcd, 0xdb, 0xbd, 0x5a, 0x25, 0x73, 0xbb, 0x23, 0x09, 0x67, 0x3b,
	0x34, 0x92, 0x17, 0x3b, 0x43, 0x27, 0x16, 0xbc, 0x45, 0x6a, 0x0b, 0x3d,
	0x42, 0x43, 0x85, 0x39, 0x45, 0x35, 0x10, 0x3d, 0xb8, 0xff, 0x5f, 0x3c,
	0x53, 0xad, 0x50, 0xbc, 0x34, 0x56, 0x4f, 0x3a, 0x3b, 0x9b, 0x97, 0x3c,
	0x6a, 0xca, 0x4e, 0x3b, 0x51, 0xcf, 0x18, 0xbb, 0x90, 0x8e, 0x3b, 0x3b,
	0x17, 0x25, 0xac, 0x3b, 0x91, 0xfd, 0x1a, 0xbf, 0x31, 0xbb, 0x56, 0xbf,
	0xa3, 0xed, 0x67, 0xbf, 0x6d, 0x68, 0x86, 0xbf, 0xeb, 0x65, 0x07, 0xc0,
	0xe5, 0x4f, 0x40, 0x3f, 0x32, 0x64, 0x40, 0x3e, 0x28, 0x48, 0xed, 0x3e,
	0xf1, 0x81, 0x9f, 0x3f, 0xa3, 0xad, 0x39, 0x3f, 0x53, 0x4c, 0xd3, 0x3e,
	0x4f, 0x3a, 0xe1, 0x3e, 0xba, 0xe1, 0xd3, 0x3d, 0x0e, 0xa5, 0x03, 0x3e,
	0x0b, 0x91, 0xbb, 0x3f, 0x4b, 0xc8, 0xe4, 0xbe, 0x7e, 0x79, 0xc7, 0xbf,
	0x1d, 0x1f, 0x81, 0xbf, 0xaa, 0xa6, 0x21, 0x40, 0xf3, 0xbb, 0xb9, 0xbe,
	0x2c, 0xab, 0xc8, 0xbd, 0xcd, 0x80, 0x04, 0x3f, 0x39, 0x43, 0x49, 0x3f,
	0x26, 0xf9, 0x8d, 0x3f, 0x96, 0x58, 0xe2, 0xbd, 0x4f, 0xa4, 0x02, 0x3e,
	0xf3, 0xc8, 0xb6, 0x3f, 0xbd, 0x31, 0x14, 0xbe, 0x27, 0x7f, 0xcb, 0x3d,
	0xae, 0xea, 0xe1, 0xbe, 0xde, 0xba, 0xbe, 0x3f, 0xc6, 0xbd, 0xad, 0x3f,
	0xcd, 0xf3, 0xed, 0x3f, 0x89, 0x24, 0xd3, 0x3f, 0xa5, 0x25, 0xbf, 0x3e,
	0x20, 0xe9, 0x1c, 0x3f, 0x6b, 0xec, 0xcf, 0xbc, 0xf2, 0x4b, 0x1d, 0xbf,
	0x91, 0x3a, 0xc9, 0xbf, 0x82, 0x9c, 0x5b, 0x3e, 0x5e, 0x41, 0x48, 0xbe,
	0x0b, 0x98, 0x64, 0xbf, 0x5e, 0x57, 0x9a, 0x3d, 0xf6, 0x53, 0x13, 0x3e,
	0x91, 0x1b, 0xfe, 0x3d, 0x75, 0xdd, 0x1f, 0xbd, 0x7a, 0x1a, 0xe5, 0x3c,
	0x6a, 0x27, 0x9b, 0xbc, 0xb1, 0xbe, 0x41, 0x3c, 0xcf, 0xfe, 0x93, 0xbe,
	0xa1, 0x2c, 0x8b, 0x3e, 0xe7, 0xe1, 0x3a, 0xbe, 0x5d, 0x26, 0x1c, 0x3d,
	0x1c, 0x7e, 0x56, 0x3d, 0x7b, 0xaa, 0xa4, 0xbe, 0x04, 0xc8, 0x46, 0x3d,
	0xc5, 0x0c, 0xf5, 0x3c, 0x8b, 0xa0, 0x62, 0xbc, 0xcd, 0x24, 0xa2, 0xbc,
	0xff, 0x43, 0xef, 0x3b, 0xbf, 0x3a, 0x05, 0xbf, 0xae, 0x47, 0x42, 0xbf,
	0x78, 0x4c, 0x7a, 0xbe, 0xad, 0xb9, 0x2e, 0x3f, 0x50, 0x0c, 0xeb, 0xbf,
	0x14, 0x0f, 0xd5, 0x3f, 0x9e, 0x6f, 0x33, 0x3f, 0xdf, 0xf6, 0x52, 0x3e,
	0x8a, 0xa2, 0x07, 0x40, 0xba, 0xfb, 0x8e, 0xbe, 0xb1, 0xa0, 0x07, 0x3f,
	0x58, 0xc3, 0x70, 0x3f, 0x05, 0xc3, 0x97, 0x3e, 0x09, 0x94, 0xb6, 0x3e,
	0x8b, 0xbf, 0xb9, 0x3e, 0xbe, 0x7e, 0x9c, 0xbf, 0xfb, 0x29, 0xb1, 0xbf,
	0xbf, 0x7d, 0x06, 0xc0, 0xe0, 0xff, 0x8d, 0xbd, 0x53, 0x76, 0x0e, 0x40,
	0x4f, 0x3a, 0xa7, 0x3f, 0x1a, 0x30, 0x63, 0x3f, 0xe6, 0x7e, 0x1b, 0xbc,
	0xc3, 0x5b, 0x08, 0x3f, 0x74, 0xc1, 0x33, 0x3e, 0x79, 0xd7, 0x93, 0x3e,
	0x34, 0x9a, 0x18, 0x40, 0x8c, 0xf8, 0x3b, 0xbf, 0x99, 0x63, 0x19, 0xbe,
	0x9f, 0x20, 0x8b, 0xbf, 0xa6, 0x14, 0x4f, 0xbf, 0x29, 0xa1, 0xb6, 0xbd,
	0xd7, 0xb7, 0xc2, 0xbe, 0x91, 0xa2, 0xb5, 0x3f, 0x2a, 0x0a, 0xa1, 0x3e,
	0xbe, 0x40, 0xa3, 0x3d, 0xb6, 0x8b, 0xd4, 0xbe, 0xd4, 0x06, 0xd2, 0x3e,
	0x13, 0xcb, 0x92, 0xbf, 0xf1, 0xe0, 0xab, 0x3e, 0xa5, 0x3b, 0x9d, 0xbd,
	0x28, 0xc2, 0x82, 0x3f, 0x7d, 0x42, 0x39, 0x3f, 0xfe, 0x67, 0xbc, 0xbb,
	0xb1, 0x2e, 0xbe, 0xbe, 0x1b, 0x06, 0x59, 0xbd, 0x18, 0x80, 0x4a, 0x3d,
	0x83, 0x3d, 0x8b, 0xbd, 0xa5, 0xec, 0xf4, 0xba, 0xa1, 0x8f, 0x1b, 0xbe,
	0x1f, 0x1e, 0xb0, 0xbe, 0x52, 0x63, 0xa3, 0xbe, 0x2e, 0x8c, 0x90, 0x3c,
	0x27, 0x88, 0x09, 0xbe, 0xe3, 0x55, 0x67, 0xbd, 0xfd, 0xab, 0x59, 0x3e,
	0xf5, 0x33, 0x34, 0xbe, 0xed, 0xd0, 0xa4, 0xbd, 0x65, 0xd1, 0xa1, 0xbb,
	0x0e, 0xd5, 0x9a, 0xbd, 0x1e, 0xf3, 0x0d, 0x40, 0x20, 0x65, 0x3e, 0xc0,
	0xaa, 0x30, 0x24, 0x40, 0x1e, 0x90, 0x4a, 0x3f, 0x3e, 0x3f, 0x4b, 0xbe,
	0xc2, 0xfa, 0xc1, 0x3c, 0xb6, 0x3c, 0x2d, 0x3e, 0xfe, 0xa0, 0x74, 0xbe,
	0x7f, 0x7a, 0x47, 0x3f, 0xea, 0x9d, 0x64, 0xbe, 0xa3, 0xf0, 0x11, 0x3f,
	0x42, 0xfc, 0x4e, 0xbe, 0x55, 0x39, 0x17, 0x3e, 0xfa, 0x1e, 0xa3, 0x3c,
	0x82, 0x4b, 0x12, 0x3d, 0xc0, 0x9c, 0xb5, 0x3c, 0x4f, 0x5c, 0x6c, 0x3c,
	0x19, 0x3e, 0x47, 0x3c, 0x84, 0xc0, 0xca, 0xbc, 0x35, 0xe4, 0x88, 0xbd,
	0x64, 0x51, 0x4d, 0x3d, 0xb9, 0xcb, 0x24, 0xbd, 0x67, 0x09, 0x19, 0x3d,
	0x1c, 0x79, 0x62, 0x3c, 0xd9, 0xd9, 0x35, 0x3d, 0x65, 0xc3, 0x45, 0xbc,
	0x3b, 0x28, 0x8b, 0x3b, 0xfd, 0x71, 0xef, 0x3b, 0x51, 0xb5, 0x03, 0xb9,
	0xb8, 0x66, 0x59, 0x3b, 0x4d, 0x8a, 0xe8, 0xbd, 0x25, 0x6c, 0x9c, 0x3f,
	0x5d, 0x35, 0x20, 0x3c, 0x5a, 0xa3, 0xa0, 0x3e, 0x78, 0x26, 0xca, 0xbd,
	0x3e, 0x32, 0x94, 0x3e, 0x71, 0xcb, 0x2f, 0xbe, 0xef, 0xf0, 0x0e, 0x3e,
	0xa1, 0xea, 0xa5, 0xc0, 0x34, 0x70, 0xa9, 0x3d, 0x2d, 0x69, 0x07, 0xc0,
	0xd7, 0xb6, 0xe8, 0x3e, 0x7b, 0xb6, 0x2b, 0x3f, 0xa1, 0xf8, 0xdc, 0xbd,
	0x88, 0xe8, 0xaa, 0xbe, 0x38, 0x1a, 0x9a, 0x3f, 0x88, 0x4f, 0x4e, 0x3f,
	0x39, 0x19, 0xfd, 0xc0, 0x1d, 0x71, 0x10, 0x3f, 0x88, 0xc2, 0xde, 0xbe,
	0xa4, 0xe5, 0x04, 0xbf, 0x6a, 0x39, 0xe4, 0x3d, 0xfb, 0x31, 0x42, 0x3e,
	0x7e, 0xb6, 0xd7, 0xbe, 0x9e, 0x48, 0xe7, 0xbe, 0x69, 0xd9, 0x03, 0xbe,
	0x4c, 0xf8, 0x3b, 0x3f, 0xd8, 0x40, 0x42, 0xbd, 0x1f, 0x8b, 0xbf, 0x3c,
	0xc5, 0xd4, 0xe1, 0xbc, 0xe3, 0x2a, 0x6e, 0xbf, 0x7b, 0xe0, 0x76, 0xbf,
	0x08, 0x49, 0xb5, 0xbf, 0x50, 0xb7, 0xf8, 0x3f, 0xa4, 0xef, 0xa4, 0x3e,
	0x9a, 0x6e, 0x70, 0x40, 0x10, 0xf7, 0x4f, 0xbe, 0x35, 0xa5, 0x9d, 0xbd,
	0x9b, 0x9e, 0x9a, 0x3f, 0xf2, 0xf6, 0xc0, 0xbd, 0x2e, 0x62, 0x35, 0xbe,
	0x65, 0x72, 0x9a, 0x3f, 0x93, 0x07, 0xe4, 0x3b, 0xc8, 0x4e, 0x42, 0xbe,
	0x7c, 0x5d, 0x8d, 0xbe, 0x5a, 0xdc, 0xff, 0xff, 0x04, 0x00, 0x00, 0x00,
	0x00, 0x20, 0x00, 0x00, 0x21, 0x72, 0x0e, 0xbe, 0x67, 0x76, 0x41, 0x3e,
	0x6c, 0x87, 0xc8, 0xbf, 0x79, 0x0e, 0x0c, 0xbe, 0x6f, 0x3f, 0x83, 0xbd,
	0x97, 0x48, 0x81, 0x3e, 0x77, 0x79, 0x06, 0xbf, 0xfc, 0x73, 0x00, 0xbe,
	0x25, 0x04, 0x61, 0x3e, 0xfa, 0xe1, 0xaa, 0x3d, 0x58, 0x0b, 0x3f, 0xbe,
	0x57, 0x8a, 0xcc, 0x3e, 0x49, 0x87, 0x9c, 0xbe, 0x43, 0x8d, 0xfe, 0x3d,
	0xc1, 0x40, 0x39, 0xbe, 0x07, 0xbb, 0xa1, 0x3d, 0x1f, 0x34, 0x66, 0xbe,
	0x04, 0xdf, 0x41, 0x3d, 0xf8, 0x34, 0x63, 0xbe, 0x90, 0x60, 0x5b, 0x3d,
	0x68, 0x04, 0x16, 0x3f, 0x11, 0xcc, 0x4b, 0x3f, 0xec, 0x29, 0x9f, 0xbe,
	0x60, 0xa2, 0xd4, 0xbe, 0xf2, 0xa2, 0x17, 0xbc, 0xc1, 0x5c, 0x0e, 0xbf,
	0x78, 0x7b, 0x33, 0xbe, 0xa4, 0x94, 0xb5, 0x3e, 0x28, 0xaa, 0xfe, 0x3d,
	0x6b, 0xc3, 0x74, 0x3e, 0x1d, 0x1c, 0x44, 0xbf, 0x8b, 0x0a, 0x77, 0x3e,
	0x02, 0x32, 0xca, 0xbe, 0x25, 0x82, 0xb3, 0x3d, 0x80, 0x38, 0x8f, 0xbe,
	0xb9, 0x2a, 0xa1, 0xbe, 0x6e, 0x52, 0x4d, 0xbd, 0x4a, 0x00, 0x9e, 0xbd,
	0xf3, 0x2e, 0x78, 0x3d, 0xf1, 0x2c, 0x17, 0xbf, 0x2d, 0xe9, 0x03, 0x3d,
	0x18, 0x51, 0xa6, 0xbe, 0x86, 0x08, 0x1b, 0xbf, 0x50, 0x6c, 0x3a, 0xbf,
	0x5a, 0x11, 0x4b, 0x3e, 0x24, 0x84, 0x88, 0x3c, 0x54, 0x7d, 0xb4, 0x3e,
	0x6f, 0x31, 0xa6, 0xbe, 0x18, 0x6d, 0x3e, 0x3f, 0xeb, 0xe9, 0x95, 0x3e,
	0x60, 0xbd, 0x82, 0x3b, 0x1f, 0x35, 0x0e, 0xbf, 0x05, 0x78, 0x60, 0x3c,
	0xac, 0x34, 0x01, 0xbf, 0x5d, 0xc2, 0x2c, 0x3b, 0x22, 0xc2, 0x27, 0x3d,
	0x58, 0x6e, 0x5e, 0xbe, 0x14, 0x55, 0x6a, 0xbd, 0x3b, 0x72, 0x96, 0xbd,
	0xe6, 0x45, 0xdb, 0xbd, 0x4d, 0x11, 0xfb, 0x3c, 0x2d, 0xeb, 0xab, 0xbe,
	0xbe, 0x38, 0x06, 0xbf, 0xcd, 0x54, 0x85, 0xbc, 0x40, 0x78, 0x92, 0xbf,
	0x80, 0x1a, 0x22, 0x3d, 0xfd, 0x0e, 0x66, 0xbf, 0xa8, 0xdb, 0xbb, 0xbd,
	0x14, 0x0a, 0xd1, 0x3f, 0x8d, 0x7c, 0xcf, 0x3d, 0xc9, 0xe5, 0x02, 0xbf,
	0xc0, 0xb4, 0x2f, 0xbf, 0x6a, 0x8a, 0xad, 0x3d, 0x26, 0x35, 0x3c, 0x3d,
	0xb6, 0xa4, 0x18, 0xbf, 0xdf, 0x1a, 0x82, 0x3e, 0x31, 0x61, 0xa4, 0xbe,
	0x22, 0x5d, 0xf4, 0x3d, 0x7b, 0xee, 0x7e, 0x3e, 0xef, 0x60, 0x1d, 0x3d,
	0x57, 0x2e, 0x1f, 0xbd, 0x6c, 0x35, 0xf0, 0xbe, 0x8a, 0x14, 0xdb, 0x3e,
	0xc3, 0x5a, 0xb8, 0x3e, 0x64, 0xa8, 0xec, 0x3e, 0x4c, 0x1e, 0x0c, 0x3f,
	0x27, 0xa8, 0x3b, 0xbe, 0x92, 0x88, 0x62, 0x3e, 0x76, 0xb2, 0x6e, 0xbc,
	0x64, 0x8e, 0x48, 0xbf, 0x9b, 0x6b, 0x39, 0x3e, 0x1f, 0x2e, 0xca, 0xbe,
	0x8d, 0xb7, 0xa3, 0x3e, 0xbe, 0x3e, 0x6f, 0xbf, 0x87, 0x9b, 0x2d, 0xbe,
	0x52, 0x09, 0x15, 0x3d, 0xca, 0x0d, 0x73, 0xbe, 0x53, 0x31, 0x5c, 0xbe,
	0xe5, 0x1f, 0x2e, 0x3f, 0x09, 0x1c, 0x88, 0x3d, 0x87, 0x20, 0x18, 0xbc,
	0x13, 0x0d, 0x87, 0x3e, 0xcf, 0xd3, 0x9e, 0x3e, 0x9c, 0xb0, 0xbe, 0x3e,
	0xa6, 0x2c, 0x84, 0xbe, 0x44, 0x43, 0x43, 0xbe, 0x90, 0xea, 0xfd, 0xbd,
	0x7e, 0x07, 0x84, 0xbe, 0xab, 0x5a, 0xd5, 0xbe, 0x54, 0x26, 0xb6, 0xbc,
	0x31, 0x5e, 0x77, 0x3e, 0xf3, 0x3c, 0x0d, 0xbd, 0x66, 0x75, 0x3b, 0x3f,
	0xba, 0x57, 0xa0, 0x3e, 0x01, 0x86, 0x15, 0x3b, 0xb5, 0x47, 0x22, 0x3e,
	0x73, 0x96, 0xaa, 0x3e, 0x65, 0x0e, 0x94, 0xbf, 0xf5, 0xc1, 0xbf, 0xba,
	0x44, 0xc8, 0x5c, 0xbf, 0x90, 0xa6, 0xe5, 0xbf, 0x5f, 0x6e, 0x51, 0xbf,
	0x7d, 0x91, 0x62, 0x3d, 0x5e, 0x74, 0x13, 0xbf, 0x33, 0x9d, 0x9b, 0x3c,
	0xcf, 0x13, 0x24, 0xbd, 0x03, 0xee, 0xb0, 0xbf, 0xba, 0xe2, 0x8e, 0x3e,
	0xcb, 0x4b, 0x44, 0xbf, 0x6a, 0xc2, 0x93, 0xbe, 0x4a, 0xc9, 0x5d, 0xbf,
	0x62, 0x33, 0x37, 0xbe, 0x1c, 0x53, 0x98, 0xbf, 0x58, 0x27, 0x78, 0xbe,
	0xef, 0xea, 0x80, 0x3e, 0x23, 0x66, 0x21, 0xbf, 0x87, 0x48, 0xc3, 0x3d,
	0x01, 0xf0, 0x97, 0x3d, 0x10, 0xa1, 0xa6, 0x3d, 0x45, 0x66, 0xa0, 0x3e,
	0xe5, 0xc0, 0xdf, 0xbe, 0xc1, 0x4f, 0x93, 0x3d, 0xc5, 0x2b, 0x0b, 0xbf,
	0x9d, 0x72, 0x54, 0xbe, 0x03, 0x2c, 0xe2, 0x3d, 0x52, 0xeb, 0x8b, 0xbd,
	0x51, 0xec, 0x9e, 0xbe, 0x93, 0x77, 0xe7, 0x3d, 0xb1, 0x3e, 0x15, 0x3f,
	0x70, 0x90, 0xff, 0x3e, 0x6d, 0xd1, 0x04, 0xbf, 0x11, 0x90, 0x42, 0x3e,
	0xb5, 0xef, 0xa0, 0xbd, 0x00, 0x31, 0x13, 0xbf, 0x47, 0x56, 0x7e, 0xbe,
	0xe9, 0x8b, 0x9c, 0xbf, 0xbb, 0x8e, 0x44, 0x3e, 0xb6, 0x35, 0x00, 0x3f,
	0x61, 0xc3, 0x33, 0xbf, 0x8c, 0x63, 0x10, 0xbf, 0x9c, 0xbe, 0x69, 0xbe,
	0x8f, 0x2e, 0x3d, 0x3e, 0xef, 0x75, 0x58, 0xbf, 0x48, 0x25, 0x98, 0x3e,
	0x70, 0x24, 0x62, 0xbd, 0x59, 0x75, 0x24, 0x3d, 0x8c, 0x3f, 0xe7, 0xbe,
	0xfa, 0x2b, 0xd0, 0xbc, 0x70, 0x86, 0x9d, 0xbe, 0xfb, 0x33, 0x5f, 0x3d,
	0x23, 0x66, 0xef, 0xbe, 0xa2, 0xcc, 0x86, 0xbe, 0xa6, 0x51, 0xe2, 0xbe,
	0xcc, 0x2a, 0x9c, 0x3c, 0xfc, 0x5e, 0x14, 0x3d, 0xcf, 0xf2, 0xb4, 0x3e,
	0xd3, 0x36, 0x75, 0x3f, 0x0d, 0x4f, 0x3c, 0x3f, 0x12, 0x32, 0x81, 0xbb,
	0x67, 0xe3, 0x85, 0x3e, 0x90, 0xb8, 0x49, 0xbf, 0xae, 0xfa, 0x8b, 0xbf,
	0x1a, 0xed, 0x56, 0x3e, 0x5a, 0x88, 0x1a, 0xbe, 0x68, 0x9a, 0xd9, 0xbf,
	0xef, 0xf7, 0x34, 0xbe, 0x38, 0xc6, 0x52, 0x3a, 0x12, 0x52, 0x09, 0x3e,
	0xd4, 0x61, 0x09, 0x3d, 0x6b, 0xea, 0x87, 0xbd, 0x6e, 0x41, 0x9d, 0xbe,
	0xb7, 0x31, 0x45, 0xbe, 0xb7, 0x80, 0x51, 0x3f, 0x3c, 0x70, 0xbe, 0xbe,
	0x70, 0x67, 0xa3, 0x3f, 0x4c, 0xca, 0x36, 0x3f, 0xc3, 0xff, 0x9e, 0x3e,
	0x76, 0x4d, 0x6f, 0x3f, 0xc5, 0x79, 0x85, 0x3e, 0xa5, 0xee, 0xf7, 0x3f,
	0x0d, 0x96, 0xb8, 0xbc, 0x62, 0xc2, 0xe6, 0x3c, 0x20, 0x7b, 0x0e, 0x3d,
	0xe6, 0xfc, 0xfc, 0x3f, 0x25, 0xd8, 0xb4, 0x3d, 0x6c, 0x1a, 0x9c, 0xbe,
	0x91, 0xec, 0x3f, 0x3e, 0x7a, 0xf2, 0x03, 0xbe, 0xd1, 0x11, 0x78, 0x3d,
	0x7f, 0xa8, 0x30, 0x3f, 0x29, 0xf7, 0x23, 0x3f, 0x06, 0x73, 0x25, 0xbc,
	0x03, 0x0a, 0xce, 0xbe, 0x8e, 0xb5, 0x03, 0x3f, 0x0b, 0x02, 0xac, 0xbf,
	0xa6, 0x04, 0x0d, 0x3f, 0x63, 0xe2, 0x89, 0xbc, 0x12, 0x26, 0x17, 0x3f,
	0xd6, 0x4a, 0x65, 0x3d, 0x09, 0x86, 0x23, 0xbe, 0x95, 0x7d, 0x10, 0xbd,
	0x62, 0x05, 0x41, 0x3f, 0x96, 0x96, 0x8e, 0x3e, 0xaf, 0xaa, 0x3e, 0x3f,
	0xb1, 0x25, 0xed, 0x3e, 0x9f, 0x0a, 0xfa, 0xbb, 0x7c, 0x49, 0xe9, 0x3e,
	0x8a, 0x23, 0x04, 0x3f, 0x80, 0x09, 0x53, 0x3d, 0x8f, 0x0f, 0x42, 0x3f,
	0xaf, 0x8a, 0x6c, 0x3f, 0x04, 0x26, 0x1a, 0x3e, 0x26, 0x71, 0xad, 0x3c,
	0x88, 0x5d, 0x05, 0x3e, 0x54, 0xf7, 0xa5, 0x3e, 0xdd, 0x86, 0x3a, 0x3f,
	0x8b, 0xab, 0xd3, 0x3e, 0xcd, 0x6c, 0x64, 0xbc, 0x27, 0x40, 0x60, 0x3f,
	0x99, 0x71, 0x54, 0x3f, 0x70, 0x78, 0xb0, 0x3f, 0x0d, 0x5b, 0x21, 0xbf,
	0x03, 0x6b, 0x82, 0x3c, 0x22, 0x2c, 0x4c, 0x3e, 0xce, 0x00, 0x51, 0xbf,
	0xa4, 0x37, 0x45, 0x3f, 0xf8, 0x1f, 0x0f, 0xbd, 0xc1, 0x4f, 0x09, 0x3e,
	0xa3, 0xab, 0x71, 0xbb, 0xf3, 0xfd, 0x7b, 0xbe, 0x33, 0xc5, 0xf1, 0x3d,
	0x58, 0x4f, 0xdc, 0x3f, 0x94, 0x29, 0x97, 0xbb, 0x84, 0x6f, 0x5b, 0x3e,
	0x1b, 0xc2, 0x42, 0x3f, 0xc0, 0x95, 0x60, 0x3d, 0xba, 0xef, 0xed, 0x3c,
	0xa3, 0x8e, 0x66, 0x3f, 0xe6, 0x9e, 0xb0, 0xbc, 0x8e, 0x86, 0x94, 0x3f,
	0x91, 0x4f, 0xd0, 0x3e, 0x64, 0xb3, 0x42, 0x3e, 0x7f, 0xbf, 0x2a, 0x3c,
	0x37, 0x43, 0x61, 0xbf, 0x3a, 0xd2, 0x5d, 0x3e, 0x08, 0x2b, 0xa5, 0x3d,
	0x42, 0x4f, 0xa1, 0xbf, 0x1c, 0x23, 0x0a, 0x3f, 0xcd, 0x31, 0x01, 0xbe,
	0x5c, 0xc3, 0xb7, 0x3e, 0x04, 0x86, 0xf4, 0xbe, 0x06, 0xfb, 0x78, 0xbf,
	0xa7, 0xac, 0x52, 0x3f, 0xca, 0x39, 0x38, 0xbf, 0x69, 0x2a, 0x56, 0xbf,
	0x2b, 0x10, 0xb6, 0xbc, 0x59, 0xcd, 0x40, 0x3f, 0xda, 0x28, 0x89, 0x3f,
	0x9d, 0xb4, 0x11, 0xbf, 0xd1, 0x8c, 0x37, 0xbd, 0x42, 0x54, 0x8b, 0xbd,
	0x5b, 0x07, 0x7c, 0x3e, 0xed, 0xb0, 0x73, 0x3d, 0xdc, 0xe9, 0x06, 0xbf,
	0x73, 0x10, 0x54, 0xbe, 0xf8, 0x75, 0xa6, 0x3e, 0x18, 0xa5, 0x06, 0x3e,
	0xe4, 0xab, 0xad, 0xbe, 0x9e, 0x6e, 0x2f, 0x3e, 0x04, 0xe0, 0xe5, 0x3c,
	0x49, 0xce, 0x5b, 0x3f, 0xc3, 0x60, 0x27, 0x3f, 0xe2, 0xa3, 0x66, 0x3c,
	0x49, 0xf7, 0xb5, 0x3f, 0x3b, 0x16, 0xd4, 0x3d, 0xfa, 0x62, 0xbc, 0x3f,
	0x16, 0x85, 0x01, 0xbe, 0x92, 0xc7, 0xb5, 0x3d, 0x04, 0x0c, 0x58, 0x3f,
	0x22, 0x67, 0x13, 0x3f, 0x05, 0x32, 0x8a, 0xbe, 0xa5, 0xec, 0xa2, 0xbb,
	0xdb, 0x29, 0x7c, 0xbf, 0x1d, 0xb4, 0x16, 0xbd, 0x03, 0xfd, 0xbf, 0x3f,
	0x77, 0x3c, 0x4d, 0x3e, 0xc0, 0x02, 0xaf, 0xba, 0x6c, 0xc2, 0xcc, 0x3e,
	0x6b, 0xdc, 0xd8, 0xbf, 0xfe, 0x02, 0xa1, 0xbf, 0x90, 0x8f, 0x37, 0x3d,
	0xdb, 0x5e, 0x54, 0x3f, 0xf4, 0xc2, 0x1b, 0x3f, 0xb9, 0x7b, 0x19, 0xbf,
	0x06, 0x4a, 0xea, 0x3c, 0x26, 0x8e, 0x2c, 0x3e, 0xca, 0x84, 0x82, 0xbc,
	0x86, 0xe6, 0xbc, 0x3c, 0x4f, 0x5a, 0x2d, 0xbe, 0x93, 0xe7, 0xa6, 0xbf,
	0x83, 0xc6, 0xb3, 0xbf, 0xae, 0x93, 0xe8, 0xbd, 0x82, 0x41, 0x20, 0x3e,
	0xde, 0xbb, 0xc6, 0x3e, 0x51, 0x56, 0x0c, 0x3f, 0x44, 0xdf, 0xf7, 0xbf,
	0x45, 0x32, 0x73, 0x3e, 0xc5, 0xb1, 0x51, 0x3e, 0x39, 0xea, 0x38, 0x3e,
	0xe3, 0x5c, 0xca, 0xbc, 0xa7, 0x79, 0x0a, 0x3e, 0x4e, 0xf2, 0xe0, 0x3d,
	0xf0, 0xa0, 0x96, 0x3e, 0xc8, 0x44, 0x0a, 0xbf, 0x83, 0xbb, 0x57, 0xbe,
	0x4c, 0xb9, 0x45, 0xbf, 0x17, 0xd1, 0xe2, 0x3e, 0x8d, 0x73, 0xb2, 0xbd,
	0x11, 0x3d, 0x84, 0xbe, 0xf8, 0x73, 0xe0, 0xbd, 0x17, 0xd4, 0x0d, 0x3f,
	0xaa, 0x79, 0xd6, 0xbd, 0x74, 0x5e, 0x0c, 0x3e, 0x33, 0xc2, 0x94, 0xbe,
	0x96, 0xec, 0xae, 0x3d, 0xa5, 0x95, 0xbb, 0xbe, 0x52, 0xec, 0x49, 0x3f,
	0xe4, 0xd9, 0xcc, 0xbe, 0x5a, 0x8a, 0xd1, 0x3e, 0x02, 0x40, 0xff, 0x3d,
	0x1e, 0x68, 0xb0, 0xbc, 0x33, 0x10, 0xa9, 0x3f, 0x41, 0x32, 0x8a, 0x3e,
	0xab, 0x6b, 0x61, 0xbc, 0xf2, 0x3b, 0xa2, 0xbe, 0xfe, 0x2c, 0x79, 0x3b,
	0xd5, 0x89, 0x47, 0xbc, 0xf4, 0x77, 0x45, 0xbe, 0x7d, 0xee, 0x3b, 0xbf,
	0x7f, 0xa8, 0x7d, 0xbd, 0xa8, 0x8b, 0x24, 0x3e, 0x00, 0x2d, 0x58, 0x3e,
	0x6e, 0x28, 0xae, 0xbe, 0x28, 0xb1, 0x05, 0xbf, 0xff, 0xcb, 0x28, 0x3f,
	0xbd, 0xaa, 0x47, 0x3a, 0x5e, 0xc9, 0xa5, 0xbe, 0x77, 0xde, 0x54, 0x3f,
	0xf4, 0xef, 0x91, 0x3e, 0xd1, 0x5f, 0x65, 0xbf, 0x82, 0xa1, 0x77, 0xbb,
	0x46, 0x84, 0x02, 0x3f, 0xe3, 0x36, 0x86, 0xbe, 0xde, 0xe4, 0x21, 0xbf,
	0x51, 0x3c, 0xa4, 0xbd, 0x15, 0xf5, 0x89, 0x3e, 0x25, 0xb3, 0x62, 0x3e,
	0x91, 0x71, 0xb3, 0xbf, 0xea, 0x69, 0x1c, 0xbd, 0x1b, 0x64, 0x27, 0x3f,
	0x80, 0x36, 0x37, 0xbb, 0xc6, 0x21, 0xcd, 0x3e, 0x2e, 0x27, 0x4a, 0xbd,
	0x30, 0x98, 0x75, 0xbf, 0x34, 0xeb, 0x4b, 0x3d, 0x0a, 0xef, 0x96, 0x3e,
	0xa3, 0xa0, 0x11, 0x3c, 0x35, 0xdc, 0xe2, 0xbd, 0x97, 0xaa, 0x1f, 0x3f,
	0x10, 0xff, 0x2c, 0xbf, 0x0d, 0xbc, 0x2c, 0xbe, 0x6f, 0xe1, 0xd4, 0xbe,
	0x94, 0xaf, 0xba, 0x3e, 0x07, 0x8a, 0xdc, 0xbc, 0x10, 0x69, 0x96, 0x3c,
	0xb6, 0x21, 0x50, 0xbd, 0x34, 0xb7, 0xc3, 0xbc, 0x6a, 0x99, 0xc4, 0xbe,
	0x51, 0x5e, 0xed, 0xbe, 0x9d, 0x2b, 0x78, 0x3f, 0x16, 0x07, 0x22, 0x3f,
	0x07, 0x96, 0x34, 0xbd, 0xfa, 0xca, 0x18, 0x3d, 0x58, 0xc7, 0x17, 0xbe,
	0x68, 0x2d, 0x17, 0x3d, 0x7a, 0xfa, 0xee, 0xbc, 0xeb, 0x3e, 0x7f, 0xbf,
	0x6a, 0x2b, 0x9a, 0xbf, 0x6a, 0xb7, 0x8a, 0x3c, 0x45, 0x9b, 0x83, 0xbf,
	0x24, 0x5a, 0xc6, 0x3e, 0xa6, 0xcc, 0xd4, 0xbe, 0xd2, 0x78, 0xa6, 0xbb,
	0x06, 0x4a, 0xbb, 0x3e, 0xd3, 0xd6, 0x00, 0x3e, 0xb2, 0x06, 0x1d, 0x3d,
	0x61, 0x70, 0xbe, 0x3e, 0x37, 0x37, 0xab, 0xbd, 0x6f, 0xe8, 0xb6, 0xbe,
	0x3a, 0x2b, 0x85, 0x3e, 0xae, 0xf9, 0x5d, 0xbd, 0xc9, 0x50, 0x3c, 0xbf,
	0xbe, 0x40, 0x5a, 0xbf, 0x76, 0x7c, 0xac, 0x3d, 0xe5, 0x3a, 0x09, 0x3e,
	0xc9, 0xa3, 0x01, 0x3f, 0xe8, 0xb4, 0xa4, 0xbf, 0x78, 0xe0, 0xb9, 0xbf,
	0x34, 0x57, 0x33, 0xbf, 0xb3, 0x01, 0x9a, 0x3b, 0x98, 0xbe, 0x90, 0x3e,
	0x1a, 0xdb, 0x05, 0x3e, 0xf8, 0x78, 0x43, 0x3f, 0x60, 0x93, 0x31, 0xbf,
	0x13, 0x2d, 0x98, 0x3a, 0x24, 0x97, 0xa1, 0xbf, 0x65, 0x3c, 0x0f, 0xbf,
	0x12, 0x18, 0x6c, 0xbf, 0xda, 0xf7, 0x6e, 0xbb, 0xaa, 0x2b, 0xa2, 0xbe,
	0x49, 0x61, 0x07, 0xbf, 0x07, 0x2b, 0x9d, 0xbe, 0x52, 0x37, 0xc3, 0xbd,
	0x77, 0x44, 0x9a, 0xbd, 0xcf, 0x07, 0x9a, 0xbc, 0x79, 0xaf, 0xa6, 0xbd,
	0x89, 0x8e, 0x60, 0xbf, 0x91, 0x16, 0x9f, 0x3e, 0x8e, 0xd7, 0x35, 0xbf,
	0x70, 0xe1, 0xcc, 0xbe, 0xf8, 0xdd, 0x3f, 0xbe, 0x02, 0x5c, 0x08, 0xbf,
	0x4b, 0x90, 0x08, 0x3e, 0xfe, 0x57, 0x40, 0xbe, 0xb1, 0xac, 0x08, 0x3f,
	0xf2, 0xe9, 0x10, 0xbf, 0x57, 0xbd, 0x75, 0x3f, 0xfb, 0x24, 0xd9, 0x3d,
	0x52, 0xde, 0x6e, 0x3e, 0xd5, 0x9e, 0x80, 0x3e, 0xab, 0x36, 0xb6, 0xb9,
	0x60, 0x99, 0x8b, 0x3d, 0x9a, 0x46, 0xd5, 0x3e, 0x48, 0x50, 0xf5, 0xbd,
	0x80, 0xe5, 0xe2, 0xbf, 0xf2, 0x29, 0x3d, 0xbe, 0xdb, 0xf6, 0xd3, 0x3e,
	0x2f, 0xcc, 0xd1, 0x3c, 0x6c, 0xa5, 0x00, 0x3f, 0x0e, 0xcc, 0xb4, 0xbe,
	0xe5, 0x30, 0xca, 0xbd, 0x28, 0x26, 0xc4, 0x3e, 0x24, 0x97, 0x0e, 0x3d,
	0x03, 0x71, 0x25, 0xbf, 0x16, 0x7e, 0x32, 0x3e, 0x01, 0xca, 0x45, 0xbf,
	0xcb, 0xdf, 0x2d, 0x3f, 0x99, 0x1e, 0x26, 0xbf, 0x1a, 0x10, 0xdc, 0xbe,
	0x3f, 0x00, 0x9f, 0xbf, 0x18, 0x8c, 0x12, 0xbe, 0x5c, 0x59, 0xc2, 0x3c,
	0x3e, 0xb0, 0xc6, 0xbd, 0xd4, 0xf9, 0x48, 0x3e, 0x9a, 0x0f, 0x85, 0x3d,
	0x73, 0x41, 0xd6, 0x3e, 0x81, 0x30, 0x01, 0xbf, 0xa3, 0x3a, 0x5e, 0x3e,
	0x23, 0x12, 0x46, 0x3e, 0x74, 0x8a, 0x85, 0x3e, 0x39, 0x31, 0x8b, 0x3d,
	0xe7, 0x22, 0x64, 0xbf, 0x86, 0x0d, 0xc0, 0xbe, 0x06, 0xe3, 0xa1, 0xbc,
	0xcf, 0x67, 0xa6, 0x3d, 0x56, 0xd4, 0x08, 0x3f, 0xed, 0x00, 0x5c, 0x3f,
	0x3b, 0x0b, 0x3e, 0x3e, 0xed, 0x35, 0x24, 0x3b, 0xd1, 0xf0, 0x5e, 0x3e,
	0xb9, 0x11, 0x93, 0xbf, 0x2d, 0xf6, 0x2f, 0xbe, 0xec, 0xa0, 0x92, 0xbd,
	0xf7, 0xf6, 0xdf, 0xbe, 0x18, 0x63, 0x8d, 0xbf, 0x0f, 0xaa, 0x88, 0x3e,
	0x44, 0xd4, 0x1f, 0x3d, 0x8b, 0x67, 0x08, 0xbe, 0x26, 0xf5, 0xe3, 0xbc,
	0x98, 0xe8, 0x7e, 0x3e, 0x78, 0xe0, 0xd1, 0xbd, 0x2b, 0xe1, 0x90, 0xbf,
	0x74, 0x7c, 0x5c, 0xbf, 0xf9, 0x05, 0x2d, 0xbe, 0xfa, 0x82, 0x9d, 0xbe,
	0x4f, 0xfd, 0x2f, 0x3f, 0xe0, 0xdd, 0x2e, 0xbe, 0xc8, 0x2b, 0x6d, 0xbf,
	0x2f, 0x72, 0xdf, 0x3e, 0x38, 0x86, 0x4b, 0x3c, 0xfd, 0x95, 0xb7, 0x3e,
	0x31, 0xe8, 0x42, 0x3e, 0x1c, 0x03, 0x40, 0xbf, 0x6e, 0x08, 0x81, 0x3f,
	0x9b, 0x57, 0xa7, 0xba, 0x5a, 0x1a, 0x07, 0x3f, 0x34, 0xe9, 0xf8, 0x3e,
	0xd5, 0xfa, 0xfb, 0xbe, 0xdd, 0x70, 0x94, 0x3f, 0x61, 0x59, 0x4f, 0xbe,
	0xa3, 0x15, 0xaa, 0x3d, 0x76, 0xbb, 0x94, 0x3e, 0x9f, 0x6a, 0x4a, 0x3f,
	0x27, 0xff, 0xe0, 0x3f, 0xaf, 0xaa, 0x41, 0xbf, 0xb5, 0x55, 0x36, 0xbd,
	0x6f, 0xba, 0x70, 0xbe, 0x5c, 0x73, 0x45, 0xbf, 0x4a, 0xad, 0x81, 0x3e,
	0xaf, 0x04, 0x01, 0x3e, 0x01, 0xe2, 0xba, 0xbe, 0xb1, 0x61, 0x40, 0x3e,
	0x91, 0x75, 0xee, 0xbe, 0x9e, 0xad, 0xf6, 0x3d, 0x4c, 0x38, 0x86, 0x3f,
	0x6c, 0xd8, 0xbb, 0xbd, 0x80, 0xe4, 0x65, 0xbf, 0xed, 0x22, 0x06, 0xbe,
	0x4d, 0x5e, 0x8b, 0xbd, 0x46, 0x9f, 0x8b, 0x3e, 0x28, 0x23, 0x0b, 0xbf,
	0x97, 0xc0, 0x51, 0x3f, 0x3a, 0x1b, 0xd2, 0xbe, 0x64, 0x0b, 0x5a, 0xbf,
	0x06, 0xd9, 0x8d, 0x3e, 0x71, 0xb0, 0x20, 0x3e, 0xcf, 0x02, 0x29, 0xbd,
	0xbd, 0xe8, 0x0f, 0x3e, 0x61, 0xb6, 0x6a, 0xbf, 0x67, 0xc3, 0xde, 0x3e,
	0x40, 0x69, 0xdb, 0x3f, 0xe6, 0x8f, 0x43, 0x3e, 0xf6, 0xb8, 0x3a, 0xbc,
	0x90, 0xfb, 0x01, 0xbd, 0xb8, 0x59, 0x62, 0xbf, 0xf2, 0x6c, 0xc0, 0xbf,
	0xbb, 0x65, 0x9d, 0x3d, 0x2c, 0x88, 0x9f, 0x3e, 0x17, 0x96, 0x34, 0x3e,
	0xc1, 0x5a, 0xe2, 0xbe, 0x20, 0x01, 0xbc, 0xbd, 0x43, 0xf7, 0x6c, 0xbe,
	0x87, 0x28, 0xa7, 0x3d, 0xb4, 0x1a, 0x60, 0xbe, 0x98, 0xd7, 0x0c, 0xbf,
	0x3d, 0x30, 0x98, 0xbf, 0x88, 0x6f, 0x1c, 0xbf, 0xb1, 0xee, 0x44, 0x3f,
	0x25, 0xa1, 0x01, 0xbf, 0x85, 0x81, 0x00, 0xbe, 0xea, 0x96, 0x8a, 0x3f,
	0xd6, 0x8e, 0x07, 0xbf, 0x16, 0x12, 0xce, 0x3e, 0x78, 0x16, 0x07, 0x3f,
	0x3e, 0xed, 0x56, 0x3f, 0x6f, 0xf8, 0x2d, 0x3f, 0x80, 0xe7, 0x70, 0xbf,
	0xaa, 0xd6, 0xba, 0x3f, 0x25, 0xf0, 0x7d, 0xbf, 0x87, 0x6e, 0xab, 0x3f,
	0x97, 0x82, 0xba, 0x3e, 0x10, 0x4d, 0xf0, 0x3e, 0xfa, 0x85, 0x4f, 0x3e,
	0x4a, 0x35, 0x05, 0x3f, 0xe0, 0xbf, 0x09, 0x3f, 0x01, 0x49, 0x55, 0x3e,
	0x29, 0x36, 0xdc, 0x3f, 0x3a, 0x3c, 0xb4, 0x3f, 0x49, 0x4b, 0x47, 0xbf,
	0x22, 0x46, 0x3d, 0x3d, 0xe7, 0x9e, 0x97, 0xbd, 0x0d, 0xec, 0xbd, 0xbf,
	0x0f, 0x99, 0x1e, 0xbf, 0xd9, 0xba, 0x20, 0x3e, 0x87, 0xef, 0x76, 0x3f,
	0x1b, 0x71, 0x77, 0x3f, 0xe3, 0x13, 0xdc, 0xbe, 0x0a, 0x85, 0x11, 0x3e,
	0xaa, 0xc8, 0xe2, 0x3e, 0x16, 0x6f, 0xce, 0x3c, 0x19, 0x16, 0xe0, 0x3e,
	0x36, 0xd4, 0xcd, 0xbd, 0x21, 0xad, 0xc7, 0xbd, 0xcb, 0x45, 0x76, 0x3f,
	0xab, 0xea, 0x0c, 0xbf, 0x72, 0x2a, 0x34, 0x3f, 0x80, 0x68, 0xf0, 0xbe,
	0x34, 0x57, 0x06, 0xbf, 0xb8, 0xd5, 0x27, 0xbf, 0xd6, 0x70, 0xac, 0xbe,
	0xe0, 0x75, 0xe8, 0x3e, 0xd1, 0x65, 0xe4, 0x3d, 0xb2, 0xcc, 0xd7, 0xbe,
	0x8d, 0xb2, 0x1f, 0x3f, 0x7e, 0xe4, 0x35, 0x40, 0xa0, 0xa3, 0x43, 0x3e,
	0x3b, 0xe7, 0xc0, 0x3b, 0xe8, 0x76, 0xa3, 0xbd, 0xbd, 0x8d, 0xab, 0xbe,
	0xa8, 0x2b, 0x8c, 0x3c, 0x23, 0x76, 0x5a, 0x3c, 0x6b, 0x88, 0x8f, 0x3e,
	0xd8, 0xf0, 0x2a, 0xbf, 0x65, 0x38, 0x5d, 0x3c, 0xe3, 0x2a, 0x3b, 0xbe,
	0x14, 0x18, 0x80, 0xbd, 0xa6, 0x17, 0x4c, 0xbe, 0x1d, 0xdd, 0x42, 0xbf,
	0x8d, 0x3d, 0x81, 0xbe, 0x02, 0xcb, 0xcb, 0xbe, 0x56, 0xca, 0xa8, 0xbe,
	0x20, 0xa4, 0x02, 0x3f, 0x68, 0x7b, 0xa3, 0x3d, 0xd6, 0x64, 0x83, 0xbf,
	0xd8, 0x44, 0xb3, 0x3f, 0xe1, 0x9b, 0xfb, 0xbe, 0xfa, 0x6e, 0xb3, 0xbf,
	0x6c, 0x0e, 0x94, 0xbe, 0x9e, 0xa4, 0x2c, 0x3f, 0x49, 0xef, 0x8b, 0x3d,
	0xf2, 0x27, 0x37, 0x3d, 0x9f, 0xdb, 0xef, 0x3e, 0xdc, 0x0c, 0x77, 0x3d,
	0x31, 0x8b, 0xba, 0xbd, 0x06, 0x11, 0x99, 0x3e, 0x61, 0x29, 0x43, 0xbf,
	0x14, 0xfa, 0x99, 0xbe, 0x01, 0x76, 0xd8, 0xbe, 0xf5, 0x8f, 0x4d, 0xbf,
	0xbb, 0xc6, 0x9c, 0xbd, 0x31, 0xaa, 0xf8, 0xbe, 0xaf, 0xd7, 0x28, 0x3e,
	0x64, 0xf5, 0xca, 0xbe, 0xe9, 0x16, 0xa5, 0xbe, 0x66, 0xee, 0xac, 0xbc,
	0xb3, 0x0e, 0x42, 0xbf, 0xbd, 0x02, 0xef, 0x3d, 0x90, 0xbe, 0x0c, 0xbf,
	0xf4, 0xc6, 0x18, 0x3e, 0x75, 0x49, 0x16, 0x3e, 0x1b, 0x51, 0x68, 0xbe,
	0xe3, 0x02, 0xd5, 0x3e, 0x42, 0xde, 0xcd, 0xbd, 0x75, 0xef, 0xcc, 0x3d,
	0x71, 0x82, 0xad, 0xbe, 0x92, 0x29, 0x3a, 0x3f, 0x8f, 0xaa, 0xcf, 0x3d,
	0xae, 0x1d, 0xe5, 0xbe, 0xf1, 0x7f, 0x01, 0xbf, 0x34, 0x50, 0xe7, 0x3d,
	0x69, 0xbf, 0x2c, 0x3e, 0x0a, 0x5d, 0xaa, 0x3e, 0xcb, 0x64, 0x10, 0xbe,
	0xfa, 0x7b, 0x9a, 0xbf, 0x47, 0xa2, 0x2a, 0xbf, 0x1c, 0x61, 0x71, 0x3b,
	0xf8, 0x97, 0xad, 0x3b, 0xbf, 0x8e, 0xbd, 0xbe, 0xde, 0x0e, 0x0f, 0x3f,
	0xcc, 0xc3, 0x19, 0x3f, 0xb9, 0x7d, 0xf4, 0x3b, 0x5d, 0xf1, 0xda, 0xbf,
	0x49, 0xc0, 0x16, 0xbe, 0xa3, 0x54, 0x64, 0xbe, 0x4e, 0x06, 0x4a, 0xbd,
	0x8e, 0x05, 0xff, 0xbe, 0x8b, 0x7a, 0x5e, 0x3f, 0x86, 0xd0, 0x6f, 0xbe,
	0xd3, 0xeb, 0x21, 0x3e, 0xa3, 0x76, 0x35, 0xbe, 0x70, 0xb8, 0x14, 0xbc,
	0x1b, 0x70, 0xf8, 0x3d, 0x99, 0x31, 0xac, 0xbe, 0xb2, 0x14, 0x89, 0xbf,
	0x87, 0x61, 0xec, 0xbe, 0x81, 0x47, 0xe4, 0x3e, 0x4c, 0xdf, 0x33, 0x3c,
	0xe8, 0x4c, 0x51, 0xbf, 0xa8, 0x4e, 0xc7, 0xbd, 0xcd, 0x2e, 0x1d, 0xbf,
	0xf9, 0x7e, 0x57, 0xbe, 0x77, 0x09, 0xd8, 0xbe, 0xa3, 0x72, 0x8b, 0x3b,
	0x64, 0xc2, 0x15, 0xbe, 0x75, 0xd2, 0xbf, 0x3e, 0x2c, 0xe1, 0x53, 0x3e,
	0x0b, 0x95, 0x04, 0xbe, 0xd5, 0x93, 0x58, 0x3e, 0xf0, 0x57, 0x53, 0xbe,
	0xd9, 0x43, 0x63, 0x3d, 0x3e, 0xf0, 0x85, 0xbe, 0xcc, 0x8a, 0x9f, 0xbe,
	0x99, 0x6a, 0x83, 0x3e, 0x70, 0xb2, 0xe0, 0xbd, 0x81, 0x85, 0x18, 0x3f,
	0xc4, 0xca, 0x13, 0x3f, 0x94, 0x4a, 0x06, 0xbf, 0x21, 0xc3, 0x12, 0xbf,
	0x4d, 0x17, 0x79, 0x3d, 0x38, 0x18, 0x18, 0xc0, 0xed, 0xe9, 0x5d, 0xbf,
	0x6b, 0xf4, 0x67, 0xbe, 0xc5, 0xc3, 0xeb, 0xbd, 0x4c, 0xaf, 0x78, 0x3f,
	0xaf, 0xbe, 0x13, 0xbf, 0x3e, 0xdb, 0x64, 0xbf, 0xe5, 0x36, 0x1b, 0x3e,
	0x42, 0x8a, 0x09, 0xbe, 0xa8, 0xc0, 0xe7, 0xbe, 0xfa, 0xab, 0x68, 0x3e,
	0x4f, 0x7a, 0x88, 0xbd, 0x17, 0x74, 0xad, 0x3e, 0x1b, 0x39, 0x53, 0xbf,
	0x9e, 0x4a, 0x72, 0x3f, 0x02, 0xa3, 0xaf, 0xbd, 0xe7, 0x59, 0xca, 0xbe,
	0x8a, 0xf5, 0x40, 0x3d, 0xcd, 0x27, 0x95, 0xbf, 0xac, 0x98, 0xf6, 0xbd,
	0x35, 0x6c, 0xdb, 0x3b, 0x6f, 0xd7, 0x7a, 0xbe, 0x63, 0xfa, 0xbd, 0xbe,
	0x05, 0x5f, 0x86, 0x3f, 0x8d, 0x3d, 0xfc, 0x3e, 0x6a, 0xe4, 0xc7, 0xbb,
	0x85, 0xb4, 0x90, 0xbf, 0xcc, 0xd7, 0x33, 0x3e, 0xe1, 0x90, 0xaa, 0xbf,
	0xed, 0x24, 0x9f, 0xbd, 0xa0, 0x28, 0xf6, 0x3d, 0x5f, 0x7a, 0xe9, 0xbf,
	0x24, 0x6c, 0x3d, 0x3c, 0xf5, 0xf8, 0x9a, 0xbd, 0x78, 0x35, 0x8b, 0xbe,
	0x59, 0x89, 0x52, 0x3b, 0x30, 0xb0, 0xa1, 0xbe, 0x30, 0x86, 0xaa, 0xbe,
	0x49, 0x30, 0x1a, 0xbf, 0xa9, 0x70, 0x17, 0xbf, 0x22, 0xec, 0x55, 0x3e,
	0x09, 0xb6, 0xac, 0xbd, 0x89, 0xd5, 0x72, 0x3e, 0x8c, 0x04, 0x46, 0x3f,
	0x36, 0x33, 0x3d, 0xbf, 0xa5, 0x08, 0xa8, 0xbd, 0x3c, 0x88, 0x89, 0x3e,
	0x9f, 0x92, 0xb7, 0x3d, 0xa8, 0xd9, 0xb9, 0xbd, 0x85, 0x32, 0x2a, 0xbf,
	0x73, 0x10, 0xc0, 0x3e, 0xaf, 0x21, 0xa1, 0xbd, 0xad, 0x5f, 0x0b, 0xbf,
	0x90, 0x6f, 0x1d, 0xbf, 0xa3, 0xa2, 0xf2, 0x3d, 0x37, 0x01, 0xca, 0xbe,
	0x08, 0x28, 0x87, 0xbd, 0xb7, 0x2b, 0x58, 0x3e, 0x11, 0x02, 0xd4, 0xbd,
	0x1d, 0xa6, 0xf8, 0x3e, 0xfd, 0x50, 0x51, 0x3f, 0xec, 0x83, 0xd5, 0xbe,
	0x90, 0x0b, 0x80, 0xbe, 0xbf, 0xc1, 0xd2, 0x3c, 0x76, 0x36, 0x1e, 0xc0,
	0x9c, 0xca, 0xa0, 0xbe, 0x2d, 0x43, 0x30, 0xbe, 0x35, 0x38, 0x13, 0xbf,
	0xbc, 0xe9, 0x24, 0x3e, 0xfc, 0x11, 0xb9, 0xbe, 0x50, 0xb2, 0xca, 0x3e,
	0x6d, 0x0b, 0x11, 0x3f, 0x6f, 0x4e, 0x19, 0x3e, 0xce, 0xbf, 0xb8, 0xbe,
	0xbc, 0x1f, 0xbd, 0xbe, 0xb3, 0x0b, 0x87, 0x3d, 0xa9, 0xe1, 0x96, 0x3e,
	0xe3, 0x6e, 0x4a, 0xbf, 0x8b, 0xc1, 0x71, 0x3f, 0x68, 0xf6, 0x91, 0xbd,
	0xd7, 0x5d, 0x82, 0x3e, 0x99, 0x5f, 0xf7, 0x3d, 0xc0, 0xfa, 0xe7, 0xbf,
	0x6e, 0x6f, 0xd5, 0x3e, 0x19, 0xdc, 0x71, 0xbb, 0x43, 0x99, 0xd0, 0xbd,
	0xe8, 0x1a, 0x4e, 0x3e, 0xd6, 0x90, 0x59, 0x3f, 0x08, 0x90, 0x81, 0xbd,
	0x05, 0x41, 0xa6, 0xbb, 0x33, 0x6e, 0x78, 0xbf, 0xf2, 0x90, 0x0d, 0x3e,
	0xe9, 0xdd, 0x8f, 0xbf, 0x66, 0xf5, 0xb4, 0xbc, 0xc0, 0x1b, 0xad, 0x3e,
	0x97, 0x42, 0x65, 0xbf, 0x6b, 0x39, 0x95, 0xbf, 0x42, 0xd9, 0x13, 0x3e,
	0x2e, 0x1c, 0x06, 0x3d, 0x9c, 0xac, 0x36, 0xbd, 0x47, 0xae, 0xab, 0xbf,
	0x30, 0x67, 0x20, 0xbf, 0x09, 0xe5, 0x20, 0xbf, 0xce, 0x7d, 0x6b, 0x3e,
	0xfa, 0x07, 0x2f, 0xbf, 0xa1, 0x92, 0x37, 0xbe, 0x34, 0x64, 0x82, 0xbe,
	0x8f, 0xc8, 0x26, 0xbf, 0xd6, 0x24, 0xa1, 0xbe, 0xcb, 0xf9, 0x35, 0x3e,
	0x91, 0x17, 0x3a, 0x3e, 0x7b, 0xe9, 0x66, 0xbe, 0xd8, 0x7b, 0xb4, 0xbd,
	0x37, 0x60, 0x38, 0xbe, 0xe3, 0xc6, 0xf6, 0xbd, 0xf2, 0xfc, 0x7a, 0xbd,
	0xf5, 0x29, 0x91, 0xbf, 0x79, 0xb7, 0x84, 0x3e, 0xa1, 0xfb, 0x87, 0xbe,
	0x6a, 0xa3, 0xe2, 0xbe, 0xa6, 0x6d, 0x9c, 0xbf, 0x5a, 0x6b, 0xee, 0xbd,
	0x8f, 0x75, 0x8c, 0xbe, 0xe4, 0xa1, 0x13, 0x3f, 0x97, 0x44, 0x5e, 0x3f,
	0x5d, 0x2c, 0x45, 0xbf, 0xfe, 0xb6, 0x84, 0x3d, 0xca, 0x2e, 0xee, 0x3d,
	0x48, 0xeb, 0xc8, 0xbe, 0xf2, 0x1c, 0x02, 0xbd, 0xca, 0xd5, 0xda, 0xbe,
	0x5e, 0x49, 0x87, 0xbe, 0xd0, 0x89, 0xab, 0xbe, 0xe3, 0xf8, 0x09, 0x3e,
	0x51, 0xcc, 0x13, 0xbf, 0x0c, 0x45, 0x15, 0xbf, 0x1d, 0xd6, 0xe8, 0x3d,
	0xe7, 0x18, 0xd8, 0x3d, 0xeb, 0x45, 0x34, 0x3d, 0x79, 0x1e, 0x44, 0x3d,
	0x6a, 0xc0, 0x95, 0x3e, 0x9f, 0x39, 0x08, 0xbf, 0x74, 0x47, 0x07, 0xbf,
	0x4e, 0xe4, 0x12, 0xbe, 0xdc, 0x83, 0x4b, 0xbf, 0x6d, 0xa4, 0x1c, 0xbf,
	0x32, 0x3a, 0xfc, 0xbd, 0x7d, 0x3c, 0x9d, 0xbd, 0x26, 0x7f, 0x2f, 0x3c,
	0xfa, 0x1e, 0x9c, 0x3d, 0x67, 0x90, 0x1d, 0xbf, 0x58, 0x1f, 0xa7, 0x3e,
	0xbd, 0xbb, 0x27, 0x3f, 0xe2, 0xb0, 0xa9, 0x3b, 0xbc, 0x60, 0x0e, 0xbf,
	0x32, 0x41, 0x0f, 0xbf, 0x87, 0x3c, 0xcc, 0xbf, 0xb1, 0xb6, 0x1c, 0xbe,
	0x8a, 0x61, 0x69, 0xbe, 0x8c, 0xdd, 0xe6, 0x3c, 0xd9, 0x27, 0x3f, 0x3d,
	0x57, 0xa8, 0x18, 0x3e, 0x9e, 0x2f, 0x4e, 0xbe, 0x83, 0xb7, 0x41, 0xbd,
	0xaa, 0xc4, 0x02, 0xbe, 0xf5, 0x5e, 0x06, 0xbf, 0x37, 0xac, 0x43, 0xbf,
	0xba, 0xf5, 0x25, 0xbf, 0xb4, 0xd9, 0xfa, 0x3e, 0xd7, 0x99, 0x18, 0xbf,
	0x99, 0x5e, 0xa3, 0xbe, 0x30, 0xdd, 0x01, 0x3f, 0xea, 0xcb, 0x74, 0x3e,
	0x17, 0x48, 0xdb, 0xbe, 0xa5, 0x7d, 0xdc, 0x3d, 0xc6, 0x39, 0xac, 0x3e,
	0xe1, 0xe7, 0xa9, 0xbd, 0x7b, 0x95, 0x28, 0xbf, 0xc4, 0x2a, 0x97, 0x3f,
	0x2b, 0x98, 0x00, 0xbf, 0xb9, 0x28, 0xd0, 0x3e, 0x34, 0x73, 0xff, 0xbe,
	0xf0, 0xb1, 0xca, 0xbc, 0xb1, 0xf2, 0x22, 0x3f, 0x07, 0x68, 0xde, 0x3e,
	0xea, 0x85, 0xcf, 0x3c, 0x42, 0xa8, 0x02, 0x3d, 0x05, 0xc9, 0xdd, 0x3e,
	0x12, 0x26, 0x7c, 0x3f, 0xff, 0x22, 0x9b, 0xbf, 0x0b, 0x0d, 0xd7, 0x3e,
	0x05, 0x72, 0x18, 0x3d, 0x3a, 0x7d, 0xb4, 0xbf, 0x87, 0x0f, 0x24, 0x3f,
	0x12, 0x04, 0xa4, 0x3e, 0xae, 0x12, 0xcd, 0x3d, 0xa1, 0xc8, 0xbc, 0x3e,
	0x94, 0x3c, 0x83, 0xbf, 0xe6, 0x34, 0x5c, 0x3f, 0x7c, 0x8b, 0xdd, 0xbe,
	0x0d, 0x9b, 0x55, 0x3e, 0x70, 0xca, 0x3d, 0x3e, 0x61, 0x74, 0x63, 0x3f,
	0xc3, 0x10, 0x06, 0x3e, 0xdf, 0x87, 0x7f, 0x3e, 0x96, 0x88, 0x5d, 0xbf,
	0xb4, 0xcb, 0x5d, 0x3f, 0xb8, 0x64, 0x43, 0x3e, 0xbb, 0x50, 0x12, 0xbc,
	0xbd, 0xa2, 0xb3, 0xbe, 0x12, 0xd4, 0x5c, 0xbf, 0x4f, 0xd1, 0xe8, 0x3e,
	0xf4, 0xf7, 0x1c, 0xbb, 0x03, 0x98, 0x90, 0xbd, 0xa7, 0xe8, 0x0f, 0x3f,
	0xf0, 0xd3, 0xf4, 0x3f, 0x7e, 0x38, 0xe2, 0x3d, 0xf9, 0x1b, 0xff, 0x3d,
	0xea, 0x68, 0x4d, 0xbf, 0x33, 0xac, 0x91, 0xbe, 0x98, 0x7b, 0x68, 0xbf,
	0xa0, 0xdc, 0x2c, 0xbd, 0x8d, 0xf1, 0x1f, 0x3a, 0x06, 0x09, 0xf0, 0xbe,
	0x8b, 0xe0, 0x53, 0xbe, 0x2c, 0x03, 0x80, 0x3e, 0xee, 0x20, 0x7b, 0xbe,
	0x41, 0xc2, 0x9e, 0xbd, 0x5d, 0x31, 0xec, 0xbe, 0xb6, 0xdc, 0xd1, 0xbd,
	0x46, 0xea, 0x0f, 0xbf, 0x70, 0x96, 0x54, 0xbe, 0xf4, 0xf4, 0xa8, 0x3d,
	0x34, 0x25, 0x94, 0xbf, 0xb3, 0x5b, 0x57, 0xbd, 0xfe, 0x88, 0x5d, 0xbe,
	0x77, 0x98, 0x1b, 0x3e, 0xb1, 0xf5, 0x97, 0xbd, 0xb0, 0x73, 0x54, 0xbe,
	0x92, 0x08, 0x11, 0x3f, 0x56, 0xba, 0xbf, 0xbe, 0xc9, 0x61, 0x30, 0xbd,
	0xfd, 0xd8, 0x04, 0x3f, 0xe3, 0xdc, 0x81, 0xbd, 0x5f, 0x23, 0x2b, 0xbe,
	0x1c, 0xa3, 0xbe, 0xbd, 0x7a, 0x89, 0xe6, 0x3d, 0x01, 0x43, 0x39, 0xbf,
	0x83, 0xd8, 0x30, 0xbe, 0x1f, 0xce, 0xe4, 0x3e, 0xd2, 0xe5, 0xc2, 0xbe,
	0x93, 0x7d, 0x45, 0x3f, 0xee, 0xff, 0x2b, 0x3d, 0x4c, 0x4e, 0xfa, 0xbd,
	0x2c, 0xdb, 0xe0, 0x3e, 0x14, 0x4a, 0x3f, 0x3e, 0x44, 0xfd, 0x04, 0xbf,
	0x8e, 0xd6, 0x1e, 0x3d, 0xbf, 0xf9, 0x7b, 0x3e, 0x69, 0x55, 0xf8, 0x3e,
	0x48, 0x43, 0xb8, 0xbe, 0x53, 0x5f, 0x0b, 0xc0, 0x3c, 0xb9, 0x6d, 0xbe,
	0xc8, 0xdb, 0xc7, 0xbc, 0x40, 0x2d, 0x8e, 0xbd, 0xd4, 0x57, 0x99, 0x3e,
	0x68, 0x81, 0xb2, 0x3e, 0x78, 0x80, 0x49, 0xbe, 0x94, 0xf5, 0xce, 0x3e,
	0x4d, 0x07, 0x37, 0xbf, 0x0d, 0x45, 0x0f, 0x3f, 0x94, 0xb7, 0xf6, 0x3e,
	0x94, 0xa8, 0xa0, 0x3e, 0xcb, 0xd5, 0x69, 0xbf, 0xf9, 0x30, 0x2d, 0xbf,
	0x84, 0x5e, 0xb7, 0xbd, 0xd3, 0xab, 0xdd, 0x3c, 0x1c, 0x83, 0xd9, 0xbe,
	0x60, 0x7d, 0x5f, 0x3f, 0xa9, 0xc2, 0x84, 0x3f, 0x00, 0xea, 0x1a, 0xbe,
	0xab, 0xff, 0xce, 0xbb, 0xdd, 0x33, 0x22, 0xbf, 0xd8, 0xea, 0xe8, 0xbe,
	0xb3, 0xc1, 0xd8, 0xbe, 0x28, 0x19, 0x30, 0xbe, 0x09, 0x23, 0x98, 0xbf,
	0x0b, 0x1e, 0x41, 0xbd, 0x9a, 0xe9, 0xed, 0xbe, 0x7a, 0xc7, 0x32, 0xbe,
	0x8f, 0xfd, 0x0b, 0x3f, 0x96, 0x01, 0xa0, 0x3d, 0x36, 0x59, 0x25, 0xbf,
	0x11, 0x00, 0x43, 0x3f, 0xf3, 0x64, 0xbf, 0xbe, 0xda, 0x03, 0xa0, 0xbe,
	0xa3, 0x1e, 0xdf, 0x3e, 0xc0, 0xee, 0x85, 0x3d, 0x94, 0x5a, 0x76, 0xbf,
	0x51, 0xbc, 0x87, 0xbf, 0x11, 0x2e, 0xe7, 0xbe, 0x92, 0x14, 0xe6, 0x3c,
	0xeb, 0x73, 0x7e, 0x3d, 0x86, 0x19, 0x4c, 0x3e, 0x28, 0xab, 0x91, 0x3b,
	0xec, 0xbd, 0x8b, 0xbe, 0x14, 0xd3, 0x0e, 0xbe, 0x69, 0x5f, 0x49, 0x3e,
	0x45, 0x1c, 0x85, 0x3e, 0x2f, 0xc6, 0xee, 0x3d, 0x55, 0x97, 0x74, 0xbf,
	0xb7, 0xaa, 0x72, 0x3f, 0xfd, 0x21, 0xb6, 0x3e, 0xd7, 0x2c, 0xa3, 0xbf,
	0x27, 0xef, 0x7b, 0xbc, 0x33, 0xfb, 0x9d, 0x3f, 0x0c, 0xa9, 0xc2, 0x3e,
	0x86, 0x52, 0xc1, 0x3e, 0xb0, 0x10, 0x5b, 0xbd, 0xff, 0x47, 0x83, 0xbc,
	0xc4, 0x0e, 0x70, 0xbd, 0xca, 0x18, 0x1b, 0xbf, 0x6c, 0xfa, 0xb5, 0x3d,
	0xe9, 0xf6, 0x18, 0x3e, 0xb4, 0xb8, 0xee, 0xbe, 0x09, 0x27, 0x27, 0xbe,
	0x65, 0x69, 0x25, 0x3e, 0xcd, 0xb9, 0xeb, 0xbe, 0x5c, 0x33, 0xed, 0xbc,
	0xde, 0x9d, 0x7e, 0xbe, 0x2c, 0x35, 0x11, 0xbf, 0x8c, 0x8c, 0x84, 0x3c,
	0x16, 0xab, 0x28, 0x3e, 0xfe, 0xb9, 0x25, 0xbf, 0xd0, 0x92, 0x14, 0x3e,
	0xae, 0xb7, 0x09, 0xbc, 0x86, 0x33, 0xf9, 0xbf, 0x8f, 0xcb, 0x2c, 0x3f,
	0x57, 0x85, 0x49, 0x3e, 0xa7, 0xde, 0xfd, 0x3d, 0x04, 0x4e, 0xb8, 0xbc,
	0xd8, 0x03, 0xd2, 0x3d, 0xd6, 0x3d, 0xb9, 0x3e, 0x29, 0x93, 0x90, 0x3e,
	0x3c, 0xb0, 0x96, 0xbe, 0xeb, 0x10, 0xd3, 0x3b, 0x30, 0x1c, 0x12, 0x3f,
	0xeb, 0xe0, 0x9d, 0x3d, 0x43, 0x6d, 0x9b, 0xbf, 0xc6, 0x13, 0xce, 0xbc,
	0xb4, 0x9a, 0x6e, 0x3f, 0xc9, 0xf4, 0xec, 0x3c, 0x9a, 0x4d, 0x27, 0xbe,
	0x1e, 0x1e, 0xcc, 0x3d, 0x72, 0x12, 0x31, 0xbe, 0xc2, 0x9d, 0x6f, 0xbc,
	0xb2, 0xc4, 0x6c, 0xbf, 0xbc, 0x29, 0xd5, 0x3e, 0x41, 0x3e, 0x4a, 0xbe,
	0x0c, 0x6c, 0x2a, 0x3e, 0xc4, 0x1e, 0xee, 0xbe, 0xa4, 0x2d, 0x41, 0x3d,
	0xc4, 0x70, 0x1f, 0xbe, 0x5f, 0x39, 0x40, 0xbf, 0xbb, 0x3c, 0x78, 0xbe,
	0x3b, 0x71, 0xc8, 0xbe, 0x48, 0x3f, 0x38, 0xbf, 0x4b, 0xf2, 0xd4, 0xbd,
	0x52, 0x60, 0x3a, 0xbd, 0x9d, 0x99, 0xac, 0x3d, 0x27, 0x7b, 0x21, 0x3f,
	0xee, 0xab, 0xe0, 0x3e, 0xaf, 0x7e, 0xb1, 0x3d, 0xf8, 0xfc, 0x51, 0x3e,
	0x53, 0x39, 0xeb, 0x3e, 0xd7, 0xa1, 0xda, 0xbe, 0x19, 0x95, 0x0d, 0xbf,
	0x6b, 0xbf, 0xa0, 0x3e, 0x7a, 0xf8, 0x19, 0xbe, 0xb4, 0x7c, 0x10, 0x3f,
	0x61, 0x9d, 0x25, 0x3e, 0xa8, 0x5d, 0x06, 0xbf, 0x27, 0x41, 0x61, 0x3e,
	0x59, 0x96, 0x07, 0xbd, 0x8f, 0x4c, 0xa8, 0xbd, 0xcf, 0xa0, 0x95, 0x3e,
	0x60, 0x19, 0x8c, 0x3e, 0x02, 0x0c, 0x14, 0xbf, 0xfd, 0x76, 0x5c, 0x3f,
	0xb2, 0xc4, 0xf3, 0xbe, 0xaa, 0x0e, 0x04, 0x3e, 0xb6, 0x6f, 0x42, 0xbf,
	0x58, 0xe0, 0x20, 0xbd, 0xd5, 0x72, 0xeb, 0x3e, 0xb9, 0x37, 0xef, 0xbe,
	0xc6, 0x88, 0x27, 0x3c, 0xb9, 0x9e, 0x20, 0x3f, 0xdd, 0xc8, 0x7e, 0xbf,
	0x6d, 0x26, 0xe5, 0x3d, 0x10, 0x90, 0xa4, 0x3e, 0x1f, 0xa3, 0xa9, 0xbe,
	0x31, 0x28, 0xa4, 0x3e, 0x16, 0x7e, 0x04, 0xbd, 0xd6, 0x64, 0x96, 0xbe,
	0x16, 0xc1, 0x81, 0xbc, 0xdc, 0x28, 0x80, 0xbe, 0x40, 0x74, 0x52, 0xbf,
	0x6c, 0xb5, 0x6e, 0x3f, 0x97, 0x4c, 0xf2, 0xbe, 0x3e, 0x66, 0x9c, 0xbb,
	0xc9, 0x0d, 0x34, 0xbf, 0xab, 0x9a, 0x09, 0xc0, 0xee, 0xb9, 0x61, 0xbf,
	0xf5, 0xb9, 0x69, 0x3c, 0x1e, 0x4a, 0x2e, 0xbf, 0xef, 0x8a, 0xde, 0xbe,
	0x90, 0x9a, 0xb0, 0x3e, 0x59, 0x46, 0x8b, 0x3c, 0x39, 0x06, 0xfa, 0xbe,
	0x1b, 0x4a, 0x3f, 0x3c, 0x53, 0x42, 0xe7, 0x3e, 0x67, 0x02, 0x95, 0xbe,
	0xda, 0xf5, 0x0e, 0xbf, 0xbd, 0xc0, 0x7a, 0xbe, 0x79, 0xcd, 0xaa, 0x3e,
	0x0b, 0x3b, 0x7a, 0xbe, 0x2b, 0x42, 0xf5, 0x3e, 0x10, 0x0d, 0x64, 0x3e,
	0x7b, 0x99, 0x39, 0xbf, 0x56, 0x75, 0xcd, 0x3e, 0x33, 0xd9, 0xd0, 0x3d,
	0x51, 0xc0, 0x8c, 0x3f, 0xaa, 0xf1, 0xd5, 0xbc, 0x70, 0xd4, 0x6b, 0xbe,
	0xb7, 0xf1, 0x74, 0x3f, 0x0d, 0x5e, 0x89, 0xbe, 0xb8, 0x81, 0x47, 0x3f,
	0xdc, 0x2c, 0xb7, 0x3e, 0x95, 0x69, 0x89, 0x3e, 0x6b, 0x5c, 0x10, 0xbe,
	0x2d, 0x57, 0x3c, 0x3e, 0x19, 0x50, 0xa4, 0x3d, 0x74, 0x93, 0x09, 0x3e,
	0xea, 0x56, 0x2d, 0x3f, 0x4d, 0xf3, 0x41, 0x3f, 0x6d, 0xc6, 0x95, 0xbf,
	0x12, 0xc3, 0x38, 0x3f, 0x06, 0x68, 0x82, 0x3c, 0x56, 0xbf, 0x08, 0xbf,
	0xf3, 0xbe, 0xdb, 0x3e, 0xcc, 0xea, 0x0a, 0x3e, 0xe2, 0xc2, 0xe6, 0x3d,
	0x05, 0x09, 0x13, 0x3e, 0xbf, 0x6d, 0xae, 0xbe, 0xfb, 0x18, 0x87, 0xbd,
	0x48, 0xf2, 0x82, 0x3e, 0x6a, 0xa6, 0x84, 0xbd, 0x2e, 0xe5, 0xd7, 0x3e,
	0x5a, 0x87, 0xef, 0x3e, 0x1f, 0xc5, 0x24, 0xbe, 0x8f, 0xd3, 0x1b, 0x3f,
	0x53, 0x61, 0x56, 0xbe, 0x25, 0xa2, 0x14, 0x3f, 0x1b, 0x39, 0x33, 0x3e,
	0x59, 0x42, 0xbf, 0xbe, 0xe7, 0xa7, 0x72, 0x3e, 0xaa, 0x4c, 0x8e, 0xbe,
	0x34, 0xb5, 0x8a, 0x3e, 0xe6, 0x74, 0xd4, 0x3d, 0x2d, 0xd5, 0xfe, 0xbe,
	0x6e, 0x4c, 0x43, 0xbd, 0x7f, 0xee, 0xd2, 0x3f, 0x25, 0x62, 0xed, 0x3e,
	0xa9, 0xbd, 0x01, 0x3e, 0xf9, 0x26, 0xd7, 0x3c, 0xd4, 0x11, 0x20, 0xbf,
	0xef, 0x1e, 0x0f, 0xbf, 0xed, 0x00, 0x97, 0x3e, 0x28, 0xcc, 0x3b, 0xbe,
	0xe5, 0xf7, 0xfa, 0xbc, 0x3b, 0xaf, 0x08, 0xbe, 0x67, 0xdd, 0x20, 0xbe,
	0xd5, 0x03, 0xc4, 0x3e, 0x44, 0x5b, 0xab, 0x3e, 0x9b, 0x9f, 0x9f, 0xbe,
	0xdf, 0x6e, 0x83, 0x3e, 0xb6, 0x3c, 0x4b, 0x3e, 0x51, 0xb0, 0x69, 0xbe,
	0x89, 0x6f, 0x45, 0x3f, 0xe7, 0xbe, 0xb2, 0x3c, 0x03, 0x89, 0x25, 0xc0,
	0xa4, 0x91, 0x28, 0xbf, 0x87, 0xbf, 0x5a, 0x3d, 0xe9, 0xb8, 0x38, 0xbf,
	0xe9, 0x97, 0x99, 0xbe, 0xc0, 0x6f, 0xbd, 0xbd, 0xcc, 0x1f, 0xa0, 0x3c,
	0x97, 0xc0, 0x9a, 0xbe, 0xe3, 0xd1, 0x1b, 0xbe, 0x3b, 0x52, 0x97, 0xbd,
	0x17, 0xc5, 0x80, 0x3d, 0x04, 0xf0, 0x93, 0x3e, 0x1f, 0xae, 0xd4, 0xbe,
	0x90, 0xa9, 0xd6, 0xbe, 0xce, 0x48, 0xe6, 0xbd, 0x7c, 0x39, 0x82, 0xbf,
	0xd2, 0xcb, 0x30, 0x3b, 0x60, 0x36, 0x38, 0xbe, 0xaf, 0xbb, 0x3b, 0x3d,
	0xc7, 0xd0, 0x30, 0x3d, 0x67, 0x5f, 0xcd, 0x3e, 0x71, 0x10, 0xb2, 0xbc,
	0xc2, 0x2a, 0x16, 0xbf, 0xd4, 0xeb, 0x2a, 0x3c, 0x77, 0xfa, 0x97, 0x3f,
	0xf3, 0x37, 0x98, 0x3d, 0xd2, 0x7b, 0xc9, 0x3d, 0xb4, 0x9f, 0x4c, 0x3f,
	0x0e, 0xb2, 0xe1, 0xbe, 0x6e, 0x18, 0xdf, 0xbc, 0x3d, 0x2d, 0x79, 0x3c,
	0xff, 0xc6, 0x2e, 0xbd, 0xd5, 0x84, 0x0f, 0xbe, 0xa3, 0xb2, 0x08, 0x3d,
	0xc0, 0x99, 0xea, 0x3e, 0x1e, 0xb3, 0xb9, 0xbe, 0x59, 0x2f, 0x26, 0xbf,
	0x3d, 0xa3, 0x41, 0xbd, 0x1f, 0x0a, 0x32, 0xc0, 0xb5, 0x62, 0x10, 0x3f,
	0x02, 0x17, 0x6f, 0xbe, 0x28, 0xfa, 0xdd, 0x3e, 0x7d, 0x81, 0xb3, 0xbb,
	0xe5, 0x09, 0xb8, 0x3e, 0xd3, 0x9a, 0x82, 0xbc, 0x46, 0xce, 0xfe, 0x3d,
	0xda, 0x58, 0xa8, 0xbd, 0xa6, 0xd0, 0x20, 0x3b, 0xa5, 0x59, 0x12, 0xbe,
	0xdc, 0x1f, 0x76, 0x3d, 0xc8, 0x06, 0xd9, 0x3e, 0x70, 0xae, 0x46, 0x3c,
	0xe3, 0x50, 0x15, 0x3f, 0xac, 0xd7, 0xaa, 0x3e, 0xd2, 0x99, 0x02, 0x3f,
	0x7f, 0xe4, 0xf7, 0x3c, 0x3f, 0xa1, 0xb2, 0x3d, 0xbf, 0xb1, 0xc3, 0x3b,
	0xea, 0x0a, 0x29, 0x3d, 0x0a, 0x14, 0x2a, 0x3b, 0x09, 0xeb, 0xb2, 0xbe,
	0x40, 0xb5, 0xd8, 0x3e, 0x53, 0xc2, 0x84, 0x3e, 0x1e, 0x2f, 0xb0, 0x3e,
	0x19, 0xe7, 0xeb, 0x3e, 0x94, 0x97, 0x2c, 0x3f, 0x33, 0xfb, 0x69, 0x3e,
	0x08, 0xf6, 0x7f, 0xbd, 0x39, 0xbc, 0xfd, 0x3d, 0x7b, 0x0c, 0x31, 0x3f,
	0x62, 0x85, 0x16, 0xbe, 0x51, 0xf6, 0x7c, 0xbf, 0xe9, 0xd5, 0x10, 0x3f,
	0x1b, 0xea, 0x3f, 0x3f, 0x2f, 0xa8, 0x41, 0x3e, 0x84, 0x2e, 0x96, 0xbe,
	0x56, 0xd8, 0x10, 0xbf, 0x02, 0x8e, 0x4f, 0x3f, 0x18, 0x00, 0xc1, 0x3e,
	0xac, 0x76, 0x0b, 0x3f, 0xcf, 0x64, 0x8a, 0x3d, 0x9c, 0x13, 0x9b, 0xbe,
	0x22, 0xdd, 0x91, 0x3f, 0x0f, 0x85, 0x3b, 0xbf, 0x73, 0x1e, 0x3f, 0xbe,
	0x41, 0x75, 0x70, 0xbc, 0xeb, 0xeb, 0xb5, 0xbb, 0x51, 0x47, 0x1d, 0x3f,
	0x0a, 0xf8, 0x30, 0xbf, 0xc3, 0x76, 0xb6, 0x3e, 0x78, 0x75, 0x52, 0x3f,
	0x64, 0x63, 0xb9, 0x3e, 0xe6, 0x5a, 0x4c, 0x3f, 0x9c, 0xb3, 0x2e, 0x3e,
	0x44, 0xda, 0x29, 0xbe, 0x5a, 0x29, 0x57, 0x3f, 0x0a, 0xcc, 0x68, 0x3e,
	0x2c, 0x4f, 0x1e, 0xbe, 0x5b, 0xd5, 0x91, 0xbe, 0x7e, 0x1f, 0x40, 0xbe,
	0xb3, 0xe5, 0xed, 0xbd, 0x83, 0x91, 0x2a, 0x3d, 0xf6, 0x80, 0x98, 0xbe,
	0x80, 0xd6, 0xce, 0x3e, 0xe9, 0xbc, 0xad, 0x3e, 0x0c, 0xd2, 0xa0, 0x3d,
	0x13, 0xcd, 0xd8, 0xbc, 0x51, 0xd2, 0x67, 0x3e, 0x00, 0x54, 0xdc, 0x3c,
	0x61, 0x53, 0xa1, 0x3e, 0xb6, 0xc5, 0xc9, 0xbe, 0x26, 0xa5, 0x8a, 0xbc,
	0x9f, 0x61, 0x9d, 0x3f, 0xce, 0xb5, 0x77, 0xbf, 0x1b, 0x01, 0xf2, 0xbe,
	0x7b, 0x6f, 0xa7, 0x3d, 0x12, 0x3e, 0x86, 0x3f, 0x9e, 0xcd, 0x29, 0x3f,
	0x09, 0xfa, 0x59, 0xbf, 0xb9, 0x55, 0x8d, 0xbe, 0xd4, 0xfe, 0x07, 0x3e,
	0xaa, 0x4b, 0x8b, 0x3d, 0x37, 0x76, 0x07, 0x3f, 0x47, 0x32, 0x29, 0xbe,
	0x65, 0x13, 0xcd, 0x3d, 0x9f, 0xbb, 0x8d, 0xbb, 0x7f, 0x8d, 0x2a, 0xbb,
	0xad, 0xeb, 0xa8, 0xbd, 0xbb, 0x8e, 0xb9, 0x3e, 0x7e, 0x5f, 0x88, 0xbf,
	0x86, 0x76, 0x7b, 0xbe, 0x29, 0xab, 0xc9, 0x3e, 0xca, 0xd8, 0x24, 0xbf,
	0x17, 0xa2, 0xdf, 0x3d, 0xf7, 0x82, 0x9d, 0xbb, 0xc4, 0x33, 0x78, 0x3d,
	0x71, 0x78, 0xb0, 0xbe, 0x91, 0x55, 0xb2, 0x3c, 0x2b, 0xef, 0x9a, 0x3e,
	0x17, 0xf5, 0x94, 0xbe, 0xfa, 0x21, 0xe0, 0xbc, 0xef, 0xae, 0x45, 0x3f,
	0x90, 0x37, 0x3e, 0xbe, 0x0f, 0x86, 0x58, 0xbf, 0x76, 0x58, 0x9a, 0xbd,
	0x1f, 0x32, 0x8a, 0x3f, 0xd1, 0xc2, 0x95, 0x3e, 0x80, 0x60, 0x2d, 0xbe,
	0x8e, 0x55, 0x54, 0xbf, 0x5c, 0x59, 0xc8, 0xbd, 0x5d, 0xd9, 0xf8, 0x3d,
	0xa2, 0xa9, 0x68, 0xbe, 0x9e, 0x18, 0x35, 0x3f, 0xa1, 0x89, 0x0e, 0xbf,
	0x86, 0x20, 0x0b, 0xbe, 0xd7, 0xb4, 0x02, 0x3f, 0xce, 0x8c, 0x84, 0x3e,
	0x78, 0x57, 0xb0, 0x3e, 0xa3, 0xb9, 0x85, 0x3d, 0x58, 0x8d, 0xce, 0xbd,
	0x95, 0x35, 0x95, 0xbc, 0x3f, 0xf8, 0xf5, 0xbc, 0xd5, 0x34, 0x92, 0xbf,
	0x13, 0xd3, 0x58, 0x3f, 0x22, 0x42, 0xe6, 0x3e, 0xd2, 0x24, 0x9c, 0x3e,
	0x9a, 0x48, 0x93, 0xbd, 0x23, 0x84, 0xc6, 0x3e, 0x27, 0x18, 0x5a, 0x3d,
	0x89, 0x05, 0xb4, 0xbd, 0x76, 0x15, 0x84, 0xbb, 0xf4, 0x60, 0x74, 0xbf,
	0xe1, 0x14, 0x0e, 0x3f, 0x76, 0xc2, 0x12, 0x3f, 0x7d, 0x0d, 0x9a, 0xbe,
	0x6d, 0xdc, 0x5f, 0xbc, 0x96, 0xd9, 0xd4, 0xbe, 0x6f, 0xe6, 0x2c, 0x3e,
	0xe6, 0x18, 0x3c, 0x3e, 0xaa, 0x39, 0x2d, 0x3e, 0x21, 0x0f, 0x85, 0x3e,
	0xfc, 0xc4, 0x57, 0xbe, 0x9b, 0xfe, 0x0b, 0x3f, 0x44, 0xcb, 0x5e, 0xbc,
	0x7b, 0x4a, 0x3c, 0xbf, 0x78, 0xa0, 0xee, 0x3c, 0xd7, 0x5a, 0x80, 0xbe,
	0x76, 0x33, 0x94, 0xbf, 0x56, 0x1f, 0x14, 0xbc, 0x6e, 0x4e, 0xdb, 0xbe,
	0xef, 0x6e, 0x22, 0xbf, 0x59, 0xa2, 0x86, 0xbd, 0x1f, 0x4a, 0x2f, 0xbf,
	0xb6, 0xa7, 0x31, 0xbe, 0xe6, 0x89, 0xc9, 0xbe, 0x1c, 0x00, 0x99, 0xbd,
	0xd4, 0x6b, 0x83, 0xbe, 0x22, 0xff, 0x18, 0x3f, 0x47, 0x7b, 0xe3, 0xbc,
	0x40, 0x1c, 0x16, 0x3d, 0x12, 0xbd, 0x24, 0x3d, 0xaa, 0x68, 0x93, 0x3e,
	0xb4, 0x7d, 0x1b, 0xbe, 0xa3, 0x77, 0x02, 0x3f, 0x4b, 0x21, 0xf7, 0x3e,
	0x3d, 0xb1, 0x56, 0xbe, 0xba, 0xbe, 0x8d, 0xbf, 0xa5, 0x84, 0x54, 0x3e,
	0x7f, 0xaa, 0x4f, 0x3e, 0x59, 0x62, 0x14, 0x3f, 0xe4, 0x8e, 0x6a, 0x3f,
	0x76, 0xd8, 0x75, 0x3e, 0x08, 0xaf, 0xd2, 0xbe, 0x10, 0x77, 0x18, 0xbd,
	0xc4, 0xbc, 0x39, 0xbf, 0xc7, 0x2c, 0x2e, 0x3d, 0xc6, 0x78, 0x17, 0xbf,
	0x77, 0xcc, 0x6d, 0xbe, 0x7a, 0xcf, 0x89, 0x3c, 0x2d, 0x35, 0xf0, 0xbe,
	0x34, 0x2c, 0xa6, 0x3f, 0xc3, 0x94, 0x1d, 0xbe, 0xc8, 0x28, 0xc3, 0xbe,
	0x3b, 0x72, 0x9a, 0x3d, 0x1a, 0xfe, 0xc4, 0xbe, 0x52, 0xf8, 0x93, 0xbd,
	0xfb, 0xbc, 0x66, 0xbf, 0x72, 0xe7, 0x57, 0x3f, 0xd1, 0x79, 0xbd, 0x3e,
	0xad, 0x27, 0x43, 0xbf, 0xc0, 0x65, 0xbe, 0x3e, 0x9e, 0x5c, 0x0c, 0x3f,
	0x5a, 0x28, 0x6f, 0x3d, 0x50, 0x8d, 0x33, 0xbf, 0x0e, 0x3c, 0x49, 0xbd,
	0x68, 0xfd, 0x94, 0xbe, 0x0f, 0xea, 0xa1, 0xbd, 0xce, 0xee, 0xad, 0x3f,
	0xa2, 0xd1, 0x5f, 0xbe, 0x45, 0x2f, 0x8d, 0xbb, 0xa6, 0x0a, 0xba, 0xbe,
	0x0c, 0x56, 0x0a, 0x3e, 0xc1, 0xee, 0x94, 0xbf, 0x50, 0x19, 0x0b, 0x3e,
	0x83, 0xc7, 0x89, 0xbe, 0x05, 0x65, 0x98, 0xbc, 0x27, 0xe7, 0xfd, 0x3e,
	0x8a, 0x56, 0xb1, 0xbe, 0xd6, 0x50, 0x11, 0xbf, 0x91, 0xd4, 0xf4, 0x3c,
	0x5e, 0xc5, 0xad, 0xbe, 0x0b, 0x41, 0x62, 0xc0, 0xdf, 0x31, 0x3c, 0xbe,
	0xab, 0xd8, 0xe2, 0xbe, 0x5e, 0x26, 0xde, 0xbd, 0x46, 0x49, 0xdc, 0x3e,
	0x09, 0xa2, 0xa5, 0xbe, 0x8e, 0xc7, 0x54, 0x3e, 0x10, 0x92, 0x6d, 0x3e,
	0xa9, 0x40, 0xca, 0x3e, 0xb9, 0xf2, 0x95, 0x3d, 0x77, 0x37, 0xa5, 0x3e,
	0x84, 0xc7, 0x77, 0xbd, 0xc6, 0x7d, 0x47, 0x3e, 0x16, 0x54, 0x33, 0x3e,
	0x99, 0x0e, 0xed, 0xbd, 0x04, 0x7b, 0xef, 0x3d, 0xda, 0x97, 0x15, 0xbd,
	0x43, 0xee, 0x7c, 0xbe, 0xa8, 0x91, 0x19, 0x3f, 0xed, 0x2b, 0xa2, 0xbe,
	0x7d, 0xe3, 0x78, 0xbe, 0x33, 0x92, 0x4f, 0x3d, 0xa0, 0xf6, 0x69, 0xbf,
	0x73, 0x8f, 0x29, 0xbe, 0x32, 0xd0, 0xcd, 0xbe, 0x1e, 0x47, 0x08, 0xbf,
	0x24, 0xf1, 0x2c, 0xbc, 0x46, 0x70, 0x8b, 0xbe, 0x9e, 0x76, 0xde, 0x3d,
	0xd4, 0x44, 0xbc, 0xbe, 0x44, 0xdd, 0x2f, 0x3e, 0x9f, 0x0e, 0x50, 0x3d,
	0xfc, 0x85, 0x70, 0xbf, 0xba, 0x52, 0xd0, 0xbd, 0xb2, 0x30, 0x36, 0x3f,
	0x74, 0xe1, 0xbc, 0x3d, 0xe7, 0x59, 0xc7, 0x3c, 0x73, 0xb2, 0x52, 0xbe,
	0xe0, 0x71, 0x6a, 0xba, 0xa1, 0x12, 0xdc, 0x3d, 0x38, 0xc5, 0xd8, 0x3e,
	0x96, 0xc9, 0x96, 0xbe, 0xad, 0xa7, 0x22, 0xbe, 0x35, 0xc3, 0x5a, 0x3e,
	0x71, 0x5b, 0x3c, 0x3e, 0x62, 0x27, 0x0b, 0xbf, 0x14, 0x41, 0x21, 0x3f,
	0x80, 0x8b, 0x59, 0x3b, 0xb9, 0x49, 0x58, 0xbf, 0x9c, 0x13, 0x6b, 0xbb,
	0xfb, 0x6b, 0x10, 0xbe, 0xd6, 0x5c, 0x8d, 0xbe, 0x71, 0x96, 0x90, 0xbb,
	0x48, 0x68, 0xbe, 0x3e, 0x81, 0xad, 0xb5, 0xbe, 0x7e, 0x61, 0xe1, 0x3e,
	0xe2, 0xdd, 0x23, 0x3d, 0x0a, 0xcd, 0xb7, 0x3d, 0xe0, 0x1c, 0xdf, 0xbd,
	0x32, 0x56, 0x2a, 0x3e, 0x01, 0x3e, 0xd5, 0x3d, 0x27, 0x93, 0xd1, 0x3d,
	0xca, 0xb3, 0x6b, 0xbc, 0xdf, 0x34, 0xa8, 0xbd, 0xdb, 0x40, 0xc1, 0xbe,
	0xca, 0xf4, 0xa0, 0xbe, 0xb4, 0xb9, 0xea, 0xbe, 0x5f, 0x34, 0xce, 0xbd,
	0x46, 0x16, 0xa6, 0xbf, 0xa9, 0x64, 0x07, 0xbf, 0xc1, 0x56, 0xde, 0xbe,
	0x72, 0x40, 0xde, 0x3c, 0x14, 0x3f, 0xdd, 0xbe, 0x18, 0xd4, 0x78, 0x3e,
	0xa8, 0x8a, 0x05, 0xbf, 0xf6, 0x18, 0x3e, 0xbe, 0xfb, 0x9d, 0x51, 0xbf,
	0x89, 0x05, 0x78, 0xb9, 0xda, 0xf9, 0x8e, 0x3d, 0xf8, 0xb6, 0x57, 0xbe,
	0xe4, 0xef, 0x28, 0xbf, 0xfd, 0x81, 0xb6, 0xbe, 0xd2, 0x82, 0xa1, 0x3e,
	0x72, 0x1b, 0x6b, 0x3e, 0x97, 0x92, 0x2c, 0x3e, 0x4c, 0x54, 0xa4, 0xbe,
	0x60, 0x40, 0x2e, 0x3d, 0x31, 0xe5, 0x67, 0x3f, 0x9a, 0x06, 0x9f, 0xbe,
	0xaa, 0xd0, 0x61, 0x3d, 0xe6, 0x2d, 0xe8, 0x3d, 0xaf, 0x8b, 0x0b, 0xbf,
	0xac, 0x1a, 0x9d, 0x3e, 0x69, 0xac, 0xf4, 0xbc, 0x6e, 0x1f, 0xf0, 0x3e,
	0x84, 0x17, 0x15, 0x3d, 0x65, 0xf2, 0x74, 0xbe, 0x4a, 0x16, 0x26, 0xbf,
	0x03, 0xa4, 0xf4, 0x3e, 0xf1, 0x59, 0x7d, 0xbd, 0xc0, 0x5e, 0x79, 0xbe,
	0xd4, 0xa7, 0x63, 0xbf, 0x18, 0x42, 0x42, 0xbd, 0xd2, 0x0f, 0xd7, 0xbd,
	0x0b, 0x95, 0xe9, 0xbd, 0x2e, 0xa0, 0x1e, 0x3f, 0x02, 0x96, 0xe6, 0x3e,
	0xdc, 0xd2, 0x0b, 0x3e, 0x0e, 0x92, 0x0d, 0x3d, 0x8a, 0x3f, 0x74, 0xbf,
	0xd7, 0x85, 0x4a, 0xbe, 0xc7, 0x03, 0x77, 0x3c, 0xaa, 0x5d, 0x48, 0x3f,
	0x49, 0xab, 0x00, 0x3e, 0x68, 0xa7, 0x58, 0x3f, 0x7f, 0x8f, 0x47, 0xbf,
	0x45, 0x13, 0x08, 0xbb, 0xeb, 0x81, 0xfc, 0x3d, 0x28, 0xeb, 0x94, 0xbe,
	0xde, 0xc2, 0x62, 0x3e, 0xa1, 0x61, 0x23, 0xbe, 0x5b, 0x84, 0x37, 0x3f,
	0x1c, 0x4a, 0xc5, 0xbe, 0x1f, 0x69, 0x28, 0x3e, 0x03, 0x77, 0x98, 0xbd,
	0xf3, 0x46, 0x08, 0x3f, 0xf7, 0x29, 0x0e, 0xbd, 0x58, 0xfc, 0x33, 0x3e,
	0xda, 0x4c, 0x04, 0xbf, 0x23, 0x93, 0xe7, 0xbe, 0x8e, 0x2a, 0x25, 0xbe,
	0xa1, 0x69, 0x7d, 0x3e, 0x43, 0x86, 0x55, 0x3c, 0x78, 0x68, 0xbe, 0x3e,
	0x4b, 0xb9, 0x9c, 0x3e, 0x77, 0x73, 0x33, 0xbf, 0xf0, 0xbc, 0x19, 0xbd,
	0x90, 0xf2, 0x3b, 0x3f, 0xd4, 0xa7, 0x4e, 0x3d, 0xdb, 0xfb, 0xc9, 0xbd,
	0x1c, 0x5c, 0xe8, 0xbe, 0x38, 0x83, 0x9a, 0x3f, 0x07, 0x34, 0xc8, 0x3d,
	0xf4, 0x95, 0x82, 0xbd, 0x00, 0x03, 0x53, 0x3e, 0x72, 0x57, 0xb0, 0xbf,
	0x7a, 0xc5, 0x5e, 0x3f, 0x0d, 0xa2, 0x3a, 0xbe, 0xe4, 0x44, 0xd0, 0xbe,
	0x04, 0x3d, 0x25, 0x3d, 0x6c, 0xa7, 0x8d, 0xbf, 0xd4, 0xf9, 0x06, 0xbc,
	0xb8, 0xb5, 0xce, 0xbf, 0x37, 0xba, 0x3d, 0x3d, 0xa7, 0x85, 0xe9, 0x3d,
	0x6e, 0xca, 0x05, 0x3f, 0x9f, 0xe5, 0x09, 0x3d, 0xcd, 0x91, 0xc2, 0xbd,
	0x69, 0xf6, 0x99, 0x3e, 0x61, 0x8b, 0xdb, 0xbd, 0xa5, 0x57, 0x3f, 0x3e,
	0xc1, 0x80, 0x55, 0x3f, 0x08, 0x43, 0x99, 0x3e, 0x10, 0x11, 0x93, 0x3c,
	0xc9, 0xbf, 0x61, 0x3c, 0xc6, 0x72, 0x50, 0xbf, 0xfd, 0x13, 0x2e, 0xbd,
	0xb7, 0x4a, 0xcb, 0x3e, 0x04, 0xaa, 0xde, 0x3e, 0x16, 0x01, 0xa6, 0x3e,
	0x06, 0x0c, 0x7d, 0xbe, 0xf9, 0x90, 0xf1, 0xbe, 0xcb, 0x08, 0xbe, 0xbb,
	0xff, 0xc6, 0x0d, 0x3f, 0xbb, 0xe8, 0xdc, 0x3e, 0x58, 0xbe, 0xa1, 0xba,
	0xd3, 0xf5, 0x0a, 0xbe, 0x21, 0x77, 0xd0, 0x3c, 0xbc, 0x0b, 0x2a, 0x3f,
	0xf3, 0xf1, 0x58, 0xbf, 0xd4, 0x2a, 0xa7, 0xbb, 0x82, 0x07, 0xc2, 0x3e,
	0xf7, 0x5a, 0x85, 0xbf, 0x5f, 0xb5, 0x8a, 0xbd, 0x7c, 0xe3, 0x73, 0xbd,
	0xe0, 0xf0, 0xe9, 0x3e, 0xa6, 0x06, 0x86, 0x3e, 0xf9, 0xc8, 0x8f, 0x3e,
	0xd1, 0xfa, 0x96, 0x3d, 0x79, 0x9c, 0xa0, 0x3e, 0xab, 0x62, 0xec, 0xbb,
	0xaa, 0xe0, 0xe5, 0x3e, 0xab, 0xb5, 0x2c, 0x3d, 0xd0, 0x4d, 0xcb, 0x3e,
	0xd5, 0x90, 0xfe, 0xbe, 0x00, 0x7f, 0x5c, 0x3e, 0x6f, 0x3f, 0x14, 0xbe,
	0x51, 0x9b, 0x4d, 0xbf, 0x8c, 0x6e, 0xb6, 0x3d, 0xa1, 0x9a, 0xfe, 0x3d,
	0xee, 0x24, 0xe2, 0x3d, 0xa6, 0x12, 0x3a, 0x3d, 0x5d, 0x94, 0x87, 0xbd,
	0xdb, 0xbb, 0x17, 0x3d, 0xed, 0x32, 0x88, 0xbe, 0x77, 0xc9, 0x1f, 0x3f,
	0x63, 0x98, 0x35, 0xbe, 0x8f, 0x14, 0x89, 0x3d, 0x32, 0xa1, 0x01, 0xbf,
	0x38, 0x3f, 0xd7, 0xbe, 0x14, 0xb3, 0x0f, 0xbf, 0xb7, 0xa4, 0xa7, 0xbe,
	0xec, 0x23, 0xbd, 0xbd, 0xbe, 0x94, 0xbb, 0x3d, 0xc0, 0x72, 0xa6, 0xbd,
	0xd7, 0x1c, 0x82, 0x3e, 0x5c, 0x18, 0xa7, 0xbe, 0xaa, 0x77, 0x76, 0xbf,
	0xfc, 0x68, 0x61, 0xba, 0x12, 0xfc, 0xa2, 0xbf, 0xa4, 0x84, 0x22, 0xbf,
	0x7c, 0x64, 0x35, 0xbf, 0xdf, 0x0b, 0x09, 0x3d, 0xa5, 0x0f, 0x8d, 0x3e,
	0xf1, 0x75, 0x36, 0xbf, 0x77, 0x31, 0x2b, 0x3e, 0xa4, 0x02, 0x6e, 0x3d,
	0x68, 0x10, 0x39, 0x3c, 0x2d, 0xb2, 0xb8, 0xbe, 0x58, 0x65, 0xb2, 0x3d,
	0xb2, 0x06, 0x5e, 0xba, 0xc7, 0x9c, 0x64, 0xbc, 0xaa, 0x9b, 0x2f, 0xbb,
	0x1b, 0xef, 0x18, 0x3e, 0x5e, 0x15, 0x31, 0xbe, 0xee, 0xb2, 0x9b, 0xbe,
	0xec, 0x73, 0x03, 0x3f, 0xed, 0x9c, 0xb2, 0xbf, 0x48, 0x8d, 0xf4, 0xbb,
	0x8e, 0x6f, 0x17, 0x3c, 0x70, 0x49, 0x03, 0x3e, 0xf0, 0x7f, 0x04, 0xbe,
	0x62, 0x0c, 0x01, 0x3f, 0x53, 0x06, 0x36, 0xbe, 0xbd, 0xa3, 0xd0, 0x3b,
	0x95, 0xca, 0x3c, 0xbf, 0x80, 0x9f, 0x6d, 0x3e, 0x33, 0xf7, 0x47, 0xbf,
	0x91, 0x6b, 0xf0, 0x3c, 0x37, 0xb3, 0x8c, 0x3e, 0x1a, 0xa2, 0x39, 0xbe,
	0x9c, 0x33, 0xb1, 0xbe, 0xd8, 0x25, 0x86, 0x3c, 0xde, 0xce, 0x8c, 0x3e,
	0x60, 0x64, 0x9d, 0x3b, 0x86, 0xb8, 0xf8, 0xbe, 0x29, 0xfe, 0xa9, 0xbd,
	0x09, 0x76, 0x72, 0xbf, 0x56, 0x63, 0x24, 0x3e, 0x31, 0xe4, 0x91, 0x3d,
	0xda, 0x57, 0xdc, 0xbe, 0xf4, 0x8b, 0xe1, 0xbc, 0xc0, 0xa9, 0x48, 0xbe,
	0x57, 0xa0, 0xb9, 0xbf, 0xa5, 0x93, 0xfd, 0xbe, 0xf1, 0x27, 0xb7, 0xbe,
	0x46, 0x06, 0x82, 0x3e, 0xcf, 0x20, 0xa6, 0xbd, 0x6c, 0x08, 0xe8, 0x3c,
	0x9e, 0x6a, 0xc2, 0xbe, 0xb1, 0x15, 0x9a, 0xbe, 0x1b, 0x19, 0x10, 0x3c,
	0x50, 0xa7, 0x92, 0x3d, 0x82, 0x8a, 0x86, 0x3d, 0xe8, 0xcb, 0x01, 0x3f,
	0x08, 0xdf, 0xbd, 0xbe, 0xb3, 0x71, 0x72, 0xbe, 0xea, 0xf1, 0x21, 0x3d,
	0xa3, 0xf0, 0x5f, 0x3e, 0x13, 0x04, 0x4b, 0x3d, 0x91, 0x43, 0x0e, 0x3e,
	0x3c, 0x81, 0xf8, 0x3c, 0x11, 0x6d, 0x6b, 0x3d, 0x1f, 0xe1, 0x8b, 0xbe,
	0x36, 0x21, 0x0b, 0xbd, 0x24, 0xa5, 0x8b, 0x3e, 0x7d, 0x78, 0x4c, 0xbd,
	0xac, 0xb0, 0xaa, 0x3d, 0x63, 0x0c, 0x81, 0xbe, 0x2c, 0x3a, 0x3c, 0x3d,
	0x39, 0xdf, 0x01, 0x3f, 0xac, 0xc9, 0x2a, 0x3d, 0x45, 0x1a, 0x2d, 0xbe,
	0x7f, 0x7a, 0xbb, 0x3d, 0x1f, 0x6f, 0x6c, 0xbd, 0x1b, 0x21, 0xa8, 0x3e,
	0xa0, 0x52, 0x95, 0xbf, 0x57, 0x5f, 0x15, 0xbf, 0x66, 0xbd, 0x29, 0xbc,
	0x2a, 0x62, 0xdb, 0xbe, 0x93, 0x33, 0x87, 0xbe, 0x77, 0x42, 0x8c, 0xbe,
	0xbd, 0x75, 0x0e, 0xbe, 0xf3, 0x8f, 0xac, 0xbb, 0x3a, 0x4d, 0xa9, 0x3e,
	0x8d, 0x9c, 0x9d, 0x3e, 0x93, 0x8b, 0x92, 0x3e, 0xfe, 0xb3, 0x97, 0xbe,
	0x83, 0x50, 0x78, 0xbc, 0x34, 0x43, 0x86, 0xbe, 0xf2, 0xf4, 0x96, 0xbd,
	0xaa, 0x43, 0x91, 0xbe, 0x67, 0x69, 0xe0, 0x3d, 0xdc, 0x87, 0xb3, 0xbd,
	0xf8, 0x79, 0x10, 0x3e, 0x58, 0x1d, 0xb4, 0x3e, 0x3b, 0x8a, 0xa0, 0xbd,
	0x71, 0xee, 0x1d, 0x3e, 0x9e, 0xda, 0xc4, 0xbc, 0xd3, 0xb8, 0xad, 0xbd,
	0x50, 0x51, 0x83, 0xbe, 0x77, 0xa7, 0x17, 0xbe, 0x7f, 0xfe, 0x28, 0x3f,
	0x62, 0x49, 0x27, 0xbf, 0x53, 0x5b, 0xc1, 0xbd, 0x64, 0x05, 0x46, 0x3e,
	0x5a, 0x5c, 0x58, 0x3e, 0x53, 0x04, 0xb7, 0x3d, 0x37, 0x68, 0x77, 0x3e,
	0x6b, 0xb4, 0x2d, 0xbe, 0xb5, 0xa5, 0xbb, 0x3e, 0x4b, 0x37, 0x33, 0x3d,
	0x66, 0x4b, 0xeb, 0xbc, 0x75, 0x82, 0x7d, 0x3e, 0x60, 0x76, 0xec, 0x3c,
	0x35, 0xfa, 0x08, 0xbe, 0x54, 0xf4, 0xc4, 0x3e, 0x7f, 0x40, 0x36, 0x3f,
	0xbc, 0xbd, 0x54, 0x3e, 0xa7, 0xd3, 0xdb, 0x3d, 0x6f, 0xc9, 0xab, 0x3e,
	0x13, 0x26, 0x7d, 0x3d, 0x25, 0xb3, 0x7e, 0xbf, 0x0d, 0x11, 0x8a, 0xbe,
	0xd7, 0xd3, 0xec, 0xbe, 0x77, 0xb4, 0xfa, 0xbd, 0x03, 0x68, 0x34, 0xbc,
	0x9f, 0xb7, 0x43, 0x3f, 0xc0, 0x1b, 0x0d, 0x3f, 0xde, 0x07, 0x4a, 0x3e,
	0x31, 0x4f, 0xcf, 0xbe, 0xe8, 0xf3, 0x97, 0x3e, 0xb8, 0xc1, 0xc7, 0x3e,
	0x9c, 0x0b, 0x12, 0x3e, 0xcb, 0xbb, 0x18, 0x3f, 0x72, 0x27, 0x93, 0x3d,
	0x06, 0xeb, 0x4c, 0x3f, 0xf8, 0x44, 0x05, 0xbf, 0x9e, 0x3c, 0x81, 0x3d,
	0x07, 0x15, 0xf1, 0xbe, 0x1e, 0x1f, 0x31, 0x3f, 0x0e, 0x0a, 0x0f, 0x3e,
	0x8a, 0x27, 0x45, 0xbe, 0x73, 0x87, 0x03, 0x3f, 0x57, 0x16, 0x30, 0x3e,
	0xa1, 0x2d, 0x2d, 0x3f, 0x86, 0xb9, 0xc4, 0x3d, 0x53, 0x76, 0x6e, 0xbc,
	0x1c, 0xba, 0xdd, 0xbe, 0xcd, 0xd9, 0x2a, 0xbc, 0x36, 0x50, 0x26, 0x3a,
	0x04, 0x96, 0x31, 0xbe, 0xfb, 0x8d, 0x27, 0x3c, 0x16, 0x00, 0x5e, 0x3f,
	0x7b, 0x12, 0x4b, 0xbf, 0xb6, 0xcf, 0x8e, 0x3e, 0x25, 0xcc, 0xcf, 0x3a,
	0x96, 0x20, 0xf2, 0xbe, 0x52, 0x47, 0xbc, 0x3d, 0xb0, 0xc7, 0xe5, 0x3e,
	0xd3, 0x06, 0x37, 0x3e, 0xb7, 0x5e, 0x9a, 0xbe, 0xbf, 0x16, 0xc9, 0x39,
	0xfd, 0x3e, 0x03, 0x3f, 0x04, 0x2a, 0x0d, 0xbe, 0x22, 0xdb, 0x00, 0x3e,
	0xbe, 0x98, 0x00, 0xbf, 0xe1, 0x73, 0x43, 0x3f, 0x94, 0x20, 0xd6, 0xbd,
	0x49, 0x76, 0xfd, 0xbe, 0x0f, 0x2e, 0xac, 0x3e, 0x9e, 0xe9, 0x5e, 0x3e,
	0xe7, 0xfa, 0xb7, 0xbe, 0x93, 0x6d, 0xb2, 0x3e, 0xf1, 0x8d, 0xc6, 0xbe,
	0x7b, 0x6b, 0xca, 0x3d, 0x90, 0xfa, 0xa5, 0xbf, 0x30, 0xa3, 0x68, 0xbf,
	0x17, 0x8f, 0xf5, 0x3d, 0x45, 0xb6, 0xe7, 0x3d, 0x8e, 0x7c, 0xa4, 0xbd,
	0x4f, 0x2c, 0x2d, 0xbe, 0x03, 0x79, 0xa6, 0x3f, 0xd5, 0x1d, 0x9d, 0x3d,
	0x46, 0xfe, 0x3d, 0xbf, 0x43, 0x0e, 0x5e, 0x3e, 0xe5, 0x03, 0x1c, 0xbf,
	0x0f, 0xd4, 0xb4, 0x3f, 0x91, 0x8a, 0xee, 0xbe, 0xc6, 0x8c, 0x14, 0xbf,
	0xa5, 0xa8, 0xc9, 0xbc, 0x7d, 0xf5, 0x9f, 0x3b, 0x2f, 0x03, 0x01, 0x3e,
	0x8e, 0xb0, 0x7c, 0x3f, 0xf7, 0x15, 0x17, 0xbe, 0x1b, 0xef, 0x69, 0xbe,
	0xc8, 0x87, 0x95, 0x3e, 0x25, 0xc3, 0x35, 0x3f, 0x06, 0x21, 0xea, 0x3d,
	0xbd, 0xd3, 0x8d, 0xbd, 0xcb, 0x58, 0x22, 0x3e, 0xa3, 0x64, 0xf6, 0xbe,
	0xe4, 0x58, 0xdd, 0x3d, 0x4a, 0x75, 0xd0, 0xbe, 0xdb, 0x39, 0x60, 0x3e,
	0xec, 0xfb, 0x8a, 0xbe, 0x03, 0x38, 0x6f, 0xbe, 0x4b, 0xa6, 0x7f, 0xbf,
	0x56, 0x13, 0xe1, 0xbe, 0x73, 0x05, 0x03, 0xbf, 0x2e, 0x5b, 0x9b, 0x3c,
	0xe5, 0xf2, 0x0e, 0xbd, 0x28, 0x3c, 0x6a, 0x3e, 0x74, 0x58, 0x0e, 0xbe,
	0xab, 0x48, 0x81, 0x3e, 0xc3, 0x5e, 0x50, 0xbf, 0x93, 0x59, 0xab, 0x3a,
	0x0a, 0x7a, 0x39, 0xbe, 0x99, 0x73, 0x93, 0x3e, 0x31, 0xfe, 0xe7, 0x3d,
	0xc2, 0xae, 0xdb, 0x3c, 0x5d, 0x08, 0x51, 0xbe, 0xc0, 0x65, 0x0e, 0x3f,
	0x36, 0xd4, 0xe6, 0xbe, 0x41, 0xea, 0x02, 0x3e, 0x36, 0x1a, 0x60, 0x3e,
	0x15, 0xca, 0xc7, 0xba, 0xf1, 0x9d, 0x35, 0x3c, 0xe8, 0xc5, 0x05, 0x3e,
	0x7a, 0x8c, 0x3d, 0x3e, 0x91, 0x38, 0x95, 0x3d, 0x2a, 0x2a, 0x29, 0x3e,
	0x49, 0x9d, 0x7f, 0xbe, 0x2f, 0x2b, 0xdb, 0x3e, 0xab, 0x7e, 0x28, 0x3f,
	0x3d, 0x55, 0xd4, 0xbe, 0x4d, 0xa9, 0xce, 0x3d, 0xea, 0x37, 0x93, 0xbe,
	0x66, 0x54, 0xad, 0x3e, 0xcd, 0xf0, 0x4f, 0x3e, 0x3e, 0x9b, 0x9f, 0x3c,
	0xde, 0x18, 0x33, 0x3f, 0x41, 0x14, 0x9d, 0xbc, 0xb4, 0x9d, 0x11, 0x3e,
	0x9e, 0xa0, 0x8a, 0x3e, 0x62, 0x68, 0x41, 0xbc, 0xc0, 0x1d, 0xa6, 0x3c,
	0xa0, 0xfc, 0x86, 0xbe, 0x46, 0x2f, 0x1a, 0x3f, 0xbf, 0x4a, 0xd2, 0x3e,
	0x7b, 0x0a, 0x75, 0xbe, 0xa0, 0xa9, 0x77, 0x3e, 0xf4, 0xe8, 0x69, 0xbf,
	0xfb, 0xd3, 0xf5, 0x3d, 0x33, 0x28, 0xb1, 0xbd, 0x05, 0x76, 0x81, 0xbf,
	0x28, 0x6d, 0xf6, 0x3e, 0xac, 0x4c, 0x80, 0xbe, 0x7e, 0xf8, 0xf2, 0x3e,
	0x53, 0xf4, 0x4e, 0x3f, 0xa7, 0xcc, 0x26, 0xbf, 0x97, 0x6d, 0xfa, 0x3e,
	0x4d, 0xc2, 0x54, 0x3e, 0x22, 0x7a, 0x4c, 0xbe, 0x6a, 0xdf, 0xd4, 0x3e,
	0xda, 0xdd, 0xc4, 0x3e, 0xb5, 0x33, 0x13, 0x3d, 0x90, 0x1d, 0x4a, 0x3f,
	0xd8, 0x24, 0x0a, 0x3d, 0x1c, 0xff, 0x17, 0x3f, 0x90, 0x7f, 0xa5, 0xbe,
	0xb0, 0x7c, 0xb5, 0xbe, 0x3c, 0x29, 0xce, 0x3e, 0x4f, 0x52, 0x39, 0xbf,
	0x27, 0x4e, 0xee, 0x3d, 0xb8, 0x65, 0x95, 0xbd, 0x99, 0x1f, 0x99, 0xbf,
	0x37, 0x1d, 0xe0, 0xbd, 0x40, 0x2b, 0xc2, 0x3f, 0xbb, 0xfd, 0xa5, 0x3e,
	0xf0, 0xea, 0x26, 0xbd, 0x50, 0x9e, 0xed, 0x3d, 0x97, 0x22, 0x36, 0xbf,
	0x39, 0x15, 0xba, 0xbf, 0xa2, 0x86, 0xdc, 0xbd, 0xe0, 0xb3, 0x65, 0xbe,
	0x7c, 0x9d, 0x7f, 0x3d, 0x90, 0x62, 0x2a, 0xbf, 0x9a, 0xe3, 0x24, 0x3e,
	0x10, 0x38, 0x95, 0x3e, 0x1b, 0xfe, 0x5f, 0x3d, 0x08, 0x15, 0x43, 0x3e,
	0x4a, 0xf5, 0x12, 0xbf, 0xa1, 0xca, 0xd9, 0xbf, 0xb1, 0xa6, 0x97, 0xbf,
	0xb9, 0xe9, 0x00, 0xbe, 0x0d, 0xa7, 0xb2, 0xbe, 0xb8, 0x0c, 0x8c, 0xbc,
	0x6c, 0xd5, 0xee, 0xbe, 0xf9, 0x38, 0x66, 0xbf, 0x16, 0x13, 0x9e, 0xbd,
	0x6f, 0x7c, 0x03, 0x3e, 0x6a, 0x01, 0xd3, 0x3e, 0x32, 0x25, 0x61, 0x3e,
	0xff, 0x29, 0x7f, 0xbe, 0x3f, 0x5f, 0x2a, 0x3f, 0xab, 0x36, 0xd0, 0xbe,
	0x38, 0x10, 0xfe, 0xbb, 0xed, 0xdf, 0x2e, 0x3f, 0x28, 0xd3, 0x33, 0xbf,
	0xab, 0xd8, 0xd4, 0xbd, 0x58, 0xbc, 0x2a, 0x3d, 0xe7, 0x5a, 0xde, 0xbe,
	0x9b, 0xd6, 0xaf, 0x3d, 0x9b, 0x83, 0x31, 0xbe, 0xe4, 0xd9, 0x01, 0xbe,
	0xae, 0x4b, 0x67, 0xbf, 0xb2, 0x47, 0x03, 0xbf, 0x03, 0x21, 0x2c, 0xbe,
	0x75, 0x2d, 0xd3, 0xbf, 0x8a, 0x64, 0x99, 0x3e, 0xa5, 0xbe, 0x62, 0xbe,
	0xd5, 0xe4, 0xb5, 0x3e, 0xae, 0x5b, 0xd4, 0x3e, 0xe3, 0xfd, 0x97, 0xbf,
	0x2e, 0x71, 0x32, 0xbf, 0x59, 0x60, 0xa0, 0x3e, 0x87, 0x68, 0x28, 0x3e,
	0x72, 0xc4, 0x4e, 0xbf, 0x37, 0x0d, 0x04, 0x3f, 0xd0, 0xac, 0x08, 0x3e,
	0xdb, 0xfe, 0xf4, 0x3d, 0x04, 0xfc, 0xa1, 0xbe, 0xa4, 0x5a, 0x28, 0x3f,
	0x0f, 0x41, 0x9a, 0x3e, 0x71, 0x0d, 0xa5, 0xbe, 0xf5, 0xbe, 0xb4, 0xbe,
	0x40, 0xd0, 0x84, 0xbf, 0xea, 0xcb, 0x4e, 0xbf, 0x81, 0x17, 0x8c, 0xbc,
	0xd4, 0x23, 0xe2, 0xbe, 0xe0, 0x64, 0x78, 0x3f, 0x71, 0x89, 0x47, 0x3f,
	0xec, 0xc7, 0x57, 0xbd, 0xcf, 0x6f, 0xb8, 0x3b, 0xda, 0x07, 0x07, 0x3f,
	0x5b, 0x24, 0x9f, 0xbe, 0x56, 0xbe, 0x90, 0xbf, 0xdb, 0x15, 0xf1, 0x3d,
	0xf3, 0x38, 0x71, 0x3e, 0x00, 0xa2, 0xe7, 0x3e, 0xd7, 0xe8, 0x0d, 0xbf,
	0x63, 0xa7, 0x63, 0x3d, 0x13, 0x90, 0x6e, 0xbc, 0xf8, 0xa4, 0xdb, 0xbc,
	0x51, 0xc4, 0xee, 0xbd, 0xdd, 0x66, 0x2c, 0xbf, 0x2c, 0x05, 0x40, 0xbf,
	0x66, 0xfc, 0xff, 0xff, 0x04, 0x00, 0x00, 0x00, 0x00, 0x03, 0x00, 0x00,
	0x22, 0xf7, 0x9d, 0x39, 0x14, 0x81, 0x81, 0x3c, 0xd7, 0x74, 0xda, 0xbe,
	0xf1, 0xb4, 0xa3, 0x3c, 0xb1, 0x39, 0x24, 0x38, 0x3d, 0xc7, 0x66, 0xbe,
	0xeb, 0x35, 0x7e, 0xbb, 0x4d, 0x9c, 0xf6, 0x3d, 0x74, 0xbe, 0xe2, 0x3d,
	0x97, 0x7d, 0xe8, 0xba, 0x15, 0xa4, 0x9c, 0x3a, 0xcd, 0x58, 0x04, 0xbb,
	0x75, 0x2f, 0x33, 0xbc, 0x65, 0xb7, 0x01, 0xbe, 0x12, 0xff, 0x5f, 0xbc,
	0x32, 0x28, 0x4a, 0xbe, 0x66, 0xcf, 0xd1, 0x3b, 0xbb, 0x0f, 0xee, 0x39,
	0xed, 0xf3, 0xd2, 0xb9, 0xd6, 0x68, 0x59, 0x3a, 0x25, 0xfe, 0x11, 0x3c,
	0x7b, 0x69, 0xa3, 0x3b, 0xaf, 0x4f, 0x00, 0xbe, 0x73, 0x86, 0xa7, 0xba,
	0x69, 0xf1, 0xad, 0x3d, 0x8a, 0xda, 0x84, 0x3a, 0xa1, 0x36, 0xf2, 0xba,
	0xf5, 0x43, 0xd9, 0x3c, 0xe8, 0xf0, 0x0b, 0xbc, 0x12, 0xcc, 0x12, 0xba,
	0x4c, 0x97, 0xda, 0x3b, 0xeb, 0x65, 0x13, 0xba, 0xcf, 0x0a, 0x2c, 0xbb,
	0xf6, 0x6a, 0x93, 0x3d, 0x18, 0x3e, 0x25, 0xbe, 0x66, 0x1e, 0xad, 0x3d,
	0xc4, 0x6d, 0x0a, 0x3a, 0x72, 0xbe, 0x83, 0x3d, 0x31, 0x17, 0x3a, 0x3b,
	0xbe, 0xbc, 0x19, 0x3e, 0xc9, 0x23, 0x0d, 0x3d, 0xa2, 0x32, 0x05, 0xbd,
	0x5a, 0x5a, 0x50, 0xba, 0xf2, 0x0c, 0x33, 0x3a, 0x63, 0x9a, 0xcb, 0xba,
	0xa7, 0x3d, 0xfd, 0x3c, 0x1c, 0xbb, 0x4b, 0xbb, 0xe4, 0x22, 0x85, 0xbe,
	0xe2, 0xea, 0x84, 0xb9, 0x56, 0xe0, 0xc0, 0x3a, 0x57, 0x09, 0xc0, 0xba,
	0xe0, 0xa6, 0xbe, 0x38, 0x28, 0x7d, 0x53, 0xbe, 0x34, 0xd6, 0xdf, 0xb9,
	0x67, 0x3d, 0xaa, 0x3d, 0x11, 0x90, 0x3b, 0xbb, 0x7d, 0xca, 0x3c, 0xbe,
	0x83, 0x5a, 0xe1, 0xb9, 0x70, 0x98, 0x11, 0x3a, 0xea, 0x44, 0xda, 0xbd,
	0x4b, 0xa5, 0xb1, 0xbc, 0xaf, 0x8d, 0x4b, 0x3b, 0x88, 0x03, 0x98, 0x3a,
	0x91, 0xaf, 0x86, 0x39, 0x91, 0xb7, 0xa0, 0xba, 0x5d, 0x4c, 0xa3, 0x3c,
	0xdc, 0xda, 0x5a, 0xbd, 0x51, 0x98, 0x12, 0x3d, 0x41, 0x49, 0x3b, 0x39,
	0xa8, 0x4e, 0xff, 0x3d, 0x8c, 0xee, 0xe3, 0x39, 0xb2, 0x93, 0xfd, 0xbd,
	0xf3, 0xe5, 0x2a, 0xbe, 0x97, 0xb2, 0xb3, 0xbc, 0x3c, 0x5e, 0x20, 0xbb,
	0x70, 0xb2, 0x94, 0x38, 0xcd, 0xd3, 0xa8, 0xba, 0xf7, 0x3f, 0x52, 0x3e,
	0x72, 0x2e, 0x44, 0x39, 0xc2, 0x93, 0xac, 0x3e, 0x28, 0x7f, 0xee, 0x3a,
	0xbe, 0x6b, 0x22, 0xba, 0x40, 0xa6, 0xa7, 0xb8, 0xb2, 0x4d, 0x06, 0x3a,
	0x65, 0xe7, 0x79, 0x3d, 0xe6, 0x1c, 0x7d, 0x3a, 0x40, 0x12, 0x8b, 0xbd,
	0xc3, 0x1d, 0x42, 0x3a, 0x3b, 0xb0, 0x8f, 0xbc, 0xd7, 0xea, 0xbe, 0x39,
	0x0e, 0x94, 0x4a, 0xba, 0x66, 0xe5, 0x07, 0x3e, 0xf6, 0x1e, 0xdb, 0xbd,
	0xd9, 0xf2, 0xe0, 0x3a, 0xdb, 0x77, 0x20, 0x3b, 0x3d, 0x3c, 0xe1, 0x38,
	0xaa, 0x92, 0xfc, 0xba, 0xfd, 0x2f, 0xcc, 0xbc, 0xd6, 0x79, 0x9b, 0xbe,
	0xf7, 0xeb, 0xf5, 0xbd, 0x47, 0x97, 0x2b, 0x3a, 0xde, 0x01, 0x5c, 0xbd,
	0xee, 0xd5, 0x08, 0x3b, 0xa4, 0xb1, 0x96, 0xbd, 0x2d, 0x8f, 0x1c, 0x3b,
	0xcc, 0xe0, 0x4b, 0xbd, 0x5d, 0x3a, 0xc1, 0xba, 0x4f, 0x65, 0xef, 0x3a,
	0x4e, 0xf5, 0xad, 0x3a, 0x49, 0x01, 0x89, 0x3d, 0xac, 0x0b, 0x56, 0xb7,
	0x49, 0x2d, 0xd0, 0xbc, 0xb0, 0xd5, 0xfb, 0xb8, 0x6b, 0xec, 0x94, 0x3a,
	0x05, 0x4b, 0x13, 0xba, 0xc8, 0x5a, 0xc6, 0xba, 0x19, 0x3d, 0x19, 0x3c,
	0x7d, 0xa5, 0x89, 0xba, 0x3d, 0x6c, 0xa4, 0x3d, 0xf0, 0x10, 0x74, 0xb9,
	0xed, 0x6f, 0x06, 0x3d, 0x6d, 0x9c, 0xe0, 0x3a, 0x9c, 0x64, 0x69, 0x3a,
	0x19, 0x25, 0xed, 0xbb, 0x30, 0xda, 0x28, 0x3a, 0x1b, 0x55, 0xe6, 0x3a,
	0x63, 0x83, 0x5d, 0xba, 0x0c, 0x54, 0x90, 0x3a, 0x86, 0xa6, 0x62, 0x3a,
	0x21, 0xb9, 0x0f, 0xbd, 0x4e, 0x9c, 0xc1, 0xbe, 0xc0, 0xf6, 0x02, 0xbd,
	0x1f, 0x1d, 0x45, 0xba, 0x32, 0x10, 0x89, 0x3d, 0x1b, 0x65, 0x53, 0xba,
	0xf5, 0xd3, 0x14, 0xbe, 0x58, 0x51, 0x29, 0xbd, 0x1f, 0x3a, 0xf0, 0x3c,
	0x25, 0xb9, 0x15, 0x3b, 0x31, 0x78, 0xd7, 0xba, 0xc0, 0x09, 0xa1, 0xbb,
	0xef, 0xdc, 0xba, 0xbc, 0xbb, 0x8c, 0xdf, 0xbb, 0x0f, 0x9a, 0xcf, 0x3d,
	0x21, 0x30, 0x88, 0x3b, 0xe2, 0xfc, 0x81, 0xba, 0x6b, 0xad, 0xd9, 0x39,
	0x4f, 0x38, 0xd2, 0xb8, 0xc8, 0x0b, 0xaf, 0x3b, 0xd9, 0x8d, 0xf4, 0x3a,
	0xec, 0x4d, 0x8a, 0xbc, 0x8e, 0xde, 0x29, 0xba, 0x52, 0xe7, 0xfc, 0xbc,
	0xe6, 0xe9, 0x38, 0xb9, 0xf2, 0x63, 0xb7, 0xba, 0x62, 0xda, 0x04, 0xbe,
	0x5e, 0x43, 0x5f, 0xbe, 0x91, 0xc6, 0x6f, 0xba, 0x99, 0x2b, 0xa4, 0x3b,
	0x51, 0xe9, 0x04, 0xba, 0xdd, 0x49, 0xd2, 0xba, 0xfd, 0x9f, 0xa2, 0xbd,
	0x16, 0x36, 0x20, 0xbe, 0x09, 0xef, 0x5f, 0x3e, 0xa8, 0xe1, 0x8d, 0x3a,
	0x99, 0x2e, 0x13, 0xbe, 0x54, 0xa3, 0xa3, 0x39, 0xe5, 0xbd, 0x8d, 0xbd,
	0x89, 0x32, 0x3a, 0x3b, 0xb6, 0xd2, 0x03, 0xbc, 0x0a, 0x0a, 0x0f, 0xbb,
	0x7e, 0x4c, 0x89, 0x3a, 0xef, 0xa8, 0xae, 0x38, 0xb3, 0xda, 0xcb, 0x3c,
	0x53, 0x24, 0x7d, 0xbb, 0xeb, 0x61, 0x83, 0x3c, 0x7a, 0xf8, 0x74, 0x3a,
	0x02, 0x06, 0xe3, 0xb9, 0x58, 0xc6, 0x48, 0x39, 0xbe, 0x30, 0x09, 0xba,
	0xc6, 0x20, 0x1a, 0xbe, 0x1b, 0xa7, 0x10, 0xb9, 0xab, 0x90, 0x33, 0x3d,
	0x88, 0x5c, 0x12, 0xba, 0x25, 0x60, 0x06, 0x3d, 0x41, 0xca, 0xf7, 0x39,
	0x70, 0x03, 0xc3, 0x3a, 0x7f, 0xc6, 0x11, 0xbe, 0x3f, 0x7e, 0x46, 0xbc,
	0x41, 0x83, 0x6a, 0x3b, 0xc2, 0xc5, 0x04, 0x39, 0x8d, 0xec, 0x60, 0xb9,
	0x72, 0xff, 0xff, 0xff, 0x04, 0x00, 0x00, 0x00, 0x80, 0x00, 0x00, 0x00,
	0x25, 0x39, 0xa4, 0xbf, 0x7b, 0xed, 0x0e, 0xbf, 0xfd, 0x99, 0xa1, 0xbf,
	0x6c, 0x07, 0xc1, 0xbf, 0x82, 0x05, 0xac, 0xbf, 0xf2, 0xa6, 0x4f, 0xbe,
	0xea, 0x69, 0x8b, 0xbf, 0x79, 0x20, 0x35, 0xbf, 0xa5, 0x1a, 0x09, 0xc0,
	0xd7, 0x57, 0x32, 0xc0, 0x49, 0x57, 0x48, 0xbf, 0xab, 0x9e, 0xb9, 0xbf,
	0x3c, 0x88, 0xb5, 0xbf, 0xd6, 0xee, 0x07, 0xbf, 0xec, 0x89, 0x16, 0xc0,
	0x7f, 0x50, 0x9e, 0xbf, 0x95, 0x1b, 0x1f, 0xbf, 0x39, 0x06, 0x86, 0xbf,
	0x5e, 0x3f, 0xd9, 0xbf, 0x43, 0x70, 0x33, 0xbe, 0x77, 0x3f, 0x0b, 0xbf,
	0xd0, 0xbc, 0x34, 0xbf, 0xb5, 0x29, 0x96, 0xbf, 0x72, 0xc6, 0xb5, 0xbd,
	0x1f, 0xc0, 0x33, 0xbf, 0x1d, 0xeb, 0x65, 0xbf, 0xe8, 0x8a, 0x16, 0xbf,
	0xa6, 0x09, 0x43, 0xbf, 0xa9, 0x6c, 0x02, 0x3e, 0x98, 0xa1, 0xfa, 0xbe,
	0xfa, 0x99, 0x04, 0xc0, 0x08, 0x30, 0x8a, 0xbf, 0x00, 0x00, 0x06, 0x00,
	0x08, 0x00, 0x04, 0x00, 0x06, 0x00, 0x00, 0x00, 0x04, 0x00, 0x00, 0x00,
	0x18, 0x00, 0x00, 0x00, 0x3f, 0x6c, 0x16, 0x3e, 0x10, 0x9e, 0x68, 0x3e,
	0x02, 0xb8, 0xc5, 0x3e, 0x8c, 0x71, 0xe9, 0x3d, 0x33, 0x9f, 0x69, 0x3c,
	0xb1, 0x83, 0xbe, 0x3c, 0xa8, 0xfa, 0xff, 0xff, 0xac, 0xfa, 0xff, 0xff,
	0x0f, 0x00, 0x00, 0x00, 0x4d, 0x4c, 0x49, 0x52, 0x20, 0x43, 0x6f, 0x6e,
	0x76, 0x65, 0x72, 0x74, 0x65, 0x64, 0x2e, 0x00, 0x01, 0x00, 0x00, 0x00,
	0x14, 0x00, 0x00, 0x00, 0x00, 0x00, 0x0e, 0x00, 0x18, 0x00, 0x14, 0x00,
	0x10, 0x00, 0x0c, 0x00, 0x08, 0x00, 0x04, 0x00, 0x0e, 0x00, 0x00, 0x00,
	0x14, 0x00, 0x00, 0x00, 0x1c, 0x00, 0x00, 0x00, 0xec, 0x00, 0x00, 0x00,
	0xf0, 0x00, 0x00, 0x00, 0xf4, 0x00, 0x00, 0x00, 0x04, 0x00, 0x00, 0x00,
	0x6d, 0x61, 0x69, 0x6e, 0x00, 0x00, 0x00, 0x00, 0x03, 0x00, 0x00, 0x00,
	0x90, 0x00, 0x00, 0x00, 0x48, 0x00, 0x00, 0x00, 0x04, 0x00, 0x00, 0x00,
	0x8a, 0xff, 0xff, 0xff, 0x1c, 0x00, 0x00, 0x00, 0x00, 0x00, 0x00, 0x08,
	0x1c, 0x00, 0x00, 0x00, 0x20, 0x00, 0x00, 0x00, 0x00, 0x00, 0x0a, 0x00,
	0x08, 0x00, 0x00, 0x00, 0x00, 0x00, 0x07, 0x00, 0x0a, 0x00, 0x00, 0x00,
	0x00, 0x00, 0x00, 0x01, 0x01, 0x00, 0x00, 0x00, 0x09, 0x00, 0x00, 0x00,
	0x03, 0x00, 0x00, 0x00, 0x08, 0x00, 0x00, 0x00, 0x03, 0x00, 0x00, 0x00,
	0x01, 0x00, 0x00, 0x00, 0xca, 0xff, 0xff, 0xff, 0x10, 0x00, 0x00, 0x00,
	0x00, 0x00, 0x00, 0x08, 0x10, 0x00, 0x00, 0x00, 0x14, 0x00, 0x00, 0x00,
	0xba, 0xff, 0xff, 0xff, 0x00, 0x00, 0x01, 0x01, 0x01, 0x00, 0x00, 0x00,
	0x08, 0x00, 0x00, 0x00, 0x03, 0x00, 0x00, 0x00, 0x07, 0x00, 0x00, 0x00,
	0x04, 0x00, 0x00, 0x00, 0x02, 0x00, 0x00, 0x00, 0x00, 0x00, 0x0e, 0x00,
	0x16, 0x00, 0x00, 0x00, 0x10, 0x00, 0x0c, 0x00, 0x0b, 0x00, 0x04, 0x00,
	0x0e, 0x00, 0x00, 0x00, 0x1c, 0x00, 0x00, 0x00, 0x00, 0x00, 0x00, 0x08,
	0x1c, 0x00, 0x00, 0x00, 0x20, 0x00, 0x00, 0x00, 0x00, 0x00, 0x0a, 0x00,
	0x08, 0x00, 0x07, 0x00, 0x00, 0x00, 0x06, 0x00, 0x0a, 0x00, 0x00, 0x00,
	0x00, 0x00, 0x01, 0x01, 0x01, 0x00, 0x00, 0x00, 0x07, 0x00, 0x00, 0x00,
	0x03, 0x00, 0x00, 0x00, 0x00, 0x00, 0x00, 0x00, 0x05, 0x00, 0x00, 0x00,
	0x06, 0x00, 0x00, 0x00, 0x01, 0x00, 0x00, 0x00, 0x09, 0x00, 0x00, 0x00,
	0x01, 0x00, 0x00, 0x00, 0x00, 0x00, 0x00, 0x00, 0x0a, 0x00, 0x00, 0x00,
	0x00, 0x04, 0x00, 0x00, 0x84, 0x03, 0x00, 0x00, 0x08, 0x03, 0x00, 0x00,
	0x9c, 0x02, 0x00, 0x00, 0x34, 0x02, 0x00, 0x00, 0xcc, 0x01, 0x00, 0x00,
	0x50, 0x01, 0x00, 0x00, 0xd0, 0x00, 0x00, 0x00, 0x50, 0x00, 0x00, 0x00,
	0x04, 0x00, 0x00, 0x00, 0x3e, 0xfc, 0xff, 0xff, 0x00, 0x00, 0x00, 0x01,
	0x10, 0x00, 0x00, 0x00, 0x10, 0x00, 0x00, 0x00, 0x0a, 0x00, 0x00, 0x00,
	0x28, 0x00, 0x00, 0x00, 0x28, 0xfc, 0xff, 0xff, 0x19, 0x00, 0x00, 0x00,
	0x53, 0x74, 0x61, 0x74, 0x65, 0x66, 0x75, 0x6c, 0x50, 0x61, 0x72, 0x74,
	0x69, 0x74, 0x69, 0x6f, 0x6e, 0x65, 0x64, 0x43, 0x61, 0x6c, 0x6c, 0x3a,
	0x30, 0x00, 0x00, 0x00, 0x02, 0x00, 0x00, 0x00, 0x01, 0x00, 0x00, 0x00,
	0x06, 0x00, 0x00, 0x00, 0x86, 0xfc, 0xff, 0xff, 0x00, 0x00, 0x00, 0x01,
	0x10, 0x00, 0x00, 0x00, 0x10, 0x00, 0x00, 0x00, 0x09, 0x00, 0x00, 0x00,
	0x5c, 0x00, 0x00, 0x00, 0x70, 0xfc, 0xff, 0xff, 0x4c, 0x00, 0x00, 0x00,
	0x5f, 0x5f, 0x6d, 0x61, 0x69, 0x6e, 0x5f, 0x5f, 0x2e, 0x65, 0x32, 0x65,
	0x4e, 0x65, 0x74, 0x77, 0x6f, 0x72, 0x6b, 0x2f, 0x74, 0x6f, 0x72, 0x63,
	0x68, 0x2e, 0x6e, 0x6e, 0x2e, 0x6d, 0x6f, 0x64, 0x75, 0x6c, 0x65, 0x73,
	0x2e, 0x6c, 0x69, 0x6e, 0x65, 0x61, 0x72, 0x2e, 0x4c, 0x69, 0x6e, 0x65,
	0x61, 0x72, 0x5f, 0x66, 0x63, 0x32, 0x3b, 0x3b, 0x5f, 0x5f, 0x6d, 0x61,
	0x69, 0x6e, 0x5f, 0x5f, 0x2e, 0x65, 0x32, 0x65, 0x4e, 0x65, 0x74, 0x77,
	0x6f, 0x72, 0x6b, 0x3b, 0x00, 0x00, 0x00, 0x00, 0x02, 0x00, 0x00, 0x00,
	0x01, 0x00, 0x00, 0x00, 0x20, 0x00, 0x00, 0x00, 0x02, 0xfd, 0xff, 0xff,
	0x00, 0x00, 0x00, 0x01, 0x10, 0x00, 0x00, 0x00, 0x10, 0x00, 0x00, 0x00,
	0x08, 0x00, 0x00, 0x00, 0x5c, 0x00, 0x00, 0x00, 0xec, 0xfc, 0xff, 0xff,
	0x4c, 0x00, 0x00, 0x00, 0x5f, 0x5f, 0x6d, 0x61, 0x69, 0x6e, 0x5f, 0x5f,
	0x2e, 0x65, 0x32, 0x65, 0x4e, 0x65, 0x74, 0x77, 0x6f, 0x72, 0x6b, 0x2f,
	0x74, 0x6f, 0x72, 0x63, 0x68, 0x2e, 0x6e, 0x6e, 0x2e, 0x6d, 0x6f, 0x64,
	0x75, 0x6c, 0x65, 0x73, 0x2e, 0x6c, 0x69, 0x6e, 0x65, 0x61, 0x72, 0x2e,
	0x4c, 0x69, 0x6e, 0x65, 0x61, 0x72, 0x5f, 0x66, 0x63, 0x31, 0x3b, 0x3b,
	0x5f, 0x5f, 0x6d, 0x61, 0x69, 0x6e, 0x5f, 0x5f, 0x2e, 0x65, 0x32, 0x65,
	0x4e, 0x65, 0x74, 0x77, 0x6f, 0x72, 0x6b, 0x3b, 0x00, 0x00, 0x00, 0x00,
	0x02, 0x00, 0x00, 0x00, 0x01, 0x00, 0x00, 0x00, 0x40, 0x00, 0x00, 0x00,
	0x7e, 0xfd, 0xff, 0xff, 0x00, 0x00, 0x00, 0x01, 0x10, 0x00, 0x00, 0x00,
	0x10, 0x00, 0x00, 0x00, 0x07, 0x00, 0x00, 0x00, 0x5c, 0x00, 0x00, 0x00,
	0x68, 0xfd, 0xff, 0xff, 0x4c, 0x00, 0x00, 0x00, 0x5f, 0x5f, 0x6d, 0x61,
	0x69, 0x6e, 0x5f, 0x5f, 0x2e, 0x65, 0x32, 0x65, 0x4e, 0x65, 0x74, 0x77,
	0x6f, 0x72, 0x6b, 0x3b, 0x3b, 0x5f, 0x5f, 0x6d, 0x61, 0x69, 0x6e, 0x5f,
	0x5f, 0x2e, 0x65, 0x32, 0x65, 0x4e, 0x65, 0x74, 0x77, 0x6f, 0x72, 0x6b,
	0x2f, 0x74, 0x6f, 0x72, 0x63, 0x68, 0x2e, 0x6e, 0x6e, 0x2e, 0x6d, 0x6f,
	0x64, 0x75, 0x6c, 0x65, 0x73, 0x2e, 0x6c, 0x69, 0x6e, 0x65, 0x61, 0x72,
	0x2e, 0x4c, 0x69, 0x6e, 0x65, 0x61, 0x72, 0x5f, 0x66, 0x63, 0x31, 0x3b,
	0x00, 0x00, 0x00, 0x00, 0x01, 0x00, 0x00, 0x00, 0x40, 0x00, 0x00, 0x00,
	0xf6, 0xfd, 0xff, 0xff, 0x00, 0x00, 0x00, 0x01, 0x10, 0x00, 0x00, 0x00,
	0x10, 0x00, 0x00, 0x00, 0x06, 0x00, 0x00, 0x00, 0x44, 0x00, 0x00, 0x00,
	0xe0, 0xfd, 0xff, 0xff, 0x37, 0x00, 0x00, 0x00, 0x5f, 0x5f, 0x6d, 0x61,
	0x69, 0x6e, 0x5f, 0x5f, 0x2e, 0x65, 0x32, 0x65, 0x4e, 0x65, 0x74, 0x77,
	0x6f, 0x72, 0x6b, 0x2f, 0x74, 0x6f, 0x72, 0x63, 0x68, 0x2e, 0x6e, 0x6e,
	0x2e, 0x6d, 0x6f, 0x64, 0x75, 0x6c, 0x65, 0x73, 0x2e, 0x6c, 0x69, 0x6e,
	0x65, 0x61, 0x72, 0x2e, 0x4c, 0x69, 0x6e, 0x65, 0x61, 0x72, 0x5f, 0x66,
	0x63, 0x31, 0x3b, 0x00, 0x02, 0x00, 0x00, 0x00, 0x40, 0x00, 0x00, 0x00,
	0x0f, 0x00, 0x00, 0x00, 0x5a, 0xfe, 0xff, 0xff, 0x00, 0x00, 0x00, 0x01,
	0x10, 0x00, 0x00, 0x00, 0x10, 0x00, 0x00, 0x00, 0x05, 0x00, 0x00, 0x00,
	0x44, 0x00, 0x00, 0x00, 0x44, 0xfe, 0xff, 0xff, 0x37, 0x00, 0x00, 0x00,
	0x5f, 0x5f, 0x6d, 0x61, 0x69, 0x6e, 0x5f, 0x5f, 0x2e, 0x65, 0x32, 0x65,
	0x4e, 0x65, 0x74, 0x77, 0x6f, 0x72, 0x6b, 0x2f, 0x74, 0x6f, 0x72, 0x63,
	0x68, 0x2e, 0x6e, 0x6e, 0x2e, 0x6d, 0x6f, 0x64, 0x75, 0x6c, 0x65, 0x73,
	0x2e, 0x6c, 0x69, 0x6e, 0x65, 0x61, 0x72, 0x2e, 0x4c, 0x69, 0x6e, 0x65,
	0x61, 0x72, 0x5f, 0x66, 0x63, 0x32, 0x3b, 0x00, 0x02, 0x00, 0x00, 0x00,
	0x20, 0x00, 0x00, 0x00, 0x40, 0x00, 0x00, 0x00, 0xbe, 0xfe, 0xff, 0xff,
	0x00, 0x00, 0x00, 0x01, 0x10, 0x00, 0x00, 0x00, 0x10, 0x00, 0x00, 0x00,
	0x04, 0x00, 0x00, 0x00, 0x48, 0x00, 0x00, 0x00, 0xa8, 0xfe, 0xff, 0xff,
	0x38, 0x00, 0x00, 0x00, 0x5f, 0x5f, 0x6d, 0x61, 0x69, 0x6e, 0x5f, 0x5f,
	0x2e, 0x65, 0x32, 0x65, 0x4e, 0x65, 0x74, 0x77, 0x6f, 0x72, 0x6b, 0x2f,
	0x74, 0x6f, 0x72, 0x63, 0x68, 0x2e, 0x6e, 0x6e, 0x2e, 0x6d, 0x6f, 0x64,
	0x75, 0x6c, 0x65, 0x73, 0x2e, 0x6c, 0x69, 0x6e, 0x65, 0x61, 0x72, 0x2e,
	0x4c, 0x69, 0x6e, 0x65, 0x61, 0x72, 0x5f, 0x66, 0x63, 0x33, 0x3b, 0x31,
	0x00, 0x00, 0x00, 0x00, 0x02, 0x00, 0x00, 0x00, 0x06, 0x00, 0x00, 0x00,
	0x20, 0x00, 0x00, 0x00, 0x26, 0xff, 0xff, 0xff, 0x00, 0x00, 0x00, 0x01,
	0x10, 0x00, 0x00, 0x00, 0x10, 0x00, 0x00, 0x00, 0x03, 0x00, 0x00, 0x00,
	0x5c, 0x00, 0x00, 0x00, 0x10, 0xff, 0xff, 0xff, 0x4c, 0x00, 0x00, 0x00,
	0x5f, 0x5f, 0x6d, 0x61, 0x69, 0x6e, 0x5f, 0x5f, 0x2e, 0x65, 0x32, 0x65,
	0x4e, 0x65, 0x74, 0x77, 0x6f, 0x72, 0x6b, 0x3b, 0x3b, 0x5f, 0x5f, 0x6d,
	0x61, 0x69, 0x6e, 0x5f, 0x5f, 0x2e, 0x65, 0x32, 0x65, 0x4e, 0x65, 0x74,
	0x77, 0x6f, 0x72, 0x6b, 0x2f, 0x74, 0x6f, 0x72, 0x63, 0x68, 0x2e, 0x6e,
	0x6e, 0x2e, 0x6d, 0x6f, 0x64, 0x75, 0x6c, 0x65, 0x73, 0x2e, 0x6c, 0x69,
	0x6e, 0x65, 0x61, 0x72, 0x2e, 0x4c, 0x69, 0x6e, 0x65, 0x61, 0x72, 0x5f,
	0x66, 0x63, 0x32, 0x3b, 0x00, 0x00, 0x00, 0x00, 0x01, 0x00, 0x00, 0x00,
	0x20, 0x00, 0x00, 0x00, 0x9e, 0xff, 0xff, 0xff, 0x00, 0x00, 0x00, 0x01,
	0x10, 0x00, 0x00, 0x00, 0x10, 0x00, 0x00, 0x00, 0x02, 0x00, 0x00, 0x00,
	0x44, 0x00, 0x00, 0x00, 0x88, 0xff, 0xff, 0xff, 0x37, 0x00, 0x00, 0x00,
	0x5f, 0x5f, 0x6d, 0x61, 0x69, 0x6e, 0x5f, 0x5f, 0x2e, 0x65, 0x32, 0x65,
	0x4e, 0x65, 0x74, 0x77, 0x6f, 0x72, 0x6b, 0x2f, 0x74, 0x6f, 0x72, 0x63,
	0x68, 0x2e, 0x6e, 0x6e, 0x2e, 0x6d, 0x6f, 0x64, 0x75, 0x6c, 0x65, 0x73,
	0x2e, 0x6c, 0x69, 0x6e, 0x65, 0x61, 0x72, 0x2e, 0x4c, 0x69, 0x6e, 0x65,
	0x61, 0x72, 0x5f, 0x66, 0x63, 0x33, 0x3b, 0x00, 0x01, 0x00, 0x00, 0x00,
	0x06, 0x00, 0x00, 0x00, 0x00, 0x00, 0x16, 0x00, 0x18, 0x00, 0x14, 0x00,
	0x00, 0x00, 0x10, 0x00, 0x0c, 0x00, 0x08, 0x00, 0x00, 0x00, 0x00, 0x00,
	0x00, 0x00, 0x07, 0x00, 0x16, 0x00, 0x00, 0x00, 0x00, 0x00, 0x00, 0x01,
	0x14, 0x00, 0x00, 0x00, 0x14, 0x00, 0x00, 0x00, 0x01, 0x00, 0x00, 0x00,
	0x2c, 0x00, 0x00, 0x00, 0x04, 0x00, 0x04, 0x00, 0x04, 0x00, 0x00, 0x00,
	0x18, 0x00, 0x00, 0x00, 0x73, 0x65, 0x72, 0x76, 0x69, 0x6e, 0x67, 0x5f,
	0x64, 0x65, 0x66, 0x61, 0x75, 0x6c, 0x74, 0x5f, 0x61, 0x72, 0x67, 0x73,
	0x5f, 0x30, 0x3a, 0x30, 0x00, 0x00, 0x00, 0x00, 0x02, 0x00, 0x00, 0x00,
	0x01, 0x00, 0x00, 0x00, 0x0f, 0x00, 0x00, 0x00, 0x01, 0x00, 0x00, 0x00,
	0x10, 0x00, 0x00, 0x00, 0x0c, 0x00, 0x10, 0x00, 0x0f, 0x00, 0x00, 0x00,
	0x08, 0x00, 0x04, 0x00, 0x0c, 0x00, 0x00, 0x00, 0x09, 0x00, 0x00, 0x00,
	0x05, 0x00, 0x00, 0x00, 0x00, 0x00, 0x00, 0x09
};
