#include <cstdint>
#include "control_net.hpp"

alignas(16) const unsigned char control_net_tflite[] = {
	0x1c, 0x00, 0x00, 0x00, 0x54, 0x46, 0x4c, 0x33, 0x14, 0x00, 0x20, 0x00,
	0x1c, 0x00, 0x18, 0x00, 0x14, 0x00, 0x10, 0x00, 0x0c, 0x00, 0x00, 0x00,
	0x08, 0x00, 0x04, 0x00, 0x14, 0x00, 0x00, 0x00, 0x1c, 0x00, 0x00, 0x00,
	0x90, 0x00, 0x00, 0x00, 0xe8, 0x00, 0x00, 0x00, 0xb0, 0x35, 0x00, 0x00,
	0xc0, 0x35, 0x00, 0x00, 0x2c, 0x3b, 0x00, 0x00, 0x03, 0x00, 0x00, 0x00,
	0x01, 0x00, 0x00, 0x00, 0x10, 0x00, 0x00, 0x00, 0x00, 0x00, 0x0a, 0x00,
	0x10, 0x00, 0x0c, 0x00, 0x08, 0x00, 0x04, 0x00, 0x0a, 0x00, 0x00, 0x00,
	0x0c, 0x00, 0x00, 0x00, 0x1c, 0x00, 0x00, 0x00, 0x3c, 0x00, 0x00, 0x00,
	0x0f, 0x00, 0x00, 0x00, 0x73, 0x65, 0x72, 0x76, 0x69, 0x6e, 0x67, 0x5f,
	0x64, 0x65, 0x66, 0x61, 0x75, 0x6c, 0x74, 0x00, 0x01, 0x00, 0x00, 0x00,
	0x04, 0x00, 0x00, 0x00, 0x98, 0xff, 0xff, 0xff, 0x09, 0x00, 0x00, 0x00,
	0x04, 0x00, 0x00, 0x00, 0x08, 0x00, 0x00, 0x00, 0x6f, 0x75, 0x74, 0x70,
	0x75, 0x74, 0x5f, 0x30, 0x00, 0x00, 0x00, 0x00, 0x01, 0x00, 0x00, 0x00,
	0x04, 0x00, 0x00, 0x00, 0xf6, 0xca, 0xff, 0xff, 0x04, 0x00, 0x00, 0x00,
	0x06, 0x00, 0x00, 0x00, 0x61, 0x72, 0x67, 0x73, 0x5f, 0x30, 0x00, 0x00,
	0x02, 0x00, 0x00, 0x00, 0x34, 0x00, 0x00, 0x00, 0x04, 0x00, 0x00, 0x00,
	0xdc, 0xff, 0xff, 0xff, 0x0c, 0x00, 0x00, 0x00, 0x04, 0x00, 0x00, 0x00,
	0x13, 0x00, 0x00, 0x00, 0x43, 0x4f, 0x4e, 0x56, 0x45, 0x52, 0x53, 0x49,
	0x4f, 0x4e, 0x5f, 0x4d, 0x45, 0x54, 0x41, 0x44, 0x41, 0x54, 0x41, 0x00,
	0x08, 0x00, 0x0c, 0x00, 0x08, 0x00, 0x04, 0x00, 0x08, 0x00, 0x00, 0x00,
	0x0b, 0x00, 0x00, 0x00, 0x04, 0x00, 0x00, 0x00, 0x13, 0x00, 0x00, 0x00,
	0x6d, 0x69, 0x6e, 0x5f, 0x72, 0x75, 0x6e, 0x74, 0x69, 0x6d, 0x65, 0x5f,
	0x76, 0x65, 0x72, 0x73, 0x69, 0x6f, 0x6e, 0x00, 0x0d, 0x00, 0x00, 0x00,
	0xc4, 0x34, 0x00, 0x00, 0xbc, 0x34, 0x00, 0x00, 0x94, 0x34, 0x00, 0x00,
	0xfc, 0x33, 0x00, 0x00, 0xec, 0x30, 0x00, 0x00, 0xdc, 0x10, 0x00, 0x00,
	0xcc, 0x01, 0x00, 0x00, 0xbc, 0x00, 0x00, 0x00, 0xb4, 0x00, 0x00, 0x00,
	0xac, 0x00, 0x00, 0x00, 0xa4, 0x00, 0x00, 0x00, 0x84, 0x00, 0x00, 0x00,
	0x04, 0x00, 0x00, 0x00, 0x9e, 0xcb, 0xff, 0xff, 0x04, 0x00, 0x00, 0x00,
	0x70, 0x00, 0x00, 0x00, 0x10, 0x00, 0x00, 0x00, 0x00, 0x00, 0x00, 0x00,
	0x08, 0x00, 0x0e, 0x00, 0x08, 0x00, 0x04, 0x00, 0x08, 0x00, 0x00, 0x00,
	0x10, 0x00, 0x00, 0x00, 0x24, 0x00, 0x00, 0x00, 0x00, 0x00, 0x06, 0x00,
	0x08, 0x00, 0x04, 0x00, 0x06, 0x00, 0x00, 0x00, 0x04, 0x00, 0x00, 0x00,
	0x00, 0x00, 0x00, 0x00, 0x0c, 0x00, 0x1c, 0x00, 0x18, 0x00, 0x14, 0x00,
	0x10, 0x00, 0x04, 0x00, 0x0c, 0x00, 0x00, 0x00, 0x65, 0xf3, 0x71, 0x9e,
	0x86, 0x9a, 0xb9, 0x4d, 0x00, 0x00, 0x00, 0x00, 0x01, 0x00, 0x00, 0x00,
	0x02, 0x00, 0x00, 0x00, 0x04, 0x00, 0x00, 0x00, 0x12, 0x00, 0x00, 0x00,
	0x32, 0x2e, 0x32, 0x31, 0x2e, 0x30, 0x2d, 0x64, 0x65, 0x76, 0x32, 0x30,
	0x32, 0x35, 0x30, 0x38, 0x31, 0x38, 0x00, 0x00, 0x1a, 0xcc, 0xff, 0xff,
	0x04, 0x00, 0x00, 0x00, 0x10, 0x00, 0x00, 0x00, 0x32, 0x2e, 0x30, 0x2e,
	0x30, 0x00, 0x00, 0x00, 0x00, 0x00, 0x00, 0x00, 0x00, 0x00, 0x00, 0x00,
	0xb4, 0xc6, 0xff, 0xff, 0xb8, 0xc6, 0xff, 0xff, 0xbc, 0xc6, 0xff, 0xff,
	0x42, 0xcc, 0xff, 0xff, 0x04, 0x00, 0x00, 0x00, 0x00, 0x01, 0x00, 0x00,
	0x90, 0x7d, 0x43, 0xbf, 0x5b, 0xa1, 0x5d, 0xbf, 0x0f, 0x2d, 0xb4, 0xbf,
	0xe0, 0x9d, 0x98, 0xbf, 0x29, 0x52, 0x9b, 0xbe, 0xa9, 0x72, 0x4c, 0xbf,
	0x44, 0x78, 0x2d, 0xbf, 0xb2, 0x3b, 0xcd, 0xbf, 0xca, 0xa6, 0xcb, 0xbf,
	0xea, 0x4a, 0xaa, 0xbe, 0x38, 0xc5, 0xdf, 0xbe, 0x03, 0x85, 0xaa, 0xbe,
	0x89, 0xf5, 0x03, 0xc0, 0x50, 0xce, 0xbd, 0xbe, 0xbf, 0x1e, 0x95, 0xbf,
	0xd1, 0xb3, 0x41, 0xbf, 0xb3, 0x75, 0xaa, 0xbf, 0xf8, 0xcb, 0xcd, 0xbf,
	0x14, 0xaa, 0xc2, 0xbf, 0xe1, 0x18, 0x03, 0x3f, 0x51, 0xbf, 0xeb, 0xbf,
	0x9b, 0xf4, 0xa1, 0xbf, 0x0e, 0x99, 0x2d, 0xbe, 0xf7, 0x93, 0xa9, 0xbf,
	0xf1, 0x94, 0xd2, 0x3e, 0xb3, 0x7f, 0x07, 0xc0, 0x69, 0xf2, 0xca, 0xbf,
	0xef, 0x07, 0x89, 0xbf, 0xd2, 0xbd, 0xd6, 0xbf, 0x12, 0xc5, 0x46, 0x3e,
	0x4b, 0x47, 0xda, 0xbe, 0xf0, 0x40, 0x7c, 0xbf, 0x77, 0xce, 0xd5, 0xbf,
	0xcb, 0x0d, 0x33, 0xbe, 0x1d, 0xa5, 0x7a, 0xbf, 0x87, 0x36, 0xce, 0xbe,
	0x25, 0x74, 0xcd, 0xbf, 0x25, 0x59, 0x15, 0xbf, 0x2a, 0x08, 0xbf, 0xbf,
	0x85, 0xee, 0xa9, 0xbf, 0xf5, 0x06, 0xa6, 0x3d, 0x61, 0x71, 0xfc, 0xbf,
	0xb6, 0x51, 0xe1, 0xbe, 0xf9, 0x63, 0xe5, 0xbf, 0x59, 0x2a, 0x65, 0xbe,
	0xb7, 0xd7, 0xda, 0xbf, 0xb4, 0x09, 0x66, 0xbf, 0x1e, 0xf6, 0x0d, 0xbf,
	0x4a, 0xdf, 0x8a, 0xbf, 0x8a, 0x02, 0xef, 0xbf, 0xcd, 0x40, 0x14, 0xc0,
	0xe8, 0xcf, 0x85, 0xbf, 0xb0, 0xcc, 0xc3, 0xbd, 0x2d, 0x36, 0xb8, 0xbe,
	0xd8, 0x00, 0x8b, 0xbf, 0x65, 0x46, 0x0d, 0xbd, 0x08, 0x49, 0x94, 0xbf,
	0x94, 0xea, 0xaa, 0xbf, 0x4e, 0x88, 0x9a, 0xbe, 0xd0, 0xda, 0xc3, 0xbe,
	0x41, 0x4d, 0x02, 0xbe, 0xf9, 0x55, 0x78, 0xbf, 0xb0, 0x21, 0x34, 0xbf,
	0x3e, 0xe2, 0x8d, 0xbf, 0x4e, 0xcd, 0xff, 0xff, 0x04, 0x00, 0x00, 0x00,
	0x00, 0x0f, 0x00, 0x00, 0xb0, 0x23, 0xb4, 0xbf, 0xdc, 0x2b, 0xa6, 0xbf,
	0xea, 0x10, 0x47, 0xbf, 0x61, 0x3c, 0xbc, 0xbd, 0xcf, 0xc7, 0xb7, 0xbe,
	0x59, 0xbd, 0x9f, 0x3f, 0xa4, 0x7f, 0x08, 0x3f, 0xb9, 0x08, 0xa3, 0x3e,
	0x1b, 0xfa, 0x1c, 0xc0, 0x03, 0xdc, 0x03, 0x3f, 0x2f, 0x21, 0xa1, 0x3f,
	0x1c, 0x47, 0x10, 0xbf, 0x62, 0x17, 0x40, 0x3e, 0xf4, 0xdb, 0xc1, 0x3e,
	0x68, 0x31, 0xe7, 0x3e, 0x5d, 0x70, 0x6e, 0xbe, 0xb1, 0x28, 0x43, 0x3e,
	0x3b, 0xfe, 0x18, 0xbe, 0x10, 0x3b, 0x7e, 0xbf, 0x73, 0xcf, 0xc7, 0x3f,
	0x4a, 0x26, 0xa3, 0x40, 0x1f, 0xaf, 0x91, 0xbf, 0x72, 0xc8, 0xac, 0xbd,
	0x0f, 0x91, 0x42, 0x3e, 0x99, 0x31, 0x18, 0x3f, 0x97, 0x77, 0xc2, 0xbe,
	0x3b, 0x29, 0x1a, 0x3f, 0x01, 0x3e, 0xe6, 0xbe, 0xab, 0x0a, 0xfd, 0x3d,
	0xc7, 0xb1, 0xca, 0xbe, 0xec, 0x61, 0x83, 0x3d, 0x60, 0x9c, 0x9c, 0xbc,
	0x1e, 0xac, 0x8c, 0x3e, 0xbf, 0x0d, 0x41, 0xbe, 0x7f, 0x87, 0xd6, 0xbe,
	0xae, 0xd8, 0x39, 0xc0, 0x61, 0xf5, 0x6d, 0x3f, 0x62, 0xf8, 0x3a, 0xbf,
	0x27, 0xd3, 0x17, 0x3f, 0xed, 0xf7, 0x7b, 0xbf, 0xa8, 0x17, 0x86, 0xbe,
	0x33, 0x0c, 0x56, 0xbe, 0xeb, 0x15, 0x0c, 0xbf, 0x83, 0x34, 0x17, 0x3f,
	0x76, 0x96, 0x9a, 0xbd, 0x5a, 0xc5, 0x67, 0xbe, 0xd6, 0xde, 0x8b, 0xbf,
	0x32, 0x4c, 0x82, 0x3c, 0xc3, 0xb6, 0x8b, 0xbe, 0xe7, 0x97, 0x98, 0x3f,
	0xd4, 0x9f, 0x4f, 0xc0, 0x2e, 0xf6, 0x47, 0xbf, 0x0d, 0x35, 0x4c, 0x3f,
	0x74, 0x9d, 0x35, 0x40, 0x38, 0xb7, 0x3b, 0xbe, 0x68, 0x20, 0x5e, 0x3f,
	0xba, 0x4e, 0xb2, 0x3e, 0xf7, 0xe2, 0x3c, 0x3e, 0x98, 0x4f, 0xb9, 0xbe,
	0xa4, 0x39, 0xa2, 0x3e, 0x26, 0x73, 0x6e, 0xbe, 0x11, 0xe5, 0x4d, 0xc0,
	0xf7, 0xc8, 0x79, 0x3d, 0x62, 0xff, 0x8b, 0x3e, 0x92, 0x84, 0xe2, 0x3e,
	0x7e, 0x34, 0x70, 0xbf, 0x9a, 0x27, 0xc0, 0xbd, 0xdf, 0x46, 0x01, 0x3f,
	0x25, 0xbd, 0xf4, 0x3f, 0x25, 0x05, 0x0e, 0xbd, 0x91, 0x30, 0x93, 0x3f,
	0x0e, 0x3f, 0xc3, 0x3d, 0x94, 0x23, 0xf3, 0xbe, 0x9e, 0x99, 0x6e, 0xbd,
	0xf6, 0xa1, 0x1d, 0xbe, 0x9e, 0xe8, 0xff, 0xbe, 0xd9, 0xe5, 0x17, 0xbe,
	0xf2, 0xfd, 0x49, 0x3c, 0xff, 0xa1, 0x72, 0xbf, 0x88, 0xa1, 0x38, 0xbf,
	0x98, 0xed, 0xaa, 0x40, 0xb6, 0xe5, 0x03, 0x3f, 0x36, 0xe2, 0xc6, 0xbf,
	0xca, 0x69, 0x4c, 0xbf, 0xbb, 0x72, 0xdf, 0x3e, 0xa0, 0x2a, 0xe5, 0xbc,
	0x64, 0x65, 0xa4, 0xbe, 0x02, 0x7d, 0x53, 0xbd, 0xc1, 0x91, 0x98, 0xbe,
	0x44, 0x12, 0xaf, 0x3e, 0x2d, 0xfd, 0xcb, 0xbe, 0x97, 0x11, 0x25, 0x3e,
	0x57, 0xf2, 0x80, 0xbe, 0x3d, 0x9b, 0x7c, 0x3e, 0xe2, 0xae, 0x80, 0xbe,
	0x81, 0xb9, 0x9e, 0x40, 0x70, 0xe3, 0x26, 0x3f, 0x83, 0x98, 0x79, 0x3e,
	0x79, 0xfc, 0x2a, 0x3f, 0x93, 0xf5, 0x2f, 0x3f, 0x16, 0x4a, 0x0c, 0x3d,
	0x61, 0xfc, 0x88, 0x3d, 0x8f, 0x1c, 0x7e, 0xbe, 0xff, 0x0d, 0x80, 0x3f,
	0xe5, 0x53, 0xc3, 0x3e, 0x23, 0x8c, 0x67, 0xbf, 0xf3, 0x36, 0x12, 0xbf,
	0x9e, 0xde, 0x9b, 0xbf, 0xc8, 0xc6, 0xd8, 0x3e, 0xfe, 0x06, 0xe6, 0x3d,
	0xea, 0x30, 0x40, 0x3e, 0xab, 0x82, 0x89, 0xbc, 0xa8, 0xf4, 0x4e, 0xbe,
	0x3b, 0xdf, 0x6a, 0x3f, 0xe4, 0x11, 0x04, 0xbc, 0x8e, 0x2d, 0x81, 0xbf,
	0x12, 0x51, 0x2a, 0xbe, 0xd1, 0x6d, 0x82, 0xbd, 0x1e, 0x9c, 0x8f, 0x3f,
	0x6e, 0x15, 0x77, 0x3e, 0x22, 0x0b, 0xa6, 0xbe, 0x11, 0x08, 0x40, 0xbf,
	0x65, 0xd2, 0x35, 0xbf, 0xfe, 0x2e, 0x47, 0x3f, 0x41, 0x75, 0x4b, 0xbf,
	0x83, 0x87, 0x91, 0x3f, 0x7f, 0x04, 0x51, 0xbf, 0x8f, 0xa3, 0x89, 0xbf,
	0x9c, 0xdf, 0xa4, 0xbf, 0xcf, 0xa3, 0xdc, 0xbe, 0x97, 0x39, 0x2b, 0xbf,
	0x48, 0xb5, 0x81, 0x3d, 0x34, 0xb7, 0xf8, 0xbe, 0xf1, 0x33, 0x0a, 0xbe,
	0x72, 0x35, 0x9b, 0x3e, 0xf7, 0xce, 0x6b, 0xc0, 0xc8, 0x5a, 0x94, 0xbd,
	0xa7, 0x62, 0xad, 0x3d, 0x91, 0x8c, 0x02, 0x3f, 0x72, 0xcc, 0x20, 0x3e,
	0xe6, 0x0e, 0xb4, 0x3f, 0xa7, 0x88, 0xf3, 0x3e, 0x8e, 0x16, 0xb1, 0xbe,
	0x5b, 0x95, 0x60, 0x3e, 0x28, 0xd0, 0x86, 0x3f, 0x36, 0x70, 0x9c, 0x3d,
	0xbc, 0x32, 0x3c, 0xbe, 0x13, 0x06, 0x29, 0xbd, 0xda, 0x01, 0x93, 0x3d,
	0x28, 0x25, 0xc2, 0x3d, 0x2a, 0x2d, 0x96, 0xbe, 0xf9, 0x3a, 0xee, 0xbe,
	0x3b, 0x42, 0xcf, 0x3d, 0x40, 0xa1, 0x38, 0xbe, 0x99, 0x8b, 0x64, 0xbf,
	0x21, 0x74, 0x0e, 0xbf, 0x4f, 0x67, 0x8d, 0x3f, 0x67, 0x2c, 0xcb, 0xbd,
	0x66, 0xe7, 0x27, 0x3d, 0x81, 0x4c, 0x3a, 0xbe, 0x92, 0x0f, 0xcc, 0x3e,
	0x39, 0xda, 0x9c, 0x3d, 0x24, 0x4b, 0xe2, 0xbd, 0xbc, 0xba, 0x32, 0x3e,
	0x53, 0x55, 0x8f, 0x3f, 0x79, 0x51, 0x1e, 0x3e, 0x41, 0x22, 0x8d, 0xbe,
	0x9d, 0x1d, 0x5b, 0x3d, 0x88, 0x92, 0xcc, 0xbd, 0xf7, 0x55, 0x37, 0x3f,
	0x6d, 0xb2, 0x94, 0xbf, 0x97, 0x2c, 0x68, 0xbf, 0x28, 0x95, 0x0b, 0xbf,
	0x4d, 0xf3, 0x4f, 0xc0, 0x5d, 0x90, 0x3b, 0xbe, 0x9f, 0xd4, 0x3a, 0xbf,
	0x08, 0xf2, 0xb2, 0x3d, 0xd3, 0x8c, 0x99, 0xbd, 0xe2, 0xd8, 0xb2, 0x3e,
	0xe6, 0x5c, 0x58, 0x3e, 0xf0, 0xe6, 0x97, 0xbe, 0xd6, 0x18, 0x1d, 0xbf,
	0xf0, 0xf0, 0x35, 0x3e, 0x25, 0x0d, 0x4e, 0xbe, 0xa7, 0x50, 0x23, 0xbe,
	0x5b, 0x45, 0x4d, 0xc0, 0x10, 0xfa, 0x57, 0x3e, 0xf8, 0x68, 0x3e, 0x3e,
	0x90, 0x19, 0x01, 0xc0, 0x75, 0x66, 0x63, 0xbe, 0xeb, 0x9b, 0x70, 0xbe,
	0xbe, 0x45, 0xb1, 0xbe, 0xfc, 0x4b, 0xc0, 0x3e, 0xcf, 0xc2, 0xd9, 0x3d,
	0x03, 0x92, 0x29, 0x3f, 0x4e, 0x7a, 0x1e, 0xc0, 0xb2, 0x85, 0x08, 0xbf,
	0x3b, 0x2f, 0xdf, 0x3d, 0x9b, 0xcb, 0x87, 0x3c, 0x20, 0x25, 0xa2, 0x3e,
	0x30, 0xcb, 0x17, 0x40, 0x62, 0x27, 0x0b, 0xbf, 0xd2, 0x64, 0x0e, 0x3b,
	0x8f, 0xb6, 0x56, 0x3f, 0xdc, 0xbd, 0x9b, 0x3e, 0x53, 0x48, 0xf1, 0x3d,
	0xca, 0x1b, 0x0b, 0x3f, 0x17, 0x0c, 0x34, 0xbd, 0xc5, 0x21, 0x6e, 0x3d,
	0x80, 0x27, 0x30, 0xbe, 0xfa, 0x0f, 0xe7, 0xbe, 0x03, 0xea, 0x94, 0xbf,
	0xb9, 0x2e, 0xb6, 0xbf, 0x6c, 0x07, 0xe7, 0x3e, 0xe3, 0x2b, 0x5a, 0x3e,
	0x75, 0x83, 0x3b, 0xbf, 0x3d, 0x0f, 0x8b, 0x3e, 0xef, 0x0e, 0xd4, 0x3d,
	0xb1, 0xcf, 0x12, 0x40, 0x05, 0xa4, 0x90, 0x3d, 0x32, 0xf5, 0xaa, 0xbe,
	0x5d, 0xdf, 0x08, 0xbf, 0xb5, 0x6f, 0x64, 0xbf, 0x65, 0xef, 0x30, 0xbf,
	0x71, 0xed, 0x88, 0xbe, 0x85, 0x0a, 0x69, 0xbd, 0x77, 0xe0, 0x3d, 0x3e,
	0x81, 0x3c, 0x0d, 0xbe, 0x7b, 0xeb, 0x17, 0xbe, 0x98, 0xbc, 0x11, 0x3d,
	0x7f, 0xfc, 0x07, 0x3f, 0xf6, 0xc3, 0x2d, 0xbe, 0xb7, 0xf0, 0x10, 0x3e,
	0xa6, 0xf2, 0x80, 0x40, 0x44, 0x9b, 0x10, 0x3f, 0x3b, 0x28, 0x3d, 0x3f,
	0x09, 0x26, 0x1b, 0x3f, 0x25, 0xbf, 0x6f, 0xbf, 0xb6, 0xa1, 0xdc, 0x3e,
	0x24, 0x3d, 0xbe, 0x3c, 0xb5, 0xb8, 0x04, 0xc0, 0xbf, 0x9e, 0x8e, 0xbe,
	0xf4, 0x63, 0xd8, 0xbe, 0x47, 0xfe, 0xa5, 0xbf, 0x4f, 0x27, 0xa0, 0xbe,
	0xe6, 0x02, 0x3a, 0x40, 0x7c, 0x26, 0x08, 0xbf, 0x74, 0x42, 0xb2, 0xbf,
	0x64, 0x06, 0x08, 0xbf, 0x47, 0x9e, 0xdd, 0x3f, 0x44, 0xda, 0x91, 0xbd,
	0x51, 0xf3, 0x15, 0x3c, 0x86, 0x13, 0x88, 0xbe, 0xbc, 0x1a, 0x9f, 0xbe,
	0xd9, 0x20, 0x54, 0x3e, 0xcb, 0x8b, 0xb9, 0x3e, 0x56, 0x9c, 0xc3, 0xbf,
	0x82, 0x91, 0x03, 0xbe, 0x7a, 0x07, 0x3f, 0x3e, 0x8e, 0x15, 0x91, 0x3f,
	0xb8, 0x7b, 0x72, 0x3f, 0x9a, 0x90, 0x78, 0xbf, 0x85, 0xc4, 0x04, 0x3f,
	0x2e, 0x8c, 0x3e, 0x3f, 0x85, 0xd4, 0xd6, 0x3e, 0x25, 0xea, 0xdd, 0xbd,
	0x50, 0x96, 0xb7, 0xbe, 0x73, 0x83, 0xa7, 0x3e, 0x50, 0x55, 0x3a, 0x3c,
	0xa3, 0xf0, 0x14, 0xbf, 0x55, 0xd3, 0xdc, 0x3c, 0x5f, 0x74, 0xd5, 0xbe,
	0x1d, 0x9e, 0x3b, 0xbf, 0x66, 0x38, 0x9e, 0xbe, 0xc9, 0xa8, 0x20, 0x3f,
	0x18, 0x8b, 0x5d, 0xbf, 0x88, 0xd4, 0x80, 0xbf, 0x47, 0x2b, 0x09, 0xbf,
	0x99, 0x90, 0x28, 0x40, 0xc5, 0xd3, 0x04, 0xbd, 0xa4, 0xea, 0x73, 0x3e,
	0x77, 0x25, 0xdb, 0x3e, 0x2a, 0xf3, 0x96, 0xbd, 0x51, 0x55, 0x03, 0x3f,
	0xda, 0x56, 0x31, 0xbe, 0xf5, 0x30, 0xca, 0xbd, 0x58, 0xb9, 0xa2, 0xbf,
	0x0b, 0xd3, 0x68, 0x3f, 0x2c, 0xe0, 0xa1, 0x3d, 0x60, 0xb9, 0x8c, 0x3d,
	0xc7, 0xd9, 0x76, 0x3f, 0x45, 0x1a, 0xee, 0xbc, 0x3d, 0xe2, 0x03, 0xbe,
	0x71, 0xbc, 0x04, 0x40, 0x20, 0xf9, 0x49, 0x3e, 0xac, 0xf8, 0x27, 0x3f,
	0x3c, 0x2d, 0x6b, 0x3f, 0x58, 0xc1, 0x19, 0xbd, 0x4f, 0xea, 0xd1, 0xbb,
	0x55, 0xbb, 0xc0, 0x3d, 0xd6, 0xd1, 0x1f, 0x3f, 0x39, 0x11, 0x04, 0x3f,
	0x34, 0x46, 0xa8, 0x3f, 0x58, 0x44, 0x2a, 0x3f, 0x61, 0x27, 0x8d, 0x3e,
	0xaa, 0x31, 0x50, 0xbf, 0x38, 0x24, 0x09, 0x3e, 0xf9, 0xd3, 0x9e, 0x3e,
	0x8c, 0x0a, 0xb8, 0x3e, 0x80, 0xfd, 0x2b, 0xbf, 0x39, 0x43, 0x7f, 0xbf,
	0xad, 0x67, 0x8d, 0xbf, 0x58, 0x46, 0x03, 0xbe, 0xcf, 0x3f, 0x9d, 0xbd,
	0x6d, 0x99, 0xd1, 0x3c, 0xaa, 0x4d, 0xc8, 0xbe, 0x0a, 0x32, 0xdc, 0xbe,
	0xe3, 0x78, 0x94, 0x3c, 0xa7, 0x6a, 0xac, 0xbe, 0x18, 0xc3, 0x82, 0x3f,
	0x97, 0xc5, 0x23, 0x40, 0x7e, 0xbd, 0x42, 0xbc, 0xe8, 0x61, 0x0f, 0x3e,
	0x9c, 0xe1, 0xdb, 0xbf, 0xe3, 0x96, 0x9d, 0xbd, 0xca, 0x27, 0x86, 0xbe,
	0x4a, 0x2d, 0xfb, 0xbe, 0x6f, 0xbc, 0x33, 0xbf, 0xfb, 0xc5, 0xd9, 0xbc,
	0xfc, 0x6c, 0x87, 0xbe, 0x16, 0x9f, 0x33, 0xc0, 0x83, 0x36, 0x5c, 0x3e,
	0xda, 0x79, 0x8a, 0xbe, 0x3b, 0x25, 0x98, 0x3e, 0x1e, 0x87, 0x7c, 0x3e,
	0x23, 0x54, 0x84, 0x40, 0x67, 0x30, 0x2b, 0x3f, 0xe4, 0x22, 0xe1, 0x3d,
	0x66, 0x19, 0x1c, 0x3e, 0xb8, 0x8e, 0xf5, 0x3f, 0xf5, 0x87, 0x0f, 0xbc,
	0x91, 0x2a, 0x65, 0x3d, 0x87, 0x1c, 0x04, 0x3e, 0xf9, 0xf1, 0x21, 0x3e,
	0xde, 0x6d, 0xec, 0x3d, 0x6d, 0x19, 0xf3, 0xbd, 0xb2, 0x07, 0xaf, 0x3d,
	0xba, 0x08, 0xf3, 0x3e, 0x2d, 0x8a, 0xa9, 0xbc, 0xd9, 0xb6, 0x63, 0x3f,
	0x92, 0x22, 0x57, 0xc0, 0xbb, 0x56, 0xda, 0xbd, 0xc5, 0xb6, 0x99, 0x3e,
	0xb2, 0x58, 0x26, 0xc0, 0x24, 0xf6, 0x2f, 0xbe, 0xdc, 0xc8, 0x3b, 0x3e,
	0x6c, 0x39, 0x4e, 0xbe, 0xa4, 0x18, 0x92, 0x3e, 0x53, 0xd6, 0x92, 0xbd,
	0xcf, 0x83, 0x66, 0xbe, 0x86, 0x71, 0x0f, 0xbf, 0x1d, 0xc7, 0x69, 0xbf,
	0x62, 0xc6, 0x03, 0xbf, 0xbb, 0x35, 0xe9, 0xbe, 0x0f, 0xc3, 0x6e, 0x3f,
	0x1f, 0x4e, 0xea, 0x3e, 0xb4, 0xc9, 0x5b, 0xbf, 0x7e, 0xd9, 0x87, 0xbe,
	0xc2, 0x5b, 0x64, 0x3f, 0x1b, 0xd6, 0x19, 0x3e, 0xf6, 0x1d, 0xe8, 0xbe,
	0xb6, 0x2e, 0x96, 0x3e, 0xe8, 0x89, 0xf7, 0xbe, 0x1f, 0x1f, 0xbd, 0xbe,
	0xf9, 0xd6, 0x45, 0xbf, 0x73, 0x9e, 0x01, 0xbf, 0x8a, 0xe0, 0x38, 0x3f,
	0x42, 0xa2, 0xaa, 0xbf, 0xac, 0x6f, 0x22, 0x3e, 0x49, 0xc3, 0xbc, 0xbe,
	0x2d, 0x55, 0x25, 0x3f, 0xd0, 0x4c, 0xcd, 0xbd, 0xe5, 0xbf, 0x27, 0xbe,
	0xc3, 0x18, 0x22, 0x3f, 0xb1, 0xac, 0x4e, 0xbf, 0xe7, 0x03, 0x36, 0xbf,
	0x9b, 0x0a, 0x0d, 0x3e, 0xe4, 0x5a, 0xc8, 0x3d, 0x15, 0x19, 0x42, 0x3e,
	0x4d, 0xed, 0x42, 0x3f, 0x58, 0x3a, 0x6e, 0xbb, 0x11, 0x0a, 0xdf, 0xbd,
	0x44, 0x0f, 0xa6, 0x3e, 0x93, 0x8d, 0xc3, 0xbf, 0xbb, 0xe6, 0xf6, 0x3e,
	0x0d, 0xb1, 0x9b, 0xc0, 0x38, 0xe2, 0xaa, 0xbe, 0xd3, 0xfb, 0x88, 0xbf,
	0x2b, 0xe1, 0x9d, 0xbf, 0x06, 0x8a, 0x60, 0xbf, 0x5c, 0xff, 0xb5, 0x3e,
	0x5b, 0x16, 0x45, 0xbe, 0x62, 0x1b, 0x01, 0x3c, 0x90, 0x06, 0x83, 0x3e,
	0x8a, 0x5e, 0x57, 0xbd, 0xe3, 0xd6, 0xa2, 0x3e, 0xc0, 0x06, 0x4c, 0xbd,
	0xdc, 0xdd, 0x29, 0xbe, 0xc7, 0xab, 0x5b, 0xbf, 0xdc, 0xbe, 0xba, 0xbf,
	0xd9, 0xff, 0x74, 0xc0, 0x74, 0x14, 0x95, 0x3e, 0x3c, 0xb6, 0x64, 0xbf,
	0xcc, 0xdc, 0x4b, 0x40, 0xf9, 0x3f, 0xbf, 0xbe, 0x0e, 0xef, 0x9a, 0x3e,
	0x5e, 0xb4, 0x15, 0x3b, 0xa0, 0xd7, 0x5c, 0x3e, 0x2f, 0x7a, 0xe1, 0x3e,
	0x60, 0xba, 0x9f, 0xbd, 0x88, 0x2c, 0x2b, 0xc0, 0x26, 0xdd, 0x7b, 0xbf,
	0x1b, 0x1f, 0xc2, 0xbe, 0xe8, 0xa8, 0xc3, 0xbf, 0xa5, 0x08, 0x32, 0x3f,
	0xdd, 0xc4, 0x0a, 0x3f, 0xa7, 0x05, 0xbf, 0xbf, 0x98, 0xdf, 0x90, 0xbf,
	0xc3, 0x3e, 0x12, 0x3f, 0xe3, 0x6f, 0x06, 0xbf, 0x6c, 0xb6, 0x68, 0x3d,
	0x6e, 0x00, 0x8a, 0x3e, 0x1c, 0x26, 0x14, 0xbe, 0x58, 0x01, 0xf0, 0x3e,
	0xcb, 0x2d, 0x5e, 0xbe, 0xac, 0x8a, 0xf5, 0xbf, 0xa7, 0xe7, 0x44, 0xbe,
	0x1b, 0xf2, 0x5c, 0x3f, 0x3a, 0x00, 0x6d, 0x3d, 0x1b, 0x33, 0xcb, 0x3e,
	0x16, 0xa1, 0x6b, 0x3f, 0xf6, 0x00, 0xdf, 0x3e, 0x69, 0xee, 0x93, 0x3e,
	0xc1, 0x6f, 0xaf, 0xbe, 0x15, 0x55, 0x06, 0x3f, 0xdf, 0x2b, 0xa2, 0xbc,
	0x1c, 0x1c, 0xea, 0xbe, 0xaf, 0x0c, 0x21, 0x3c, 0xcb, 0x45, 0x55, 0x3c,
	0xe0, 0x12, 0xa2, 0xba, 0x62, 0x2f, 0xf0, 0xbe, 0x9d, 0x2a, 0x43, 0xbf,
	0x2e, 0x11, 0x8d, 0xbf, 0x62, 0xe7, 0xf8, 0xbd, 0x96, 0x91, 0x38, 0x3d,
	0x5a, 0x19, 0xac, 0x3e, 0xc7, 0xee, 0x80, 0xbe, 0x04, 0x8f, 0x48, 0xbf,
	0xfd, 0xf6, 0x1a, 0x3f, 0x2b, 0x56, 0x74, 0xbe, 0xa6, 0x07, 0xe5, 0x3d,
	0x0b, 0x7b, 0x43, 0x3e, 0x50, 0x67, 0xb0, 0x3e, 0xf5, 0x23, 0xc2, 0x3c,
	0xac, 0x41, 0x37, 0x3e, 0x20, 0xb4, 0xf3, 0xbd, 0x1d, 0xa8, 0x20, 0xbd,
	0xcf, 0x7a, 0x05, 0xbe, 0xdb, 0xab, 0xee, 0x3e, 0x0e, 0x4f, 0x86, 0x3f,
	0xfa, 0xb0, 0x7f, 0xbf, 0x40, 0x82, 0x9d, 0xbf, 0x04, 0xc0, 0x88, 0x3e,
	0x64, 0x0d, 0x93, 0x40, 0x66, 0x3c, 0x6e, 0xbc, 0xce, 0xab, 0xc8, 0x3e,
	0x20, 0xfa, 0x6d, 0x3e, 0x7d, 0x69, 0xd3, 0xbd, 0x9a, 0x62, 0x08, 0xbf,
	0x18, 0xe9, 0xa6, 0xbe, 0xf4, 0xcd, 0x29, 0x3e, 0x04, 0xba, 0xf2, 0xbe,
	0xe8, 0x3f, 0x45, 0x3d, 0xc8, 0x8a, 0x2a, 0x3c, 0xf8, 0x63, 0x07, 0x3f,
	0x7c, 0xfa, 0x2d, 0x3f, 0x79, 0xff, 0x9c, 0xbe, 0x02, 0x5b, 0xa9, 0xbe,
	0x15, 0xbf, 0xa5, 0x3e, 0xd1, 0x68, 0xbc, 0x3e, 0xb8, 0xb4, 0x66, 0x3e,
	0x49, 0x6c, 0x75, 0x3f, 0x5a, 0x5c, 0x15, 0x3d, 0x9d, 0x00, 0x0d, 0xbe,
	0x76, 0x89, 0x9f, 0xbf, 0xa4, 0x8e, 0x70, 0x3e, 0xd2, 0x0f, 0x23, 0xc0,
	0xf7, 0xa5, 0xe1, 0x3d, 0x86, 0xb7, 0x24, 0xbf, 0x3c, 0xe8, 0xf4, 0xbe,
	0x0b, 0xd7, 0x84, 0x3e, 0x9c, 0xa3, 0xed, 0x3e, 0x93, 0x26, 0x65, 0x3f,
	0xd2, 0x1d, 0x90, 0x40, 0x3c, 0x01, 0x22, 0xbe, 0xa5, 0xf7, 0xc9, 0x3f,
	0x7d, 0xf2, 0x3d, 0xbc, 0x63, 0x49, 0x08, 0xbf, 0x3e, 0xe8, 0xf1, 0x3d,
	0x07, 0x27, 0x81, 0x3e, 0xd2, 0xc8, 0x23, 0xbe, 0xb2, 0xfa, 0x48, 0xbf,
	0x01, 0x6e, 0xa8, 0x3e, 0xfc, 0x1b, 0x8a, 0xbf, 0xe3, 0x00, 0x65, 0xbf,
	0x54, 0xcd, 0xde, 0x3f, 0xde, 0xae, 0x95, 0x3f, 0xd3, 0xab, 0x03, 0x3f,
	0x4f, 0x91, 0x1f, 0x40, 0x40, 0xed, 0x04, 0x3f, 0x6c, 0x74, 0xc5, 0x3e,
	0x50, 0x6d, 0xd6, 0xbe, 0xc8, 0x85, 0x0e, 0x3f, 0xa8, 0x60, 0x05, 0x3d,
	0xfe, 0x14, 0x83, 0x3e, 0x7f, 0xfb, 0x92, 0x3d, 0x78, 0xa6, 0x7f, 0x3e,
	0x7e, 0xce, 0x49, 0xbe, 0xd3, 0x31, 0x15, 0x3f, 0xba, 0xc0, 0x78, 0x3f,
	0x94, 0x2c, 0xc1, 0xbf, 0x2b, 0x3f, 0x3f, 0xbf, 0xa8, 0xab, 0x29, 0x3f,
	0xc0, 0x9b, 0x99, 0xbf, 0x92, 0xc1, 0xf6, 0xbe, 0x30, 0x74, 0xe8, 0xbe,
	0x24, 0x04, 0xa3, 0x3d, 0xb4, 0xb0, 0x81, 0x3e, 0x86, 0x2c, 0xe9, 0x3d,
	0x8b, 0xd6, 0x28, 0xbf, 0x5c, 0xd5, 0xe7, 0x3e, 0x4d, 0x9d, 0x05, 0xbf,
	0xb1, 0x1a, 0x52, 0xbe, 0x19, 0x88, 0x97, 0xbe, 0xac, 0x2d, 0x90, 0xbf,
	0x6e, 0x94, 0x16, 0xc0, 0x8c, 0x4f, 0x32, 0x3f, 0x12, 0xcf, 0x20, 0xbf,
	0xa8, 0xcd, 0x4c, 0x40, 0x5f, 0x1c, 0x8e, 0xbf, 0xa8, 0xa5, 0x58, 0x3e,
	0x86, 0x15, 0x15, 0x3d, 0x84, 0xee, 0x27, 0xbe, 0x62, 0xb2, 0x45, 0x3d,
	0x46, 0x93, 0x07, 0x3f, 0x41, 0xa1, 0x3b, 0xbf, 0x8d, 0x7e, 0xe6, 0xbe,
	0x96, 0xbb, 0xba, 0xbe, 0x2e, 0x7c, 0x96, 0xbe, 0xc1, 0x22, 0x99, 0xbe,
	0xa5, 0x57, 0x87, 0x3e, 0x3b, 0xc1, 0x4e, 0x3e, 0x26, 0x49, 0x25, 0xbe,
	0x05, 0xf5, 0x46, 0x3e, 0x3e, 0x0c, 0xc1, 0x3e, 0x7e, 0x6f, 0x33, 0x3e,
	0x10, 0x84, 0xce, 0x3e, 0x60, 0x2c, 0x9c, 0xbe, 0x2e, 0xd5, 0xba, 0xbe,
	0xc1, 0x40, 0x0b, 0xbf, 0xbc, 0xd5, 0x5b, 0xbf, 0x47, 0xc2, 0xac, 0xbf,
	0xe4, 0xc3, 0x9c, 0xbe, 0x4a, 0xb5, 0x0f, 0xbf, 0x4b, 0x39, 0x61, 0x3f,
	0x33, 0xbf, 0x89, 0x3f, 0xad, 0xbf, 0xaf, 0x3d, 0xc2, 0x53, 0x43, 0xbe,
	0x56, 0xb2, 0x31, 0x40, 0xa0, 0x25, 0x4c, 0x3f, 0x24, 0xb7, 0xd3, 0x3e,
	0xb9, 0xc9, 0x1d, 0x3e, 0x7b, 0x92, 0xf8, 0x3e, 0x2d, 0x48, 0xa6, 0xbe,
	0x8e, 0x90, 0x1e, 0xbe, 0x35, 0x7c, 0xb5, 0xbd, 0x2c, 0xd2, 0xd2, 0xbd,
	0xa2, 0x60, 0xd2, 0xbe, 0x92, 0x11, 0xb2, 0xbf, 0x2a, 0xc5, 0x02, 0x3f,
	0x62, 0x83, 0xc0, 0x3f, 0x2f, 0xf1, 0xf2, 0xbe, 0x0f, 0x08, 0x84, 0xbf,
	0xfa, 0x3e, 0x8a, 0x40, 0x40, 0xe3, 0x01, 0x3d, 0x05, 0x39, 0x06, 0x3d,
	0xaf, 0xa0, 0x85, 0xbe, 0x23, 0x44, 0x95, 0x3e, 0xa5, 0x93, 0xd2, 0xbd,
	0xce, 0xcb, 0xef, 0x3c, 0x45, 0xd7, 0x0f, 0xbf, 0xf0, 0x40, 0xd9, 0xbe,
	0xe5, 0xbf, 0x92, 0xbe, 0xee, 0xb1, 0xb4, 0xbe, 0x91, 0x3a, 0x1c, 0xbe,
	0x46, 0xb0, 0x2f, 0xbf, 0xae, 0xdc, 0xd7, 0x3e, 0x93, 0x06, 0xce, 0xbe,
	0xd2, 0xa2, 0x98, 0x3e, 0x0e, 0x2f, 0xed, 0x3d, 0x6d, 0xb8, 0xc0, 0x3e,
	0xf3, 0xc0, 0xb9, 0xbf, 0xfe, 0x98, 0x75, 0xbf, 0x00, 0xbc, 0xaa, 0xbe,
	0x36, 0x14, 0x87, 0xbd, 0xda, 0xdc, 0x6b, 0xbf, 0x75, 0xf8, 0xf7, 0x3e,
	0xad, 0xd5, 0x7f, 0xbf, 0xe5, 0x84, 0x89, 0xbf, 0xb5, 0x2e, 0x33, 0x3f,
	0xc0, 0x1b, 0x12, 0x3f, 0x11, 0xb6, 0x00, 0xbf, 0x2b, 0xb1, 0x3a, 0xbf,
	0xbd, 0xb1, 0x20, 0xc0, 0xaf, 0xe4, 0xf2, 0xbe, 0x84, 0xec, 0xe3, 0x3d,
	0x34, 0xa1, 0x82, 0x3f, 0x10, 0x2f, 0x4f, 0xbe, 0x5c, 0x3c, 0x2f, 0xbe,
	0xf8, 0xa3, 0xa4, 0xbe, 0xb7, 0xb1, 0xb8, 0xbb, 0x76, 0x76, 0x2c, 0xbf,
	0x80, 0x94, 0x7c, 0xbd, 0xee, 0x72, 0xa3, 0xbe, 0xe9, 0x5e, 0x59, 0x3f,
	0x90, 0x55, 0x82, 0x40, 0xb2, 0xed, 0x84, 0xbf, 0xf6, 0x3a, 0x70, 0xbf,
	0x3f, 0x0a, 0x4b, 0x3f, 0x5b, 0x4f, 0xb2, 0x3e, 0xc3, 0x72, 0xba, 0x3d,
	0xc7, 0xfd, 0x33, 0x3c, 0xaa, 0xc5, 0x03, 0xbc, 0xb3, 0x19, 0xa4, 0xbe,
	0x80, 0xdd, 0xad, 0xbe, 0x56, 0xa8, 0x03, 0xbe, 0x5c, 0xc9, 0x4a, 0xbd,
	0xaa, 0x11, 0xbd, 0x3e, 0x01, 0x71, 0x70, 0x3b, 0x38, 0xcf, 0xc4, 0x3e,
	0xd1, 0x03, 0xce, 0x3f, 0x68, 0x10, 0x18, 0x3e, 0xa4, 0xbd, 0x7a, 0x3e,
	0x6e, 0x6b, 0x48, 0xc0, 0x15, 0xb3, 0x5b, 0x3e, 0x2c, 0xb4, 0x15, 0x3e,
	0x19, 0xda, 0x97, 0xbf, 0x6d, 0xdb, 0x8a, 0x3d, 0xbe, 0xf6, 0x76, 0x3e,
	0xe6, 0xa6, 0x12, 0xbe, 0x6a, 0x0e, 0xfb, 0xbd, 0xe9, 0xe0, 0x0d, 0xbe,
	0xc7, 0x18, 0x06, 0xbf, 0x7a, 0x90, 0xa6, 0x3d, 0x4d, 0xf2, 0xbf, 0x3e,
	0x78, 0xc2, 0xae, 0x3d, 0xe8, 0x56, 0xf0, 0xbb, 0x4c, 0xfb, 0x7b, 0x3e,
	0xb5, 0x84, 0x99, 0x3f, 0x0b, 0x91, 0xc5, 0xbd, 0x7e, 0xa5, 0x81, 0x3d,
	0x79, 0x3d, 0x04, 0x40, 0x94, 0xd2, 0x69, 0x3e, 0x7c, 0x66, 0x05, 0xbd,
	0x74, 0x79, 0x0e, 0x3e, 0xbc, 0x0a, 0xab, 0x3d, 0xaf, 0x58, 0xb3, 0xbf,
	0x45, 0xf8, 0x8d, 0xbe, 0x8e, 0x6c, 0x49, 0xbe, 0xf4, 0x4a, 0x04, 0x3d,
	0xe9, 0xe1, 0xe0, 0xbf, 0xc6, 0x61, 0xfe, 0xbe, 0xcd, 0x21, 0xe3, 0xbd,
	0xad, 0xb6, 0xe6, 0x3f, 0x9a, 0xb0, 0xe9, 0xbe, 0xf7, 0x0f, 0xb9, 0x3e,
	0x73, 0xbe, 0x9f, 0x3e, 0xa4, 0xf4, 0xcc, 0x3d, 0xc0, 0x20, 0x51, 0xbe,
	0xaf, 0x1e, 0x07, 0x3f, 0x81, 0xf9, 0x0c, 0xbf, 0x96, 0xbc, 0x67, 0x3c,
	0xa9, 0xeb, 0xa7, 0xbf, 0x2a, 0x86, 0x42, 0x3e, 0x2b, 0x28, 0x59, 0xbf,
	0x74, 0xaa, 0xa4, 0xbf, 0xf4, 0x8c, 0xca, 0x3e, 0xb7, 0x9a, 0x4d, 0x3e,
	0x23, 0xcd, 0x16, 0xc0, 0x9f, 0xbb, 0x1e, 0xbf, 0x09, 0x1c, 0x11, 0xbf,
	0xb3, 0x58, 0x51, 0x3e, 0xb1, 0x22, 0x06, 0x3d, 0x99, 0xf2, 0x40, 0xbf,
	0xd7, 0x7d, 0x84, 0x3f, 0xba, 0x7a, 0x77, 0xbe, 0xf3, 0x10, 0x05, 0xc0,
	0xb2, 0x47, 0x38, 0x3e, 0xbf, 0x80, 0x8f, 0xbf, 0x4b, 0x0d, 0xa6, 0x3e,
	0x82, 0xc2, 0x85, 0xbf, 0xb4, 0x9c, 0x54, 0xbe, 0xfc, 0x6b, 0xba, 0xbe,
	0xb9, 0x18, 0x98, 0x40, 0xff, 0x13, 0xe2, 0x3d, 0x48, 0x49, 0x9c, 0x3f,
	0xc2, 0x77, 0x17, 0xbe, 0xdd, 0x8d, 0x78, 0x3e, 0xea, 0x57, 0x75, 0x3d,
	0x70, 0x35, 0x8f, 0xbd, 0xd0, 0x2a, 0x6a, 0xbe, 0x9b, 0x96, 0xd2, 0x3d,
	0xc1, 0xf9, 0x10, 0x3f, 0xa8, 0x89, 0xa7, 0x3e, 0x5b, 0x75, 0x51, 0x3e,
	0xdd, 0x35, 0xf6, 0x3f, 0x03, 0xbc, 0xb0, 0x3e, 0x5f, 0xd0, 0x1f, 0xbe,
	0x98, 0x7f, 0x01, 0xc0, 0x64, 0x3a, 0x0b, 0x3e, 0x56, 0x5c, 0xc9, 0xbe,
	0x82, 0x45, 0x28, 0x3f, 0xb8, 0xc7, 0x91, 0x3e, 0xeb, 0xa5, 0x35, 0x3c,
	0x8b, 0x0c, 0xfc, 0x3c, 0xec, 0xd4, 0x45, 0xbf, 0x27, 0x1c, 0x87, 0xbf,
	0x09, 0x7b, 0x08, 0xbf, 0x3b, 0x27, 0xb4, 0xbd, 0x34, 0x87, 0x03, 0x3e,
	0xdd, 0x67, 0x01, 0x40, 0xfc, 0x38, 0xf7, 0xbd, 0x5c, 0x81, 0xb8, 0xbd,
	0x2e, 0x03, 0x1a, 0x40, 0xc1, 0x9b, 0xba, 0x3e, 0x90, 0x9d, 0xb9, 0x3e,
	0xd3, 0x03, 0x4a, 0x3f, 0xe4, 0x56, 0x10, 0xbf, 0x29, 0xf2, 0x20, 0xbe,
	0x39, 0x16, 0x1e, 0xbf, 0x04, 0xc8, 0x8b, 0xbf, 0xed, 0x38, 0x9a, 0xbe,
	0xb7, 0xb0, 0xb7, 0xbf, 0x11, 0x33, 0x74, 0xbe, 0x39, 0x61, 0x0d, 0x3e,
	0xda, 0xe8, 0x42, 0xbf, 0x83, 0xe7, 0x19, 0xbc, 0x06, 0x5f, 0x2a, 0xbf,
	0x65, 0xd0, 0x77, 0xbe, 0xbc, 0xcf, 0x16, 0xbf, 0x22, 0xd7, 0x8c, 0xbe,
	0x87, 0x4b, 0x78, 0x3e, 0x3e, 0xc0, 0xee, 0x3d, 0xf4, 0xd6, 0xf4, 0xbd,
	0xf9, 0x28, 0xea, 0x3e, 0x10, 0x5c, 0x06, 0xbd, 0xd5, 0xc9, 0x9e, 0x3e,
	0x4f, 0x6e, 0xce, 0xbe, 0x37, 0x52, 0x9c, 0xbe, 0x5f, 0x81, 0x84, 0xbf,
	0xde, 0x5e, 0x7e, 0x3f, 0x59, 0xc0, 0xf4, 0x3e, 0x3d, 0xf1, 0x0d, 0xbf,
	0x2b, 0x51, 0xca, 0xbf, 0xca, 0xd0, 0xc2, 0xbe, 0x5b, 0x05, 0x23, 0xbf,
	0x91, 0x50, 0x15, 0xbf, 0x77, 0x3e, 0xb1, 0xbe, 0xc1, 0x0f, 0x4b, 0xbe,
	0x1e, 0x60, 0xab, 0x3e, 0xbf, 0xe6, 0x3d, 0xc0, 0x78, 0xc6, 0xa3, 0xbe,
	0x7c, 0x75, 0x55, 0xbe, 0xe4, 0x52, 0xd4, 0x3e, 0x01, 0xa0, 0x56, 0xbc,
	0x0a, 0x0c, 0x0d, 0x40, 0xa4, 0x73, 0x2d, 0x3d, 0xf5, 0xe2, 0x29, 0xbc,
	0x8b, 0xc2, 0x8e, 0x3d, 0x73, 0xad, 0x95, 0x3f, 0x8d, 0x3d, 0x5b, 0x3e,
	0x13, 0xe1, 0x21, 0x3f, 0xd8, 0x5e, 0x40, 0x3d, 0x1d, 0xcb, 0xd8, 0x3e,
	0xfb, 0x7f, 0xa4, 0x3e, 0x3b, 0x9b, 0x76, 0x3f, 0x35, 0xcc, 0x9f, 0x3f,
	0x0b, 0x8e, 0xca, 0xbf, 0xfe, 0x33, 0x74, 0x3f, 0x2d, 0xe4, 0x01, 0xbf,
	0x7d, 0xc4, 0x30, 0x3f, 0xfc, 0x3b, 0xa1, 0xbe, 0x94, 0xb7, 0x90, 0x3e,
	0xaf, 0x3c, 0x17, 0x3f, 0xfd, 0x2f, 0x87, 0xbd, 0xd9, 0x62, 0x7f, 0x3e,
	0xa4, 0xfd, 0xed, 0x3f, 0xe4, 0x6c, 0x2a, 0x3e, 0x8c, 0x73, 0xd5, 0xbb,
	0xff, 0x64, 0x1b, 0x3e, 0x2c, 0x30, 0xa0, 0x3d, 0x37, 0x25, 0x31, 0xbf,
	0x48, 0x0a, 0xa6, 0x3f, 0x84, 0x29, 0x01, 0xbf, 0x95, 0xe3, 0xdc, 0xbe,
	0x32, 0x7a, 0xe0, 0x3e, 0xbc, 0xf0, 0xfc, 0xbe, 0x95, 0x6a, 0x5c, 0x3d,
	0xbe, 0xd6, 0x0e, 0x40, 0xe1, 0x79, 0x15, 0x3e, 0xb9, 0x7a, 0x49, 0x3f,
	0xe3, 0x72, 0x3e, 0x3f, 0xf3, 0x52, 0x0a, 0xbe, 0x27, 0x27, 0x2c, 0x3d,
	0xbe, 0xfe, 0x85, 0x3d, 0x0e, 0x5c, 0xab, 0x3d, 0x9a, 0x40, 0x85, 0xc0,
	0x0f, 0x1e, 0xa0, 0xbe, 0x94, 0x4b, 0xe3, 0x3e, 0xfa, 0x66, 0x5a, 0x3e,
	0xa1, 0x28, 0x41, 0xbf, 0x16, 0x5c, 0x35, 0x3e, 0xdc, 0x55, 0x34, 0x3e,
	0x25, 0xcb, 0x1a, 0x40, 0x52, 0xe3, 0x2f, 0xbe, 0xe2, 0xe3, 0xca, 0x3f,
	0x76, 0x07, 0xd5, 0xbd, 0xad, 0x4f, 0x84, 0xbe, 0x3c, 0xd4, 0x12, 0xbd,
	0x59, 0x0c, 0xc8, 0xbc, 0x05, 0x36, 0x5a, 0xbe, 0x8f, 0xbd, 0xb9, 0x3e,
	0xfa, 0x3b, 0x54, 0x3d, 0xe9, 0x2e, 0x08, 0xbe, 0x3b, 0x4e, 0xce, 0xbf,
	0x6b, 0xa7, 0x70, 0xbf, 0x31, 0x9a, 0x88, 0x3f, 0xa2, 0x29, 0x66, 0xbe,
	0x9f, 0x84, 0x89, 0xc0, 0x4f, 0x1f, 0x03, 0x3d, 0x7a, 0xe7, 0x3a, 0xbf,
	0x58, 0x0b, 0xbc, 0x3e, 0x10, 0x54, 0x28, 0x3c, 0xc8, 0xb1, 0x06, 0xbf,
	0x95, 0xac, 0x77, 0x3e, 0x21, 0xd5, 0x05, 0x3d, 0x03, 0xca, 0x26, 0x3d,
	0x21, 0x0b, 0xc7, 0xbd, 0xe5, 0xef, 0xb7, 0xbe, 0xbe, 0x04, 0x70, 0x3f,
	0xb8, 0x10, 0x86, 0xc0, 0x5a, 0xef, 0x6c, 0xbe, 0x58, 0x60, 0x55, 0xbe,
	0x6c, 0xbe, 0x38, 0x40, 0xb8, 0x84, 0xc6, 0xbe, 0xe4, 0x08, 0xb9, 0x3e,
	0x76, 0x95, 0x04, 0x3f, 0x80, 0x2c, 0x2f, 0x3f, 0x64, 0xcd, 0x0a, 0x3d,
	0x45, 0x56, 0x54, 0x3e, 0xb3, 0x90, 0x20, 0x3f, 0xf9, 0x41, 0x9a, 0x3d,
	0x16, 0x23, 0x41, 0x3d, 0x47, 0xce, 0xd2, 0x3e, 0xcc, 0x33, 0x80, 0xbe,
	0x4d, 0x5d, 0xaa, 0xc0, 0xe3, 0x46, 0x05, 0x3f, 0x27, 0x49, 0x26, 0x3f,
	0x2e, 0x7a, 0xfc, 0x3e, 0x34, 0xe3, 0x86, 0xbf, 0x59, 0x09, 0x48, 0x3e,
	0x69, 0xae, 0xb3, 0x3e, 0x2d, 0xc2, 0x3b, 0xbe, 0x76, 0xc7, 0x88, 0xbf,
	0xa8, 0x6c, 0x82, 0x3e, 0x10, 0xae, 0x06, 0xbf, 0x82, 0xb9, 0x70, 0xbf,
	0xd5, 0xd8, 0xae, 0x3e, 0x72, 0x99, 0xdb, 0x3e, 0x70, 0x25, 0x11, 0xbe,
	0xd5, 0xd2, 0x90, 0xbe, 0xa7, 0xa4, 0xd7, 0x3d, 0x24, 0x88, 0x8f, 0x3e,
	0xb6, 0xda, 0x6a, 0xbe, 0xe7, 0x49, 0x98, 0xbe, 0xae, 0xf9, 0x3d, 0x3e,
	0x78, 0x03, 0xe9, 0x3d, 0x2e, 0xce, 0x54, 0x3e, 0xd6, 0x20, 0xa1, 0xbd,
	0xc8, 0x9d, 0xa8, 0x3d, 0x1f, 0x1b, 0xab, 0xbe, 0x6f, 0xb7, 0x08, 0xc0,
	0x31, 0xbf, 0x11, 0xbf, 0x8b, 0xa1, 0x40, 0xbf, 0x64, 0xd0, 0xc4, 0xbd,
	0xf2, 0x29, 0xc5, 0x3f, 0x8b, 0x8e, 0x19, 0x3e, 0xae, 0x91, 0x41, 0xbf,
	0x81, 0xc0, 0x9d, 0x3f, 0xae, 0xdc, 0x62, 0x3d, 0x84, 0xd9, 0x14, 0x3f,
	0xad, 0x4f, 0xa9, 0x3e, 0x51, 0x26, 0x41, 0x3e, 0x93, 0x7b, 0x05, 0xbd,
	0xd1, 0x42, 0xf7, 0xbd, 0xb4, 0xdf, 0x2a, 0x3e, 0xeb, 0xd5, 0x13, 0x3f,
	0x51, 0x3d, 0x51, 0x3e, 0xfe, 0x2b, 0x75, 0xbf, 0x6d, 0x94, 0x5a, 0xbe,
	0xee, 0x6c, 0x2f, 0xc0, 0x42, 0x12, 0x88, 0x3e, 0xc3, 0x1f, 0x42, 0xbf,
	0x5e, 0x37, 0xa6, 0xc0, 0x25, 0x7f, 0x7a, 0xbe, 0xa1, 0x0b, 0x16, 0xbf,
	0x32, 0x09, 0x70, 0x3d, 0xa7, 0x01, 0xf2, 0xbe, 0x5d, 0x1d, 0x60, 0xbe,
	0x47, 0x33, 0x95, 0x3e, 0xe8, 0xfc, 0x7c, 0x3e, 0x9b, 0xac, 0x94, 0x3e,
	0x54, 0x0f, 0x4a, 0xbc, 0x56, 0x8c, 0x71, 0x3e, 0xc8, 0xf7, 0x38, 0xbf,
	0xda, 0x7a, 0x51, 0xbf, 0x5c, 0xc9, 0x63, 0x3e, 0x84, 0x9d, 0x13, 0x3f,
	0x08, 0x7a, 0xa3, 0xc0, 0x6a, 0xb7, 0xff, 0xbe, 0x2e, 0x18, 0xb2, 0xbe,
	0x50, 0xca, 0x91, 0xbe, 0x0a, 0x42, 0xfa, 0x3e, 0x3f, 0x06, 0x0f, 0xbf,
	0xee, 0xda, 0x92, 0x3e, 0xc4, 0x8a, 0x07, 0xbe, 0x60, 0x3a, 0xaf, 0x3f,
	0xe3, 0x0a, 0x80, 0xbf, 0xcf, 0xfa, 0x06, 0x3f, 0xc8, 0xef, 0xaa, 0x3e,
	0x1d, 0x90, 0xab, 0x3f, 0x55, 0xc8, 0x0d, 0x3f, 0xa4, 0x22, 0x72, 0x3e,
	0x95, 0x78, 0x02, 0x3f, 0x27, 0xb7, 0xa4, 0x3e, 0x84, 0x7c, 0xa6, 0x3e,
	0x2b, 0x5c, 0xa4, 0x3f, 0x13, 0xdd, 0x1d, 0x3e, 0xa6, 0x6a, 0x9b, 0x3c,
	0x31, 0x91, 0x8a, 0x3e, 0x5a, 0xdc, 0xff, 0xff, 0x04, 0x00, 0x00, 0x00,
	0x00, 0x20, 0x00, 0x00, 0x2a, 0x5d, 0xbb, 0xbc, 0x36, 0x0b, 0xb8, 0xbe,
	0x8a, 0xbc, 0x74, 0xbe, 0x15, 0xff, 0xf5, 0xbe, 0x2e, 0x8e, 0x25, 0xbf,
	0x04, 0x84, 0xc2, 0x3d, 0xd5, 0x3c, 0x29, 0xbf, 0x59, 0x50, 0xe3, 0x3d,
	0x3d, 0x0f, 0x8c, 0xbc, 0x3b, 0x97, 0xd7, 0xbe, 0xad, 0xee, 0x02, 0xbe,
	0x60, 0x29, 0xc5, 0xbd, 0xee, 0x00, 0x2b, 0xbe, 0x3e, 0x21, 0x0a, 0xbe,
	0xce, 0x11, 0xe5, 0xbe, 0xd2, 0xb4, 0x1d, 0xbe, 0x13, 0x0e, 0xac, 0xbe,
	0x50, 0xb5, 0x73, 0x3e, 0x8a, 0x5a, 0x2e, 0xbe, 0x2f, 0x4e, 0x76, 0xbd,
	0x89, 0xea, 0x80, 0x3e, 0x3a, 0x62, 0xc8, 0xbe, 0x44, 0xca, 0x5a, 0xbe,
	0xc6, 0xe7, 0xf9, 0xbd, 0x21, 0x8b, 0x41, 0x3e, 0x89, 0x1e, 0x6e, 0xbe,
	0x27, 0x25, 0x0e, 0xbf, 0x3c, 0xc4, 0xdc, 0xbe, 0xa9, 0x3c, 0x36, 0x3e,
	0x2f, 0x2f, 0x74, 0xbe, 0x69, 0x6c, 0xa9, 0xbe, 0x17, 0x59, 0x8a, 0xbc,
	0x81, 0x6d, 0x02, 0xbf, 0x50, 0x8e, 0xc7, 0x3d, 0x6d, 0x1f, 0xcc, 0x3d,
	0x36, 0x3b, 0xac, 0xbe, 0x5a, 0x8b, 0x5b, 0x3d, 0x9c, 0xc3, 0x3f, 0x3d,
	0xb6, 0x55, 0xd0, 0xbe, 0x43, 0x7d, 0x24, 0x3d, 0x41, 0x62, 0x52, 0xbe,
	0x60, 0x71, 0xbc, 0x3d, 0x6b, 0x0c, 0xae, 0xbe, 0x27, 0xbd, 0xf0, 0xbe,
	0xc4, 0xaf, 0x72, 0xbe, 0x24, 0xe6, 0x30, 0xbf, 0x5a, 0xa5, 0xb9, 0xbe,
	0xdc, 0xdd, 0x9c, 0xbe, 0xc3, 0x7a, 0x24, 0xbe, 0x1d, 0xfe, 0x91, 0x3d,
	0x65, 0x86, 0x5a, 0xbe, 0xdc, 0xb8, 0x2c, 0xbe, 0xe1, 0xf3, 0x14, 0xbf,
	0xa6, 0x0a, 0xc5, 0x3e, 0x30, 0x3e, 0x72, 0x3c, 0x62, 0xe3, 0x00, 0xbe,
	0x67, 0xbc, 0x5b, 0xbf, 0x97, 0x6d, 0x9e, 0xbe, 0xb2, 0xbc, 0xe4, 0xbe,
	0x45, 0x64, 0xa3, 0x3e, 0xbe, 0x2f, 0x59, 0x3d, 0x8d, 0x32, 0xe9, 0xbd,
	0x03, 0x49, 0xcb, 0xbe, 0xc4, 0x82, 0xc0, 0xbe, 0x41, 0xa5, 0x0a, 0x3e,
	0xca, 0x42, 0xf0, 0x3c, 0x0a, 0xd4, 0x52, 0xbe, 0xbf, 0x57, 0x1a, 0x3d,
	0x1e, 0x94, 0x5d, 0xbe, 0x30, 0x7a, 0x3c, 0x3d, 0xbf, 0x07, 0x85, 0xbe,
	0x02, 0x65, 0x06, 0xbd, 0x76, 0xea, 0xf8, 0xbe, 0xca, 0x05, 0x57, 0x3c,
	0xc4, 0xa8, 0x4a, 0xbd, 0x84, 0x1b, 0x97, 0xbc, 0x90, 0x71, 0x41, 0xbe,
	0xf7, 0xe4, 0xc2, 0xbe, 0x84, 0x14, 0x18, 0xbe, 0x85, 0x62, 0x8c, 0xbe,
	0xd2, 0xf1, 0xa4, 0x3b, 0xeb, 0x1b, 0xda, 0xbe, 0x05, 0x9c, 0x6f, 0xbe,
	0x32, 0x57, 0x00, 0xbe, 0xdc, 0x53, 0xa8, 0xbd, 0x37, 0x59, 0xef, 0xbd,
	0xe5, 0x0d, 0x91, 0xbd, 0x9d, 0xcc, 0x85, 0x3d, 0xb3, 0x01, 0x93, 0xbc,
	0xff, 0x1c, 0x5d, 0xbe, 0x9e, 0x49, 0xd4, 0xbd, 0x7e, 0x12, 0x41, 0xbd,
	0x98, 0x11, 0xe3, 0xbd, 0x8e, 0x57, 0x56, 0xbe, 0xa9, 0x94, 0x5f, 0xbe,
	0xe2, 0x04, 0xa9, 0xbc, 0xf5, 0x1b, 0xf5, 0x3c, 0x0c, 0xfb, 0x0f, 0xbe,
	0x92, 0x14, 0x43, 0xbe, 0xcb, 0xcd, 0x44, 0xbc, 0x2a, 0x45, 0xf1, 0xbc,
	0x40, 0x19, 0x07, 0xbd, 0xed, 0x9d, 0x48, 0x3c, 0xbf, 0xd6, 0xc8, 0xbd,
	0x40, 0xc6, 0xf5, 0xbd, 0x69, 0x51, 0x44, 0xbe, 0xcf, 0xdf, 0xc7, 0xbd,
	0xde, 0x7f, 0x7e, 0xbe, 0x28, 0x4e, 0x2e, 0xbe, 0xac, 0x7c, 0xc1, 0xbe,
	0x45, 0x9f, 0xa5, 0xbd, 0xa2, 0xab, 0x1b, 0xbe, 0x68, 0xf6, 0xf6, 0xbe,
	0xb1, 0x06, 0x85, 0xbd, 0x68, 0x82, 0x81, 0xbe, 0x5f, 0x2b, 0xab, 0x3c,
	0x37, 0x3b, 0x6b, 0xbe, 0x14, 0xc4, 0xb9, 0xbe, 0x88, 0xb3, 0x54, 0x3d,
	0xd9, 0x2f, 0x8c, 0x3c, 0x1b, 0x0f, 0x7a, 0xbe, 0x81, 0x5c, 0xd5, 0xbd,
	0x60, 0x7b, 0x6f, 0xbe, 0xaf, 0x70, 0xab, 0xbd, 0x68, 0x94, 0x46, 0xbd,
	0x5b, 0xd3, 0x4e, 0x3d, 0x40, 0x6b, 0xc2, 0xbe, 0x6c, 0xdd, 0x73, 0x3d,
	0x40, 0x2b, 0x1c, 0xbf, 0x6b, 0x9f, 0x74, 0xbf, 0xa1, 0xca, 0x0b, 0xbf,
	0xdf, 0x10, 0x04, 0xbd, 0x55, 0x87, 0x51, 0x3e, 0x4c, 0xc7, 0xde, 0xbe,
	0x48, 0xfa, 0x62, 0xbf, 0xd0, 0xbc, 0x98, 0xbf, 0x57, 0xf3, 0x22, 0xbf,
	0xf3, 0x1c, 0x82, 0xbf, 0xd0, 0xe0, 0x78, 0xbf, 0xba, 0x44, 0xd0, 0xbe,
	0x31, 0x1a, 0x18, 0xbf, 0x8e, 0xf8, 0x7d, 0xbe, 0xe2, 0x61, 0x15, 0xbf,
	0xf0, 0x16, 0xbb, 0xbe, 0x0b, 0xe8, 0xfe, 0xbe, 0x1e, 0xd2, 0x07, 0xbf,
	0x30, 0x0c, 0x02, 0xbf, 0x9f, 0x03, 0x53, 0xbf, 0xb9, 0x1e, 0xf4, 0xbe,
	0xcf, 0x7e, 0xec, 0x3e, 0x62, 0x31, 0xf1, 0xbe, 0x7e, 0x5c, 0x4c, 0xbf,
	0x60, 0xd5, 0xaf, 0xbe, 0x1e, 0x31, 0xc4, 0xbe, 0xdb, 0x96, 0x0c, 0xbf,
	0xa4, 0x6c, 0x74, 0xbf, 0x8d, 0x00, 0x69, 0x3e, 0xc8, 0x20, 0x15, 0xbe,
	0x6a, 0xee, 0x63, 0x3e, 0x6f, 0xe4, 0x91, 0xbe, 0x5c, 0x99, 0xa0, 0x3d,
	0xbf, 0xfb, 0x32, 0xbf, 0x86, 0x09, 0xf1, 0x3e, 0xed, 0x10, 0xc6, 0xbd,
	0xd3, 0x48, 0xe9, 0xbe, 0xd3, 0x41, 0x26, 0xbf, 0x78, 0x8a, 0x6c, 0xbf,
	0x9d, 0xcb, 0x03, 0xbe, 0x51, 0x77, 0x7e, 0xbe, 0xe5, 0xb7, 0xc9, 0x3e,
	0x37, 0x3d, 0x7d, 0xbf, 0xac, 0x31, 0x03, 0xbf, 0x7b, 0x88, 0xba, 0xbe,
	0xee, 0xab, 0xed, 0xbe, 0x46, 0xdf, 0xe8, 0x3e, 0xf9, 0x6f, 0x1d, 0xbf,
	0x1d, 0x5f, 0xcb, 0x3e, 0xd6, 0x4a, 0x79, 0xbf, 0xd7, 0xca, 0x41, 0x3d,
	0x35, 0x8f, 0x70, 0xbf, 0x3d, 0xfb, 0x62, 0xbf, 0x0a, 0xb5, 0x05, 0xbf,
	0x54, 0xc5, 0x38, 0x3e, 0xe1, 0x4a, 0x3d, 0xbe, 0x9e, 0x45, 0x51, 0xbd,
	0x13, 0x24, 0xce, 0x3e, 0x93, 0x2d, 0xe1, 0xbd, 0xbb, 0xfe, 0xdd, 0xbf,
	0xb5, 0x22, 0x3f, 0xbf, 0x62, 0x1b, 0x95, 0xbd, 0x20, 0x0e, 0x94, 0xbf,
	0x3a, 0x58, 0x6f, 0xbe, 0x2b, 0xec, 0x81, 0xbe, 0x30, 0x90, 0x96, 0xbf,
	0x77, 0x8d, 0xc6, 0xbd, 0xbd, 0xa2, 0x84, 0xbf, 0x22, 0x1f, 0x93, 0xbc,
	0xda, 0xcb, 0xae, 0xbf, 0x7d, 0xe9, 0xa0, 0xbf, 0x15, 0x11, 0x19, 0xbf,
	0xc8, 0x36, 0x29, 0xbf, 0x3a, 0x5b, 0x41, 0xbe, 0x00, 0x28, 0x33, 0x3e,
	0xba, 0xcd, 0xb4, 0xbe, 0x7c, 0xeb, 0x3d, 0xc0, 0x84, 0x6e, 0x95, 0xbf,
	0x81, 0xe9, 0x08, 0xbf, 0x6e, 0x9d, 0x0f, 0xbf, 0xe0, 0x09, 0x78, 0xbf,
	0x49, 0xd8, 0x8a, 0xbe, 0xc7, 0xd9, 0xe4, 0xbe, 0x46, 0xa5, 0xf8, 0xbe,
	0xb1, 0x94, 0x60, 0xbe, 0x8d, 0x76, 0x00, 0xbe, 0xe1, 0x53, 0x0a, 0xc0,
	0x47, 0x32, 0xb0, 0xbe, 0x19, 0xeb, 0x0a, 0xc0, 0xb7, 0xf1, 0x92, 0xbd,
	0x5c, 0xf9, 0xb0, 0xbf, 0xd7, 0xc5, 0x66, 0xbf, 0xa7, 0xf8, 0xe1, 0xbe,
	0xc4, 0x39, 0x98, 0xbe, 0xad, 0xd6, 0x78, 0x3e, 0xc9, 0x27, 0x3f, 0xbf,
	0x29, 0x82, 0x71, 0xbf, 0x45, 0x9d, 0xd8, 0xbf, 0x57, 0x57, 0x8d, 0xbf,
	0xb7, 0x66, 0x50, 0x3e, 0x2d, 0xa7, 0xfd, 0xbe, 0x7a, 0x39, 0x74, 0xbf,
	0x9e, 0x80, 0x13, 0xbf, 0xef, 0x50, 0x74, 0xbe, 0x58, 0x29, 0x09, 0xbf,
	0x0e, 0x20, 0x2d, 0xbf, 0xa8, 0x63, 0x9c, 0xbf, 0x8b, 0x62, 0x99, 0xbf,
	0x13, 0x27, 0x25, 0x3d, 0x0e, 0xef, 0x4f, 0x3f, 0x58, 0x10, 0xd7, 0x3e,
	0x05, 0x59, 0xbc, 0xbf, 0x25, 0x9f, 0x86, 0xbe, 0x6e, 0xb1, 0xff, 0xbf,
	0x8d, 0x34, 0x9d, 0x3e, 0x37, 0xc7, 0x2d, 0xbf, 0xa9, 0x48, 0xfc, 0xbe,
	0xff, 0xd1, 0x1b, 0xbf, 0x51, 0x2e, 0xce, 0x3e, 0x26, 0x54, 0xdc, 0xbd,
	0x50, 0xba, 0xd4, 0x3d, 0x13, 0x26, 0x38, 0x3e, 0xe9, 0x05, 0x07, 0x3f,
	0xae, 0x20, 0x09, 0xbd, 0xfb, 0x22, 0x27, 0xbe, 0xb4, 0xbe, 0xe3, 0xbf,
	0xaf, 0x65, 0x7a, 0x3d, 0xe6, 0xb2, 0x9d, 0xbf, 0x26, 0x35, 0x3e, 0xbf,
	0x88, 0x62, 0x61, 0x3e, 0xb5, 0x1c, 0xe4, 0xbd, 0x09, 0xa7, 0x60, 0xbd,
	0x03, 0x58, 0xd2, 0x3e, 0xfb, 0x5c, 0xdf, 0xbd, 0x2e, 0x48, 0x96, 0xbe,
	0xac, 0x83, 0x45, 0x3e, 0x93, 0xac, 0xe8, 0x3d, 0x52, 0x4b, 0x0d, 0xc0,
	0x07, 0x54, 0x23, 0xbf, 0x39, 0x39, 0xeb, 0xbd, 0x9f, 0xd1, 0x5a, 0xbf,
	0x45, 0xfd, 0x3a, 0xbd, 0xd8, 0x88, 0x69, 0xbf, 0x5d, 0x4b, 0xe3, 0xbe,
	0x09, 0xa0, 0xeb, 0x3e, 0x27, 0x55, 0x1e, 0xbf, 0x7b, 0x2b, 0x6d, 0xbf,
	0x11, 0xad, 0x8c, 0x3e, 0x8e, 0xed, 0xac, 0xbe, 0x5c, 0xaf, 0x9a, 0xbe,
	0xdf, 0x54, 0x16, 0xc0, 0xb2, 0x3d, 0x54, 0x3e, 0xc4, 0xd9, 0x6f, 0x3e,
	0x40, 0xd0, 0x3e, 0xbf, 0xab, 0xac, 0x31, 0xbf, 0xab, 0xde, 0xaf, 0xbd,
	0x44, 0x07, 0x9a, 0xbe, 0xec, 0xcd, 0x9a, 0xbe, 0x2e, 0xa9, 0x07, 0x3f,
	0x8b, 0xc7, 0xb7, 0xbd, 0xf6, 0xe3, 0x6a, 0x3e, 0x72, 0xc6, 0xb9, 0xbe,
	0xe7, 0xb2, 0x02, 0xbf, 0xa7, 0x31, 0x08, 0xbb, 0xb4, 0xe1, 0x44, 0x3e,
	0x6e, 0x8b, 0xaa, 0x3e, 0xe0, 0xb3, 0x0e, 0x3e, 0xbf, 0x81, 0xa9, 0x3e,
	0x4d, 0x40, 0x11, 0xbe, 0x07, 0xd0, 0x28, 0x3f, 0xc0, 0xcd, 0xad, 0xbe,
	0x77, 0xf5, 0x0d, 0xc0, 0x53, 0xe8, 0x61, 0x3f, 0xbf, 0x2a, 0x04, 0xbd,
	0x40, 0x1a, 0xc5, 0xbe, 0x52, 0xd3, 0xc3, 0xbf, 0xeb, 0x37, 0x61, 0xbe,
	0x14, 0xcb, 0x3d, 0x3e, 0xf6, 0xc8, 0xa1, 0x3e, 0x94, 0xb5, 0x31, 0xbe,
	0xf7, 0x4b, 0xf6, 0xbd, 0x3d, 0x93, 0x28, 0x3f, 0x64, 0x07, 0x9f, 0xbe,
	0xda, 0xc3, 0x55, 0xbf, 0xbc, 0x21, 0xdd, 0x3e, 0x8b, 0x79, 0xab, 0x3e,
	0x2f, 0xd1, 0x99, 0x3d, 0x6f, 0x75, 0x67, 0xbd, 0xe5, 0x08, 0xae, 0xbf,
	0xad, 0x4c, 0x86, 0x3e, 0xba, 0xdb, 0x8d, 0xbe, 0xf8, 0xe7, 0x2f, 0xbf,
	0x69, 0xf5, 0xdb, 0xbd, 0x5f, 0x08, 0x0d, 0xbe, 0xd4, 0x7d, 0x45, 0xbe,
	0xdf, 0x9f, 0xc8, 0xbe, 0x5d, 0x0c, 0xed, 0xbe, 0xdb, 0x72, 0x26, 0xbe,
	0xfd, 0xed, 0xbd, 0x3c, 0x45, 0xb8, 0x8a, 0xbe, 0x99, 0x40, 0x86, 0xbc,
	0xf8, 0xab, 0x75, 0xbd, 0x39, 0x6b, 0xbd, 0xbe, 0xcd, 0x2b, 0x92, 0xbd,
	0x58, 0x07, 0x64, 0xbe, 0x92, 0x41, 0xec, 0xbe, 0x56, 0x3b, 0x08, 0xbd,
	0x5c, 0x5f, 0x9c, 0xbd, 0x6a, 0x85, 0x8d, 0xbb, 0x15, 0x08, 0xd2, 0xbe,
	0xd8, 0xf3, 0x63, 0xbd, 0xca, 0xf4, 0x95, 0xbe, 0xbd, 0xb9, 0x8a, 0xbd,
	0x9c, 0xf5, 0x47, 0x3e, 0xa8, 0xa2, 0x20, 0xbf, 0x1f, 0x78, 0x32, 0xbd,
	0x63, 0x06, 0x12, 0xbf, 0xca, 0xce, 0x1a, 0xbd, 0xe6, 0x0b, 0xaf, 0x3d,
	0x99, 0x8c, 0x2c, 0xbe, 0x3a, 0xff, 0x18, 0xbe, 0xfc, 0xf3, 0x24, 0xbe,
	0xd7, 0x8f, 0xc4, 0xbe, 0xf4, 0x84, 0x74, 0x3e, 0xa5, 0xb3, 0xad, 0xbe,
	0xe4, 0x00, 0x1d, 0xbf, 0xb4, 0xb8, 0xe1, 0x3d, 0x2b, 0x6a, 0xc4, 0xbe,
	0xe5, 0x74, 0x2d, 0x3e, 0xe5, 0x14, 0x0b, 0xbf, 0xc8, 0x55, 0x29, 0xbd,
	0x91, 0x19, 0x7c, 0xbd, 0x74, 0xc0, 0x68, 0xbe, 0x2d, 0x15, 0x49, 0xbe,
	0xa6, 0x88, 0xa1, 0xbe, 0xde, 0xda, 0xcc, 0xbe, 0x5a, 0x97, 0x31, 0x3d,
	0x73, 0x4a, 0xb2, 0x3d, 0x3f, 0xd7, 0x44, 0xbc, 0x17, 0xe0, 0x24, 0xbe,
	0xd2, 0xc2, 0x9f, 0xbe, 0x60, 0xd6, 0x83, 0x3d, 0x51, 0xc9, 0x9b, 0x3c,
	0x19, 0x6b, 0x82, 0xbe, 0x37, 0x6e, 0x51, 0x3d, 0xda, 0x47, 0x2c, 0xbe,
	0xc7, 0xc2, 0xa6, 0xbb, 0x10, 0x82, 0x27, 0xbe, 0xe0, 0x74, 0xa8, 0xbe,
	0x13, 0xe3, 0x9d, 0xbe, 0xd4, 0xc3, 0xfc, 0xbe, 0x3e, 0xb6, 0x55, 0xbe,
	0xfe, 0x2a, 0xf5, 0xbe, 0xdf, 0xfc, 0x0b, 0xbf, 0x14, 0xe8, 0x16, 0x3c,
	0x85, 0x63, 0xd6, 0xbb, 0xea, 0x65, 0x84, 0xbe, 0xf8, 0xd6, 0xc2, 0xbd,
	0xd7, 0xd9, 0xb6, 0xbe, 0x10, 0x2b, 0xf6, 0x3b, 0x2c, 0xdc, 0xeb, 0x3b,
	0xef, 0x2f, 0x1f, 0xbe, 0xbe, 0xc7, 0x62, 0xbe, 0xd2, 0xc3, 0x84, 0xbe,
	0x31, 0x44, 0xda, 0xbc, 0xcb, 0x10, 0x11, 0xbf, 0x6d, 0x0c, 0x9b, 0xbd,
	0xe2, 0xa4, 0xe1, 0x3d, 0x90, 0x63, 0x33, 0xbe, 0x81, 0x17, 0x36, 0xbd,
	0x0c, 0xdd, 0x9d, 0xbe, 0x5a, 0xb4, 0x2d, 0xbe, 0x87, 0xe7, 0x0c, 0xbe,
	0x53, 0x78, 0xbd, 0xbd, 0xf3, 0x49, 0x2c, 0x3d, 0x16, 0xf6, 0x8f, 0xbe,
	0xff, 0x11, 0x2e, 0xbe, 0xe5, 0x67, 0x1e, 0xbe, 0xc5, 0xc0, 0x31, 0xbd,
	0xd1, 0x67, 0xbb, 0xbe, 0x74, 0xad, 0x51, 0xbe, 0x52, 0x29, 0xd2, 0x3c,
	0x76, 0xee, 0x18, 0xbd, 0x88, 0xab, 0x69, 0xbe, 0x3c, 0x75, 0x36, 0x3d,
	0x93, 0x9a, 0x46, 0xbe, 0x45, 0x67, 0x96, 0xbe, 0x59, 0x3b, 0x1a, 0x3e,
	0x20, 0x17, 0x4d, 0xbe, 0x49, 0xaf, 0xa7, 0xbc, 0x81, 0x42, 0x1f, 0xbf,
	0x8a, 0x92, 0x44, 0xbe, 0x1c, 0xc6, 0x5c, 0x3e, 0x57, 0x1e, 0x65, 0xbd,
	0x68, 0xdb, 0x72, 0x3d, 0xde, 0xcc, 0x73, 0xbe, 0x77, 0x33, 0xde, 0xbc,
	0xbc, 0x9b, 0x16, 0xbe, 0xd4, 0x79, 0x16, 0xbd, 0x2f, 0xa1, 0xda, 0xbe,
	0x43, 0xf0, 0x9c, 0x3d, 0x29, 0xda, 0xd8, 0x3d, 0x27, 0xf4, 0x33, 0xbe,
	0xa2, 0x17, 0xa7, 0xbe, 0xf8, 0x84, 0x9c, 0xbe, 0xde, 0x23, 0x97, 0xbd,
	0xbd, 0x31, 0x93, 0xbd, 0x9b, 0xd4, 0x02, 0xbd, 0xc2, 0xd7, 0x17, 0xbe,
	0xea, 0xdd, 0x8e, 0xbe, 0xaa, 0x94, 0xaa, 0xbe, 0x81, 0x37, 0x0f, 0xbe,
	0xc2, 0x7d, 0x71, 0xbe, 0xf5, 0xcb, 0xb6, 0xbd, 0xfd, 0x19, 0x83, 0xbe,
	0x56, 0x3e, 0x96, 0x3d, 0xaa, 0x9e, 0x0e, 0x3e, 0x13, 0xeb, 0x2b, 0xbe,
	0x29, 0xc3, 0xb9, 0xbd, 0x04, 0x66, 0x3c, 0xbc, 0xe7, 0xa0, 0x31, 0xbe,
	0xad, 0x7d, 0x62, 0x3e, 0xe4, 0x95, 0x83, 0x3e, 0x6a, 0x59, 0xb4, 0xbe,
	0x8d, 0x5f, 0x9e, 0xbe, 0x79, 0xb0, 0xe2, 0xbd, 0x61, 0xb1, 0xb5, 0xbe,
	0x08, 0x27, 0x13, 0x3e, 0xa8, 0x98, 0x0c, 0xbf, 0x4e, 0xf0, 0x0b, 0xbf,
	0x22, 0x00, 0x38, 0xbe, 0x5c, 0x8f, 0x2e, 0xbf, 0x61, 0x41, 0x29, 0xbe,
	0xc4, 0x46, 0x17, 0xbf, 0x07, 0xaf, 0xfa, 0xbe, 0x1b, 0xd8, 0x67, 0xbf,
	0xbf, 0x07, 0x5a, 0xbf, 0xe7, 0x96, 0x82, 0xbe, 0x3e, 0x2b, 0x5c, 0xbd,
	0xc2, 0x83, 0xbe, 0xbe, 0x4b, 0x61, 0x86, 0xbf, 0x00, 0x95, 0x29, 0xbf,
	0x9d, 0xa4, 0x27, 0xbf, 0xec, 0x2e, 0x44, 0xbe, 0xc3, 0x17, 0x43, 0xbe,
	0x98, 0x2a, 0xd6, 0x3d, 0xd6, 0xd2, 0x6d, 0xbf, 0x14, 0x2b, 0x55, 0xbf,
	0x8f, 0x36, 0x81, 0xbe, 0xba, 0xc8, 0xae, 0xbe, 0x10, 0x26, 0xc7, 0xbe,
	0x52, 0x7d, 0x9e, 0x3d, 0xdf, 0x92, 0x9c, 0xbe, 0x95, 0x4f, 0xf8, 0x3d,
	0x49, 0xb4, 0xfe, 0xbe, 0x59, 0x74, 0xd3, 0xbd, 0x2a, 0x1a, 0xd4, 0x3c,
	0xd6, 0x4a, 0xdb, 0xbe, 0x55, 0x54, 0x50, 0x3d, 0x14, 0xde, 0x33, 0xbf,
	0x0d, 0x30, 0x80, 0xbe, 0x18, 0x2b, 0x4f, 0xbc, 0xba, 0xae, 0x20, 0x3d,
	0x83, 0x8b, 0xc9, 0xbd, 0x04, 0xe8, 0xc9, 0xbe, 0xec, 0x59, 0xe0, 0x3d,
	0xdc, 0x49, 0x2a, 0xbd, 0xb5, 0x95, 0xb3, 0xbe, 0x26, 0x01, 0x73, 0xbe,
	0xb4, 0xa9, 0x03, 0xbf, 0x01, 0x89, 0x4c, 0x3d, 0x98, 0x71, 0x01, 0xbe,
	0x97, 0x89, 0x66, 0xbe, 0x51, 0xc7, 0xc6, 0xbd, 0x06, 0x6e, 0xab, 0xbe,
	0xae, 0x24, 0xea, 0x3c, 0x7e, 0x42, 0x69, 0xbe, 0xf0, 0x25, 0xbb, 0xbd,
	0x71, 0x25, 0x0a, 0x3e, 0x5a, 0x9d, 0x00, 0xbf, 0xd4, 0x2f, 0x13, 0xbf,
	0xb4, 0x6a, 0xa0, 0xbe, 0xbc, 0xae, 0x78, 0xbe, 0x03, 0xb9, 0xdb, 0xbe,
	0xdd, 0x06, 0xe4, 0x3d, 0x2b, 0x06, 0x30, 0x3e, 0xb2, 0x10, 0x0d, 0xbe,
	0xe8, 0x4f, 0x4a, 0xbe, 0x1b, 0xdf, 0xaf, 0xbe, 0x4f, 0xcc, 0xad, 0xbe,
	0x4e, 0x3b, 0xfa, 0xbe, 0x41, 0xa8, 0xeb, 0xbe, 0x03, 0xd8, 0x62, 0x3e,
	0xa4, 0xf5, 0x52, 0x3d, 0xc7, 0xcd, 0x48, 0xbf, 0xf2, 0xa4, 0x04, 0xbf,
	0xe7, 0x97, 0xd6, 0x3d, 0x26, 0x11, 0xd0, 0xbc, 0xcb, 0xf1, 0x6a, 0x3e,
	0x46, 0xb1, 0x04, 0xbf, 0x7e, 0xf7, 0x0a, 0xbe, 0x7b, 0xab, 0x12, 0xbe,
	0x4b, 0xaf, 0xd6, 0xbd, 0x55, 0x10, 0x43, 0xbf, 0x93, 0xe0, 0x77, 0xbe,
	0xab, 0xa4, 0x81, 0x3e, 0x96, 0x6d, 0xa1, 0x3e, 0x51, 0xf2, 0x09, 0xbf,
	0x14, 0x48, 0x45, 0xbf, 0x29, 0x9e, 0xe6, 0xbe, 0x2c, 0x8f, 0x3a, 0xbf,
	0x9a, 0xd3, 0x36, 0x3d, 0x7e, 0xb5, 0x2d, 0xbf, 0x72, 0x48, 0xa1, 0xbe,
	0xe6, 0xed, 0x59, 0xbf, 0x54, 0xbf, 0x36, 0xbf, 0xca, 0xd0, 0x07, 0xbf,
	0x8c, 0x92, 0xdd, 0xbc, 0x03, 0x80, 0x9c, 0xbd, 0x95, 0xd8, 0xab, 0xbf,
	0xa3, 0xbb, 0x91, 0xbe, 0xa5, 0x2c, 0x1c, 0xbf, 0x44, 0xce, 0xa6, 0xbc,
	0xd1, 0xa4, 0x65, 0xbd, 0xfb, 0x14, 0xd4, 0xbe, 0x85, 0xa5, 0xef, 0xbd,
	0x2c, 0xdf, 0x99, 0x3c, 0x68, 0x65, 0xbc, 0x3e, 0x1e, 0x91, 0x8a, 0xbf,
	0x86, 0x13, 0x55, 0xbf, 0x20, 0x8b, 0xef, 0xbd, 0x30, 0x02, 0x81, 0xbe,
	0x0f, 0x23, 0xbd, 0xbe, 0xe6, 0x7c, 0xd2, 0xbb, 0xd7, 0x48, 0x1c, 0x3e,
	0xda, 0x2e, 0xc2, 0xbd, 0xc5, 0xe4, 0xf7, 0xbe, 0x70, 0x46, 0x33, 0xbf,
	0xb2, 0x62, 0x2e, 0xbe, 0xe1, 0x10, 0x17, 0xbf, 0xdd, 0x92, 0x93, 0xbf,
	0x96, 0x4e, 0xf3, 0xbe, 0x48, 0x04, 0x5c, 0xbf, 0xa5, 0x8c, 0x71, 0xbf,
	0x89, 0x3f, 0x16, 0xbf, 0x74, 0x0e, 0xca, 0xbe, 0x4d, 0xd5, 0x03, 0xbe,
	0xd7, 0x32, 0x3c, 0xbd, 0x48, 0x9b, 0x04, 0xbe, 0x90, 0x74, 0x83, 0x3e,
	0x68, 0x80, 0x14, 0x3f, 0xb1, 0x36, 0x0e, 0xbf, 0xba, 0x49, 0x87, 0x3e,
	0x8a, 0x67, 0xcb, 0xbf, 0x27, 0x8e, 0x1f, 0xbf, 0xce, 0xdb, 0xfa, 0x3e,
	0x7a, 0xf2, 0x3f, 0xbf, 0x8a, 0x1e, 0xcb, 0xbd, 0x92, 0x34, 0xbe, 0x3e,
	0x8c, 0x7b, 0xbc, 0xbf, 0x13, 0x29, 0x06, 0xc0, 0x94, 0xd5, 0x26, 0xbe,
	0xfd, 0x3f, 0xf0, 0xbe, 0x77, 0x03, 0x02, 0x3f, 0xcf, 0x46, 0x21, 0xbe,
	0xcd, 0xa6, 0x24, 0xbe, 0xcf, 0x69, 0xb7, 0xbf, 0x0b, 0x91, 0xb4, 0x3d,
	0xf2, 0x7b, 0xfa, 0xbe, 0x51, 0x52, 0x54, 0xbf, 0xe0, 0x30, 0x81, 0xbf,
	0x04, 0x4e, 0x00, 0xc0, 0x29, 0xfa, 0xb8, 0x3e, 0x0b, 0x64, 0x3d, 0xbf,
	0x38, 0x2e, 0x63, 0xbf, 0xe0, 0xd7, 0x05, 0x3e, 0x31, 0x5a, 0x78, 0xbd,
	0x37, 0xac, 0xda, 0xbe, 0xd8, 0xcb, 0x39, 0xbf, 0x25, 0xc3, 0x02, 0x3f,
	0x6b, 0x0e, 0x92, 0xba, 0x52, 0x61, 0x03, 0x3f, 0xf6, 0x76, 0x88, 0xbf,
	0x4b, 0xbd, 0xa9, 0xbf, 0xf0, 0xc0, 0x29, 0x3f, 0xc7, 0x76, 0xac, 0x3e,
	0xa2, 0x97, 0x1f, 0xbf, 0xd2, 0x8b, 0xc2, 0xbf, 0x98, 0x02, 0x85, 0x3d,
	0x70, 0x72, 0x33, 0xbf, 0x11, 0xad, 0xd7, 0x3e, 0x7a, 0xe6, 0x16, 0xbf,
	0x16, 0xeb, 0xbf, 0xbd, 0x75, 0x12, 0xee, 0xbd, 0x32, 0x79, 0x9b, 0x3e,
	0x2c, 0xbd, 0xe7, 0xbf, 0x4d, 0x98, 0x66, 0xbf, 0xa0, 0x3f, 0x3d, 0xbf,
	0x67, 0xb6, 0xa0, 0xbe, 0x60, 0xc9, 0x73, 0x3c, 0xf4, 0xff, 0x97, 0xbe,
	0x55, 0xd5, 0x3b, 0xbe, 0x91, 0x1a, 0x67, 0xbd, 0x1e, 0x3c, 0xde, 0x3e,
	0x67, 0x35, 0x74, 0x3e, 0xb2, 0x62, 0x24, 0xc0, 0x0c, 0xc2, 0x88, 0xbd,
	0x7d, 0xf9, 0xd5, 0xbf, 0x28, 0x18, 0xb6, 0xbd, 0x98, 0x31, 0x31, 0x3f,
	0xe7, 0xb0, 0xf1, 0xbf, 0xb5, 0x75, 0x1b, 0x3c, 0x85, 0x63, 0x85, 0xbe,
	0x31, 0xae, 0xc8, 0x3d, 0x36, 0xd2, 0x8b, 0xbe, 0x0f, 0xde, 0x66, 0xbe,
	0x96, 0x87, 0x13, 0xbf, 0x0e, 0x19, 0xd6, 0xbe, 0x77, 0x49, 0x6f, 0xbe,
	0xbe, 0x0c, 0xd7, 0xbd, 0xda, 0xa2, 0x2c, 0xbe, 0x07, 0xfc, 0xf8, 0x3d,
	0x4d, 0x74, 0x28, 0x3e, 0x90, 0x82, 0x98, 0xbe, 0xd4, 0x05, 0x00, 0xbe,
	0x02, 0x7a, 0x92, 0xbe, 0x14, 0x60, 0x06, 0xbe, 0x4c, 0x3e, 0x42, 0xbe,
	0x52, 0x2b, 0x60, 0xbe, 0x0f, 0xa3, 0xdb, 0xbd, 0x6b, 0xab, 0x76, 0xbe,
	0x0e, 0xdb, 0x89, 0xbe, 0x2a, 0x65, 0xe8, 0xbe, 0x37, 0x70, 0x86, 0xbe,
	0x16, 0x7e, 0x12, 0xbf, 0x56, 0x00, 0x99, 0xbe, 0x42, 0x64, 0x63, 0xbe,
	0xe1, 0x5e, 0x1f, 0xbc, 0x1e, 0x58, 0x19, 0xbe, 0x1e, 0x7e, 0xe1, 0x3d,
	0x62, 0xe5, 0xd6, 0xbd, 0xcf, 0x9e, 0xa9, 0xbd, 0x0f, 0xfc, 0x47, 0xbe,
	0xf8, 0xbd, 0x9f, 0xbc, 0x0e, 0x6a, 0x27, 0xbc, 0x24, 0x55, 0xf7, 0xbe,
	0xe9, 0x11, 0x15, 0xbe, 0x66, 0xc9, 0xe8, 0x3b, 0x90, 0x1e, 0xc4, 0xbe,
	0xc1, 0x35, 0xcd, 0x3d, 0xbc, 0x29, 0x8f, 0xbe, 0x84, 0x03, 0x09, 0xbe,
	0x31, 0x88, 0x81, 0xbe, 0xf3, 0xbd, 0xab, 0xbc, 0x8f, 0xed, 0x5b, 0xbe,
	0x7f, 0x89, 0xc5, 0xbe, 0x1f, 0x3c, 0x7a, 0xbe, 0x7a, 0x8f, 0xc6, 0xbe,
	0x29, 0x45, 0xbf, 0xbe, 0x0c, 0x82, 0xe5, 0xbd, 0x4a, 0x5a, 0x4c, 0xbe,
	0x52, 0x21, 0x20, 0xbe, 0x4d, 0xda, 0x99, 0xbd, 0xb3, 0x0f, 0xcf, 0xbd,
	0x97, 0x59, 0x05, 0xbe, 0xbb, 0x9d, 0x8b, 0xbe, 0xe9, 0x3a, 0x07, 0xbe,
	0xdb, 0x8b, 0xca, 0xbd, 0x85, 0xff, 0xf9, 0xbd, 0x6d, 0xbe, 0x87, 0xbd,
	0xab, 0x23, 0x5b, 0xbd, 0x58, 0xe7, 0x04, 0x3d, 0x8b, 0xa1, 0x7d, 0xbe,
	0xde, 0x27, 0x77, 0xbe, 0x18, 0x59, 0x2c, 0xbd, 0x1c, 0xbe, 0xf9, 0xbc,
	0x32, 0x81, 0xc0, 0xbc, 0x7d, 0x21, 0x86, 0xbd, 0xbe, 0x69, 0xd2, 0xbd,
	0x57, 0xa1, 0x76, 0x3c, 0x15, 0x62, 0x12, 0x3e, 0xd1, 0x42, 0x03, 0xbe,
	0xe9, 0x12, 0x51, 0x3c, 0xc9, 0x4c, 0xf9, 0x3c, 0x32, 0xfd, 0x0e, 0x3d,
	0x91, 0xa7, 0x08, 0xbf, 0x0d, 0x2d, 0x9c, 0xbd, 0xfa, 0x8f, 0xa5, 0xbd,
	0xb1, 0x64, 0x23, 0xbf, 0x47, 0x31, 0x60, 0xbe, 0xa3, 0x93, 0xbe, 0xbc,
	0xf4, 0xa1, 0xf8, 0xbb, 0x15, 0xd8, 0xe2, 0xbd, 0x0f, 0x22, 0x5b, 0x3d,
	0xfa, 0x27, 0x42, 0x3e, 0x08, 0x88, 0xf8, 0x3e, 0x18, 0x1b, 0xfe, 0xbd,
	0xb6, 0xca, 0x84, 0xbb, 0x6b, 0xb7, 0x0d, 0xbe, 0x99, 0xd7, 0x21, 0xbe,
	0x8b, 0x37, 0xbe, 0xbb, 0x9e, 0xf3, 0x1c, 0xbe, 0x6d, 0x36, 0x0c, 0xbe,
	0x1a, 0xde, 0xc9, 0xbd, 0xdf, 0xdb, 0x2a, 0xbd, 0xfc, 0x6b, 0xbb, 0x3e,
	0x94, 0xc5, 0x0d, 0x3e, 0xf0, 0x9e, 0xae, 0xbc, 0xb7, 0x4c, 0xa5, 0xbd,
	0x5b, 0xa3, 0x16, 0x3d, 0x0d, 0x4d, 0x4a, 0xbd, 0xf5, 0x03, 0x1c, 0xbd,
	0xa2, 0x4c, 0x01, 0x3d, 0x1e, 0x26, 0xa3, 0x3d, 0xba, 0xe8, 0x76, 0xbe,
	0x72, 0x3f, 0x2c, 0xbe, 0x56, 0x66, 0xf3, 0x3b, 0xa9, 0x28, 0x2b, 0xbe,
	0xb3, 0xd6, 0xdc, 0xbd, 0xe2, 0x9d, 0xe1, 0xbd, 0xfa, 0x83, 0xf5, 0xbc,
	0xe2, 0xd6, 0x64, 0xbe, 0xdb, 0x72, 0xb8, 0x3c, 0xa0, 0xc5, 0x43, 0xbe,
	0x5f, 0x67, 0x3e, 0xbe, 0x62, 0xb3, 0xb4, 0x3d, 0xf2, 0x90, 0x34, 0x3c,
	0x68, 0x8c, 0xf4, 0xbc, 0x98, 0x7d, 0xfc, 0x3d, 0xd8, 0x4f, 0x81, 0xbe,
	0xe5, 0x2c, 0xe5, 0xbe, 0xd2, 0xe4, 0xc5, 0xbe, 0x00, 0x30, 0xf8, 0xbd,
	0xa5, 0x2f, 0x55, 0xbc, 0xa6, 0x83, 0x1a, 0xbc, 0x10, 0x32, 0x50, 0x3e,
	0x9c, 0xcd, 0x8c, 0xbe, 0xe7, 0xfd, 0x8b, 0xbd, 0xae, 0x15, 0x6e, 0xbb,
	0x96, 0x4c, 0x92, 0x3e, 0xa7, 0xc7, 0xd0, 0xbe, 0x92, 0x8a, 0x2d, 0xbf,
	0x74, 0xd0, 0xee, 0xbe, 0x01, 0x4a, 0xd3, 0xbe, 0x5e, 0x2e, 0x07, 0xbf,
	0xe1, 0x71, 0x0d, 0xbf, 0x15, 0xcd, 0xcf, 0xbf, 0xbf, 0xd2, 0x61, 0xbe,
	0x50, 0x6c, 0x3b, 0xbe, 0x6a, 0x6f, 0x8f, 0x3d, 0x56, 0xeb, 0xec, 0xbe,
	0xb7, 0x9b, 0x63, 0xbf, 0xbf, 0xca, 0xee, 0xbe, 0x88, 0x95, 0x74, 0x3d,
	0xde, 0x10, 0xe6, 0x3c, 0x6c, 0x26, 0x86, 0xbf, 0xcb, 0xac, 0x68, 0xbe,
	0x50, 0x55, 0xa6, 0xbd, 0xd9, 0x63, 0x96, 0x3e, 0xea, 0x58, 0xee, 0xbe,
	0xaa, 0xae, 0x6e, 0x3d, 0xa7, 0x01, 0xba, 0xbe, 0xca, 0x74, 0x09, 0xbf,
	0x89, 0x88, 0x13, 0xbf, 0x6b, 0x49, 0x2e, 0xbf, 0xa2, 0xe4, 0x25, 0xbe,
	0xe6, 0xc8, 0x6f, 0x3e, 0x6a, 0x39, 0x21, 0x3d, 0x92, 0xf6, 0x9c, 0x3e,
	0x4f, 0xf4, 0x1c, 0xbf, 0xeb, 0x8f, 0x43, 0xbe, 0x91, 0x5f, 0x7a, 0xbf,
	0xf8, 0x79, 0x7a, 0xbe, 0x7f, 0x62, 0xbb, 0xbf, 0x73, 0x7e, 0x66, 0xbe,
	0x93, 0x67, 0x67, 0xbe, 0x63, 0x2b, 0xc6, 0xbf, 0xc1, 0x38, 0xc0, 0xbe,
	0x0b, 0xcd, 0x23, 0xbf, 0xad, 0x34, 0xc3, 0x3e, 0x69, 0xc9, 0xa0, 0xbe,
	0x0d, 0x5d, 0x0e, 0xbf, 0x1d, 0x49, 0xde, 0xbe, 0x08, 0x66, 0x33, 0xbf,
	0xab, 0x9c, 0xce, 0x3d, 0x6e, 0xab, 0x28, 0xbf, 0x93, 0x1c, 0x25, 0xbf,
	0x21, 0xcf, 0xdd, 0xbf, 0xad, 0xb0, 0xc8, 0xbe, 0x83, 0xd2, 0x85, 0xbf,
	0x91, 0x54, 0x9d, 0xbe, 0x09, 0xc0, 0x12, 0xbf, 0x8c, 0x65, 0x68, 0xbf,
	0xbd, 0xc6, 0x72, 0xbf, 0x8b, 0x16, 0x88, 0xbe, 0x26, 0x8d, 0x46, 0xbf,
	0x4a, 0xe7, 0x4c, 0x3e, 0xb5, 0xf1, 0x22, 0x3f, 0x17, 0xca, 0x4b, 0xbf,
	0x1f, 0x49, 0x05, 0xbf, 0x9f, 0x75, 0x8d, 0xbf, 0x55, 0x2b, 0x8b, 0xbd,
	0x6c, 0x9f, 0x27, 0xbe, 0xd8, 0x83, 0xf7, 0x3d, 0x5f, 0x28, 0xcc, 0xbf,
	0x97, 0xc4, 0x66, 0xbf, 0x84, 0xc4, 0xa4, 0x3e, 0xa1, 0x40, 0x70, 0x3c,
	0x03, 0x54, 0x45, 0xbf, 0xec, 0x01, 0x2e, 0xbf, 0x05, 0xc1, 0xee, 0x3d,
	0x7c, 0x9a, 0x31, 0xbf, 0x98, 0x3f, 0xaf, 0x3e, 0x92, 0x6e, 0x59, 0xbf,
	0xcf, 0x28, 0xdc, 0x3e, 0x08, 0x97, 0xaf, 0xbd, 0x49, 0xe4, 0xd7, 0x3e,
	0x7f, 0x2b, 0x60, 0xbf, 0xec, 0x51, 0x59, 0x3e, 0x85, 0xaf, 0x2b, 0xbf,
	0x0f, 0xde, 0xaa, 0xbe, 0xc4, 0x0c, 0xa5, 0xbf, 0x75, 0xdd, 0x8d, 0xbf,
	0x6d, 0x5a, 0x95, 0x3c, 0x8e, 0x1f, 0x67, 0x3d, 0x1a, 0x20, 0x5a, 0xbc,
	0x47, 0x90, 0xe1, 0x3e, 0x45, 0xd8, 0xa7, 0xbd, 0x74, 0x9a, 0x91, 0xbe,
	0x7d, 0xc1, 0xa1, 0x3e, 0x67, 0xd2, 0x28, 0x3f, 0x06, 0x95, 0x00, 0x3f,
	0xc0, 0x06, 0x1f, 0x3f, 0x3d, 0xad, 0x60, 0xbf, 0x2a, 0xa8, 0xf7, 0x3c,
	0xc8, 0x3a, 0xb4, 0xbf, 0x4e, 0xc3, 0x29, 0xbf, 0xec, 0x09, 0x9c, 0x3e,
	0x9d, 0x43, 0x3b, 0x3d, 0xdb, 0x43, 0x03, 0xbf, 0xf9, 0x41, 0x98, 0x3d,
	0xd1, 0xcc, 0x03, 0xbe, 0x58, 0xce, 0x03, 0xbf, 0xe5, 0xbf, 0x15, 0xbf,
	0x51, 0x6f, 0x15, 0x3e, 0xec, 0x2a, 0x8e, 0xbf, 0x73, 0xc5, 0x48, 0x3e,
	0xdc, 0x49, 0xdb, 0x3e, 0x6a, 0x68, 0x80, 0xbf, 0xbf, 0x58, 0xca, 0xbf,
	0x26, 0x54, 0x2d, 0xbe, 0xb5, 0x69, 0x85, 0x3e, 0xa5, 0x34, 0x2b, 0xbf,
	0xff, 0xbc, 0xb3, 0xbf, 0x88, 0xa1, 0x20, 0x3f, 0x59, 0xed, 0xb5, 0x3d,
	0x4d, 0x81, 0x70, 0xbf, 0x33, 0x46, 0x19, 0xbf, 0x0b, 0x85, 0x93, 0x3c,
	0xd7, 0x9e, 0x9b, 0xbe, 0x4b, 0x94, 0x26, 0xbf, 0x62, 0xc8, 0x9e, 0x3e,
	0x5c, 0xee, 0x28, 0xbf, 0x54, 0xbf, 0x52, 0xbf, 0x06, 0xa6, 0xbc, 0xbe,
	0x90, 0x20, 0x84, 0x3c, 0xf1, 0xd4, 0xb6, 0xbf, 0x77, 0xa0, 0x98, 0x3e,
	0x70, 0x6f, 0x08, 0x3f, 0x9e, 0xed, 0x82, 0xbf, 0x23, 0x88, 0xe1, 0xbe,
	0xd7, 0x8a, 0x5a, 0xbf, 0xd5, 0x57, 0x7d, 0xbf, 0x8d, 0xa4, 0x3c, 0x3f,
	0x82, 0x9e, 0x83, 0xbc, 0x1e, 0xed, 0x89, 0xbf, 0xc5, 0x2a, 0x7d, 0xbd,
	0x36, 0x7e, 0x07, 0xbd, 0x29, 0x3f, 0xd8, 0x3d, 0xe1, 0x12, 0xf0, 0x3d,
	0x70, 0xa8, 0x97, 0x3e, 0x6e, 0x62, 0xce, 0x3c, 0x5d, 0x23, 0x51, 0x3c,
	0xf6, 0x4d, 0xae, 0xbe, 0x2f, 0x5c, 0x17, 0xbf, 0x68, 0xc2, 0x67, 0xbf,
	0x27, 0xaf, 0xa9, 0xbf, 0xf9, 0x93, 0x52, 0xbd, 0xee, 0xd9, 0x2e, 0xbe,
	0x3b, 0x51, 0x77, 0x3e, 0x70, 0xa7, 0x24, 0x3f, 0xd4, 0x51, 0xc0, 0xbe,
	0xb5, 0x3a, 0xbd, 0xbb, 0x6c, 0x3e, 0x82, 0xbf, 0xf6, 0x30, 0x2e, 0xbf,
	0xfc, 0xb8, 0xa1, 0x3d, 0xa6, 0x9e, 0x38, 0xbf, 0xb5, 0xd6, 0x83, 0x3d,
	0xd9, 0x52, 0xfe, 0x3d, 0x0b, 0x19, 0xaa, 0xbf, 0xd6, 0x6a, 0xc6, 0xbc,
	0x10, 0x35, 0x9b, 0xbe, 0xa5, 0xc3, 0x32, 0x3f, 0xb2, 0x49, 0x51, 0xbf,
	0x39, 0xab, 0xc1, 0x3e, 0xb0, 0xe6, 0x9c, 0xbe, 0x46, 0x70, 0x2e, 0xbf,
	0x16, 0x4a, 0x90, 0x3f, 0x2f, 0x91, 0x47, 0xbd, 0x6b, 0xd4, 0xc8, 0xbe,
	0xf1, 0x62, 0x0b, 0xbf, 0xbd, 0xe3, 0xe8, 0xbe, 0xe5, 0x94, 0x58, 0x3e,
	0xc1, 0x37, 0x79, 0x3e, 0x9c, 0xef, 0x3e, 0xbf, 0x54, 0x96, 0x9e, 0x3f,
	0x83, 0xfe, 0x58, 0x3e, 0x9c, 0xcd, 0x06, 0xbf, 0xe1, 0x19, 0x06, 0xbf,
	0xdc, 0xd0, 0xfe, 0x3e, 0xff, 0xb1, 0x63, 0x3f, 0xff, 0xd8, 0x52, 0xbe,
	0x75, 0x68, 0x98, 0xbd, 0xdb, 0xc2, 0xf3, 0xbe, 0x1e, 0xda, 0x08, 0xbd,
	0x36, 0x43, 0xea, 0xbe, 0xf3, 0x46, 0x9c, 0xbf, 0x7a, 0x0e, 0x2d, 0xbe,
	0xe1, 0x65, 0x41, 0x3d, 0xdc, 0x82, 0x31, 0xc0, 0x94, 0xb2, 0x5a, 0x3e,
	0x45, 0x2b, 0x8a, 0xba, 0x73, 0xdd, 0x07, 0xbe, 0xfe, 0xb8, 0x3a, 0xbc,
	0x42, 0x88, 0x8c, 0x3e, 0x94, 0x64, 0x84, 0xbf, 0x98, 0xf9, 0x3c, 0xbe,
	0xa1, 0x31, 0x50, 0xbc, 0x1b, 0xab, 0x34, 0xbf, 0xc9, 0xcc, 0xa0, 0xbd,
	0xe6, 0x40, 0xf0, 0xbe, 0x00, 0x78, 0xd4, 0xbe, 0x8e, 0xaa, 0x92, 0xbe,
	0x83, 0xac, 0x61, 0xbf, 0x10, 0xfe, 0x32, 0xbe, 0x8b, 0x0c, 0xaa, 0xbe,
	0x7b, 0xba, 0x0c, 0xbf, 0xc4, 0x4f, 0x82, 0xbf, 0x2b, 0xce, 0x12, 0xbf,
	0xcd, 0x08, 0xc8, 0xbe, 0xbc, 0x2e, 0x21, 0xbf, 0x4f, 0x4c, 0xb6, 0xbe,
	0x75, 0x5e, 0x72, 0xbf, 0xaa, 0x45, 0x59, 0xbf, 0x53, 0xc1, 0x4a, 0xbe,
	0xec, 0x34, 0x68, 0xbf, 0xf1, 0x58, 0xb5, 0xbf, 0xfb, 0xa2, 0x6b, 0x3e,
	0x57, 0xbc, 0x1a, 0xbf, 0x51, 0x88, 0x71, 0xbe, 0xc0, 0x1a, 0xa2, 0xbe,
	0x01, 0xcc, 0xae, 0xbe, 0xfd, 0x7c, 0x39, 0xbf, 0xb8, 0x2a, 0xca, 0xbd,
	0x74, 0x2f, 0x0e, 0xbf, 0x36, 0xdf, 0xda, 0x3d, 0xb0, 0x7e, 0x30, 0xbf,
	0x1b, 0x1f, 0x39, 0xbf, 0x39, 0x12, 0xd7, 0xbe, 0x5d, 0x2b, 0x83, 0xbe,
	0x61, 0x82, 0x6a, 0xbe, 0x08, 0x4d, 0x50, 0xbf, 0x88, 0xbb, 0x30, 0xbf,
	0x5e, 0x3c, 0x6c, 0xbd, 0x26, 0x7f, 0xf9, 0xbd, 0x66, 0x8f, 0xb7, 0xbe,
	0x45, 0x31, 0x24, 0xbf, 0x80, 0x08, 0x44, 0xbe, 0xce, 0xe3, 0xfd, 0xbd,
	0x90, 0x61, 0x4c, 0xbe, 0xfc, 0xde, 0xb9, 0xbe, 0x2e, 0x3f, 0xec, 0xbe,
	0x94, 0x9a, 0x4c, 0x3d, 0x93, 0xc5, 0x7a, 0xbe, 0x38, 0x6e, 0x2a, 0xbf,
	0x28, 0xcf, 0xbb, 0xbe, 0x17, 0x1b, 0x22, 0xbe, 0x0a, 0xae, 0xad, 0xbd,
	0x03, 0xe9, 0xe4, 0xbe, 0x39, 0xdb, 0x64, 0x3e, 0xf6, 0xe3, 0x0c, 0xbf,
	0xaa, 0x62, 0x38, 0xbf, 0x6f, 0xc0, 0x40, 0xbf, 0x98, 0x4b, 0xe6, 0xbe,
	0xaf, 0xe0, 0xb7, 0xbe, 0x96, 0xdc, 0xe0, 0xbe, 0x92, 0x7c, 0x06, 0xbe,
	0xf1, 0xc8, 0x1f, 0x3f, 0xd2, 0xa4, 0x22, 0xbf, 0xed, 0x72, 0x4c, 0xbf,
	0xad, 0x87, 0x61, 0x3d, 0x95, 0xa5, 0xfb, 0xbe, 0x75, 0x54, 0xa9, 0x3e,
	0x72, 0x5d, 0x44, 0xbe, 0x76, 0x89, 0xf8, 0x3e, 0x0b, 0xf5, 0xc5, 0xbd,
	0x99, 0xbc, 0x53, 0xbf, 0xb0, 0xd3, 0x51, 0x3e, 0x38, 0xac, 0x8a, 0xbd,
	0xbf, 0xab, 0x0e, 0x3f, 0x2c, 0x79, 0x9a, 0xbe, 0xa6, 0xde, 0x27, 0x3e,
	0x35, 0x11, 0xb7, 0xbf, 0xdf, 0x88, 0x6e, 0x3e, 0x27, 0x6f, 0x27, 0xbf,
	0x5e, 0xd3, 0x40, 0x3c, 0xf6, 0x7f, 0x0f, 0xbd, 0x1d, 0x4a, 0x84, 0x3e,
	0x7b, 0x95, 0x02, 0x3f, 0xe1, 0x4f, 0x64, 0xbe, 0xb7, 0x84, 0xd3, 0x3e,
	0x78, 0x99, 0x58, 0xbe, 0x32, 0x82, 0x3a, 0x3e, 0x57, 0xad, 0x29, 0xbf,
	0x47, 0xdc, 0xce, 0xbf, 0x98, 0x7c, 0x51, 0x3e, 0xfd, 0x88, 0x5c, 0xbd,
	0xcb, 0x6e, 0x7d, 0xbd, 0xe3, 0xd3, 0x62, 0x3f, 0xcc, 0x51, 0xb9, 0x3d,
	0x7b, 0x12, 0x1b, 0x3f, 0x29, 0x13, 0xbc, 0x3e, 0xc9, 0xe0, 0x49, 0x3e,
	0x4b, 0x9b, 0x18, 0xbd, 0xc4, 0x52, 0x51, 0x3e, 0x1e, 0x78, 0x82, 0xbf,
	0x29, 0x3f, 0x08, 0xbe, 0x5d, 0xab, 0x88, 0xbf, 0x62, 0x27, 0xc3, 0x3e,
	0x83, 0xac, 0x9a, 0x3e, 0x4b, 0x5f, 0x9a, 0xba, 0x9b, 0xda, 0x94, 0xbe,
	0x28, 0xa7, 0x4c, 0xbf, 0x1e, 0xe5, 0x66, 0xbf, 0x94, 0x1d, 0x82, 0x3d,
	0x4b, 0xd6, 0xa1, 0xbd, 0x34, 0x0d, 0x51, 0x3d, 0x31, 0x46, 0x74, 0xbf,
	0x89, 0xc2, 0xaf, 0x3e, 0x70, 0x08, 0xfd, 0xbd, 0x24, 0xd6, 0x64, 0xbe,
	0x7e, 0x14, 0x4d, 0xbe, 0x45, 0x9c, 0xaf, 0xbf, 0xb8, 0x9c, 0x51, 0xbf,
	0xd1, 0x61, 0x98, 0xbf, 0xfb, 0x83, 0x37, 0xbe, 0x0f, 0x06, 0x87, 0x3e,
	0x57, 0xf3, 0x0a, 0x3f, 0x2b, 0xe0, 0xee, 0xbe, 0x11, 0x38, 0x5f, 0xbe,
	0x87, 0xf7, 0x1c, 0x3f, 0x7f, 0xb2, 0xec, 0xbe, 0x73, 0x9d, 0x09, 0xbf,
	0xa5, 0x24, 0x86, 0xbe, 0xec, 0x04, 0x15, 0x3e, 0x86, 0xd6, 0x81, 0xbe,
	0x33, 0xe5, 0xe4, 0xbe, 0x01, 0x59, 0xcd, 0xbe, 0x88, 0x92, 0x8c, 0xbd,
	0xf2, 0x7f, 0x08, 0xbe, 0xf6, 0x08, 0x29, 0x3e, 0x16, 0xc9, 0xcd, 0xbe,
	0x44, 0xfb, 0xe0, 0xbd, 0x99, 0x39, 0x09, 0xbe, 0x81, 0xb8, 0x93, 0xbe,
	0x5b, 0x91, 0x5d, 0xbe, 0x91, 0x65, 0x98, 0xbe, 0x20, 0x3b, 0x18, 0xbf,
	0xc4, 0x96, 0xad, 0xbe, 0x99, 0x14, 0xb1, 0xbe, 0xbf, 0xcc, 0x97, 0xbe,
	0x92, 0x9d, 0x9b, 0xbf, 0x6b, 0x30, 0xa2, 0xbf, 0xfc, 0xc8, 0xcc, 0xbe,
	0xc5, 0x89, 0x91, 0xbf, 0x23, 0x84, 0x00, 0xbe, 0x2d, 0xc8, 0x82, 0xbe,
	0xc4, 0xe0, 0xfb, 0xbe, 0xdd, 0x2f, 0x23, 0x3e, 0xd6, 0x59, 0x35, 0x3d,
	0xb2, 0xf7, 0x55, 0xbe, 0x14, 0x24, 0x5d, 0x3e, 0x8e, 0xec, 0x7e, 0x3d,
	0x0c, 0x2a, 0x87, 0xbf, 0x8a, 0x6b, 0xb0, 0xbd, 0x95, 0x1d, 0x81, 0xbf,
	0x50, 0x50, 0xf8, 0xbe, 0x5a, 0xff, 0xa9, 0xbf, 0x9f, 0x4e, 0x4f, 0xbf,
	0xb6, 0x69, 0x13, 0xbe, 0x4d, 0x8f, 0x81, 0x3d, 0x1c, 0xdf, 0xcd, 0x3d,
	0x8a, 0xf9, 0x7c, 0xbb, 0x71, 0xbf, 0xbb, 0xbe, 0x42, 0x6a, 0x3e, 0xbf,
	0x8e, 0x66, 0xce, 0xbe, 0x98, 0xd6, 0x9f, 0xbf, 0xf1, 0x9c, 0xc6, 0x3e,
	0xd0, 0xe1, 0x96, 0xbe, 0xec, 0x8f, 0x9f, 0xbe, 0x9c, 0x8c, 0x80, 0x3e,
	0x83, 0x74, 0x30, 0xbf, 0x5b, 0xf9, 0xa1, 0xbd, 0x77, 0xb3, 0x7e, 0x3c,
	0xa2, 0xdd, 0xb1, 0xbe, 0x76, 0x3c, 0x2a, 0xbf, 0x31, 0xf2, 0x85, 0x3e,
	0xe1, 0x53, 0x69, 0xbe, 0xfd, 0x6c, 0x6e, 0xbe, 0x7d, 0x57, 0x1e, 0xbf,
	0xe0, 0xe0, 0xcd, 0xbe, 0xac, 0xcd, 0xe0, 0xbe, 0x8a, 0x0b, 0xd3, 0xbe,
	0x00, 0x26, 0x52, 0xbf, 0x2b, 0x47, 0xfc, 0xbe, 0xca, 0x55, 0x5f, 0xbf,
	0xca, 0x26, 0xd6, 0x3c, 0xf5, 0xd5, 0xc9, 0x3e, 0xc3, 0x5a, 0x96, 0xbe,
	0xbf, 0x6f, 0xb9, 0xbe, 0x90, 0x06, 0xe1, 0x3e, 0x87, 0xe7, 0x31, 0xbf,
	0xc3, 0xb5, 0x55, 0xbf, 0xc3, 0x4c, 0x8f, 0xbd, 0xed, 0xb6, 0x9f, 0x3e,
	0x16, 0x3c, 0xc7, 0xbe, 0xef, 0x94, 0x97, 0xbe, 0x83, 0x7d, 0x87, 0xbf,
	0xf2, 0x1b, 0x36, 0xbf, 0x7f, 0x60, 0xf4, 0x3e, 0x54, 0xe6, 0x55, 0xbe,
	0x48, 0x52, 0xe6, 0xbe, 0x04, 0xdc, 0xe5, 0xbe, 0xcb, 0xaf, 0xe0, 0xbd,
	0xd7, 0xd2, 0x75, 0x3e, 0xdf, 0x92, 0x93, 0xbe, 0x98, 0x25, 0x4a, 0xbf,
	0x1f, 0x90, 0xea, 0xbe, 0x35, 0x87, 0x3d, 0xbf, 0xdd, 0xd8, 0x8f, 0xbd,
	0x09, 0x9c, 0x44, 0xbf, 0x8f, 0x15, 0x12, 0xbf, 0x23, 0x93, 0x14, 0xbf,
	0x89, 0x40, 0x06, 0xbf, 0x10, 0x87, 0x21, 0xbf, 0xc6, 0xc4, 0xeb, 0x3d,
	0x49, 0x36, 0x89, 0xbf, 0x00, 0x6d, 0xec, 0x3e, 0x7c, 0x40, 0x96, 0x3c,
	0x38, 0xd3, 0x2c, 0xbf, 0xa8, 0x09, 0x9a, 0x3c, 0x91, 0xf7, 0x97, 0xbf,
	0x09, 0xad, 0x55, 0xbf, 0xb8, 0x2e, 0xd6, 0xbb, 0x1e, 0x39, 0x75, 0xbd,
	0x14, 0xe0, 0xd5, 0xbd, 0x8e, 0x9c, 0xea, 0x3d, 0x57, 0x5b, 0x45, 0xbf,
	0x87, 0x27, 0x0a, 0x3f, 0x08, 0x9e, 0xc8, 0xbe, 0xc0, 0xb6, 0xaf, 0xbe,
	0x97, 0x1c, 0x69, 0xbf, 0x43, 0x90, 0x91, 0x3e, 0x59, 0xd7, 0xb2, 0x3e,
	0x4e, 0x7a, 0x0a, 0xbf, 0xbd, 0x98, 0xa6, 0xbf, 0x9c, 0x76, 0x17, 0xbf,
	0x08, 0xb7, 0x07, 0xbf, 0x21, 0x18, 0x81, 0xbc, 0x5a, 0x97, 0xb2, 0xbe,
	0x7f, 0x88, 0x02, 0xbd, 0xc3, 0xc5, 0x45, 0xbf, 0x09, 0x4e, 0x82, 0x3e,
	0x32, 0x32, 0x84, 0xbd, 0xab, 0xa7, 0x0a, 0xbf, 0xf2, 0x9a, 0x48, 0xbf,
	0xcc, 0x7d, 0xd0, 0xbd, 0xde, 0x84, 0xe3, 0x3e, 0x07, 0x7e, 0x28, 0xbd,
	0x4f, 0xa5, 0xa9, 0x3c, 0xd2, 0x02, 0xbb, 0x3c, 0x8e, 0x20, 0x19, 0xbf,
	0x47, 0x67, 0xe0, 0xbd, 0x0a, 0xfd, 0x22, 0xbe, 0x10, 0xf5, 0xb9, 0xbe,
	0x99, 0x20, 0x4c, 0xbd, 0xcf, 0x0c, 0xa7, 0xbe, 0xbe, 0x25, 0x71, 0xbe,
	0x3b, 0x46, 0x25, 0xbc, 0x1d, 0x49, 0xea, 0xbe, 0xd4, 0x10, 0x10, 0xbe,
	0xb7, 0xb4, 0x51, 0xbe, 0x48, 0xb8, 0x08, 0xbf, 0x0d, 0x0e, 0x5c, 0xbf,
	0x06, 0xc1, 0x67, 0xbf, 0xa4, 0x50, 0x00, 0xbf, 0x15, 0x2f, 0x1b, 0xbd,
	0xa9, 0xf6, 0x58, 0xbd, 0xde, 0x23, 0xae, 0xbf, 0x27, 0x30, 0x7c, 0xbe,
	0x59, 0x9e, 0x8b, 0xbe, 0x3f, 0xf0, 0x1b, 0xbf, 0x7f, 0x08, 0x21, 0xbf,
	0x7a, 0x32, 0xcc, 0x3e, 0x82, 0xdd, 0x38, 0xbf, 0x6a, 0x89, 0x1c, 0xbf,
	0x54, 0x35, 0xd7, 0xbe, 0x9f, 0xaa, 0xa2, 0x3c, 0xaa, 0x55, 0xcf, 0xbe,
	0xcd, 0x24, 0x28, 0x3d, 0x0f, 0x11, 0x95, 0xbe, 0xc8, 0x5d, 0x2f, 0xbe,
	0x17, 0x48, 0x02, 0xbf, 0xa7, 0x07, 0x80, 0xbb, 0xec, 0x77, 0x3b, 0xbe,
	0x50, 0xd4, 0x30, 0xbf, 0xc7, 0x02, 0x6d, 0x3e, 0xe3, 0x42, 0x6a, 0xbf,
	0x35, 0xc9, 0x9d, 0xbe, 0x25, 0x8b, 0xd9, 0x3b, 0x02, 0xea, 0xa4, 0xbe,
	0x37, 0x40, 0xb8, 0xbe, 0x30, 0x57, 0x8c, 0xbd, 0x6c, 0x44, 0xb5, 0xbd,
	0xa3, 0xd4, 0x3f, 0xbe, 0xab, 0xc9, 0xd7, 0xbe, 0x1a, 0x19, 0xa7, 0x3d,
	0x08, 0x31, 0xfe, 0xbe, 0x5b, 0x04, 0x9b, 0xbd, 0xc7, 0xc7, 0xa3, 0xbe,
	0x84, 0xf8, 0x02, 0xbd, 0x49, 0xba, 0x22, 0xbf, 0x9b, 0xfe, 0x13, 0xbf,
	0x54, 0x8d, 0x28, 0xbd, 0xe4, 0xb1, 0x12, 0xbe, 0xeb, 0x17, 0xd1, 0xbd,
	0x86, 0xa4, 0x14, 0x3e, 0x70, 0x6b, 0x90, 0xbe, 0x38, 0xec, 0xca, 0xbe,
	0xb6, 0xb9, 0xd6, 0xbe, 0x06, 0x5d, 0x8d, 0xbe, 0x82, 0x56, 0xb5, 0xbe,
	0x8d, 0x9a, 0x88, 0xbe, 0xc1, 0x4c, 0x79, 0x3d, 0x39, 0xd4, 0x86, 0x3d,
	0x29, 0x0b, 0xa0, 0xbe, 0xcf, 0x41, 0xe2, 0xbd, 0x91, 0xab, 0xec, 0xbd,
	0xab, 0x4f, 0x30, 0xbe, 0xc9, 0xd8, 0x13, 0xbe, 0xf9, 0x0c, 0x10, 0xbd,
	0x85, 0xf4, 0x5c, 0xbe, 0x89, 0x6b, 0xb3, 0xbd, 0x07, 0xcc, 0xc3, 0xbe,
	0x56, 0xd1, 0x13, 0x3e, 0xe5, 0x9b, 0xa3, 0xbb, 0x93, 0x46, 0x2d, 0xbe,
	0xcc, 0xce, 0x55, 0xbe, 0xe6, 0x83, 0xbb, 0x3d, 0x3b, 0x72, 0xce, 0xbe,
	0x5a, 0x3d, 0x08, 0xbd, 0xcf, 0xf3, 0xa2, 0xbe, 0x22, 0x8f, 0x88, 0xbd,
	0x0c, 0x60, 0x28, 0xbd, 0xd8, 0x3b, 0x83, 0xbe, 0xf9, 0xc0, 0xa5, 0xbd,
	0x91, 0xbd, 0xbb, 0xbe, 0x44, 0x27, 0x10, 0xbe, 0x05, 0x73, 0x0b, 0xbd,
	0xff, 0x7f, 0x33, 0xbe, 0xf9, 0xb5, 0xa7, 0xbe, 0x7a, 0x19, 0x83, 0xbe,
	0x23, 0x57, 0x35, 0xbe, 0xfb, 0xfe, 0xec, 0x3d, 0x1d, 0x6f, 0xff, 0xbe,
	0x04, 0x69, 0xae, 0xbd, 0xcd, 0xc4, 0xc2, 0xbe, 0x92, 0xea, 0x81, 0xbd,
	0xee, 0xb3, 0x70, 0xbd, 0x39, 0x14, 0x84, 0xbe, 0xed, 0x6a, 0xa6, 0xbe,
	0x0a, 0x61, 0xe9, 0x3d, 0xe7, 0x99, 0x18, 0xbd, 0x53, 0xd0, 0x75, 0xbe,
	0xbc, 0x0a, 0x8a, 0xbe, 0x60, 0xeb, 0x0a, 0xbf, 0x55, 0xa3, 0xcd, 0xbd,
	0x28, 0x96, 0x0b, 0xbd, 0x15, 0xc7, 0x15, 0xbe, 0xc5, 0x0c, 0xc0, 0xbd,
	0x3d, 0xd7, 0x02, 0xbc, 0x7b, 0x9d, 0x84, 0x3d, 0xce, 0xa4, 0x72, 0xbe,
	0x15, 0xc3, 0x60, 0xbc, 0xd0, 0x2c, 0x07, 0xbe, 0x08, 0xd0, 0x0a, 0xbe,
	0x7b, 0x20, 0xeb, 0xbd, 0xbd, 0x11, 0x9a, 0xbe, 0x24, 0xcc, 0xbb, 0xbe,
	0x07, 0x2c, 0x54, 0xbe, 0x99, 0x0c, 0x9a, 0xbe, 0x14, 0xea, 0xf7, 0xbc,
	0x6e, 0x00, 0xa5, 0xbe, 0x98, 0x4d, 0x8a, 0xbe, 0x05, 0x51, 0x83, 0xbe,
	0x13, 0xf9, 0x02, 0xbe, 0x0a, 0x35, 0x2f, 0x3f, 0xcb, 0xf7, 0xf4, 0xbe,
	0x67, 0x7a, 0xbf, 0x3d, 0x7b, 0x74, 0x3c, 0x3d, 0x41, 0x99, 0x83, 0xbf,
	0x20, 0x91, 0x15, 0xbb, 0x8f, 0x18, 0xb8, 0x3d, 0x47, 0xfa, 0x86, 0xbf,
	0x92, 0xad, 0xc1, 0xbe, 0xae, 0x82, 0xae, 0xbe, 0xa1, 0x56, 0x06, 0x3f,
	0x24, 0x70, 0xd5, 0xbe, 0x1c, 0x55, 0x60, 0xbf, 0x79, 0xcc, 0x0d, 0xbf,
	0xc5, 0x4d, 0xae, 0xbf, 0x7c, 0x66, 0x83, 0xbe, 0x44, 0x84, 0x09, 0x3f,
	0x5a, 0x65, 0x0e, 0xbf, 0x30, 0x1e, 0x9e, 0xbf, 0x52, 0xad, 0xa0, 0xbe,
	0xc2, 0x09, 0x4c, 0xbf, 0x03, 0x6d, 0x6e, 0xbf, 0xbd, 0xc9, 0x5f, 0xbf,
	0x8f, 0xfc, 0x9a, 0xbd, 0x08, 0x72, 0x22, 0xbf, 0x09, 0xdc, 0x8a, 0x3f,
	0xf7, 0x2b, 0x61, 0xc0, 0xc1, 0x18, 0xae, 0xbf, 0x4e, 0x54, 0x3b, 0xbf,
	0xda, 0x19, 0x7c, 0xbf, 0x49, 0xa8, 0x54, 0xbe, 0x09, 0x6a, 0x81, 0xbf,
	0x9d, 0xec, 0x73, 0xbe, 0xa6, 0x53, 0xf6, 0xbf, 0x5e, 0xc5, 0x2f, 0xbf,
	0x51, 0x10, 0x3b, 0xbf, 0xbb, 0xe7, 0x4d, 0xbe, 0x67, 0x72, 0x9b, 0xbf,
	0xdd, 0xc7, 0x6b, 0xbf, 0xaf, 0xa0, 0x8e, 0xbe, 0x46, 0xda, 0xf6, 0x3e,
	0xd7, 0x4f, 0xcb, 0xbe, 0x30, 0x12, 0x48, 0xbe, 0x61, 0xcf, 0x12, 0xbf,
	0x66, 0xa7, 0xc3, 0x3e, 0x81, 0x77, 0x76, 0xbe, 0xa7, 0x5a, 0x64, 0xbf,
	0x38, 0xd4, 0xb7, 0xbe, 0x07, 0xb7, 0xd8, 0x3e, 0x5a, 0xcc, 0xcf, 0xbf,
	0xcb, 0x99, 0x96, 0x3f, 0xb8, 0xe2, 0xc8, 0xbe, 0x52, 0x14, 0x31, 0xbe,
	0xe0, 0x3c, 0x76, 0xbe, 0xdf, 0xfa, 0xfc, 0xbe, 0x95, 0x34, 0xb5, 0xbf,
	0xd9, 0x37, 0x35, 0x3f, 0xaa, 0x47, 0x02, 0xc0, 0xe5, 0x22, 0x3e, 0xbe,
	0x4c, 0xc3, 0x9f, 0xbe, 0x0a, 0xb0, 0x28, 0x3f, 0x3b, 0x54, 0xde, 0x3e,
	0x42, 0x9c, 0xa9, 0x3e, 0x0b, 0xf0, 0x8a, 0x3e, 0xa6, 0x7c, 0x6a, 0x3e,
	0x57, 0xf3, 0xa2, 0xbb, 0x33, 0xe1, 0x1b, 0xbf, 0xd6, 0xfb, 0xc8, 0xbd,
	0x9f, 0x46, 0x54, 0xbf, 0x67, 0x7f, 0x22, 0x3c, 0x6b, 0xc8, 0x97, 0xbe,
	0xb8, 0x68, 0x26, 0xbe, 0x18, 0x47, 0x47, 0xbf, 0xc7, 0xe3, 0x2e, 0xbe,
	0x8c, 0xca, 0x74, 0xbe, 0x51, 0xeb, 0xb3, 0xbe, 0x66, 0xc2, 0x86, 0xbe,
	0xa7, 0x1b, 0xaf, 0x3d, 0xb7, 0x96, 0x1f, 0x3e, 0xc1, 0x89, 0x2c, 0xbf,
	0xb9, 0x27, 0x6d, 0x3d, 0x97, 0x8a, 0x61, 0xbf, 0xbc, 0xd1, 0x35, 0x3d,
	0x84, 0x06, 0x4d, 0xbf, 0x3b, 0xdf, 0xc7, 0xbf, 0xb0, 0x1e, 0x72, 0xbe,
	0x0d, 0x20, 0x66, 0x3e, 0x6f, 0x48, 0x0f, 0x3d, 0x09, 0x55, 0x4b, 0xbf,
	0xcb, 0x52, 0x64, 0xbf, 0x41, 0x29, 0xe5, 0xbd, 0x86, 0x1a, 0x9c, 0xbf,
	0x4d, 0xeb, 0x6c, 0xbe, 0x64, 0x51, 0x84, 0xbf, 0x4e, 0x80, 0x90, 0xbd,
	0x9a, 0x94, 0x17, 0x3c, 0x5e, 0x65, 0x55, 0x39, 0x45, 0xf3, 0x9d, 0xbe,
	0xda, 0x06, 0x71, 0xbe, 0xf7, 0x28, 0x02, 0xbe, 0x01, 0xba, 0x7f, 0x3e,
	0xf9, 0x02, 0xbb, 0xbe, 0x16, 0x72, 0x7d, 0xbe, 0x18, 0x51, 0x06, 0xbf,
	0x0e, 0x86, 0x7b, 0xbf, 0xe9, 0x93, 0x12, 0xbf, 0x91, 0xb3, 0xa6, 0xbe,
	0x5f, 0x00, 0xdd, 0xbe, 0x69, 0x3f, 0x1d, 0xbf, 0x05, 0xea, 0x90, 0xbf,
	0x11, 0xfa, 0xf7, 0xbd, 0xb5, 0x3a, 0x3a, 0xbe, 0xfb, 0x08, 0x7c, 0x3c,
	0x7a, 0xdb, 0x94, 0xbe, 0x37, 0x9d, 0xde, 0xbe, 0x37, 0x20, 0xf5, 0xbe,
	0x6d, 0xfc, 0x87, 0xbf, 0x71, 0x73, 0xef, 0x3d, 0xc4, 0xdd, 0xc4, 0xbd,
	0x37, 0x5f, 0x34, 0xbf, 0xd4, 0x86, 0x5d, 0xbe, 0xd2, 0xf0, 0x08, 0x3c,
	0x52, 0xf7, 0xf4, 0xbe, 0x2c, 0xbf, 0x03, 0xbe, 0xc9, 0x59, 0x0c, 0x3a,
	0x34, 0x67, 0x7e, 0x3d, 0x4d, 0xf9, 0xbd, 0x3d, 0xa7, 0x0d, 0x29, 0x3d,
	0xbe, 0xdf, 0x8e, 0xbd, 0x9c, 0xa3, 0x9c, 0x3d, 0xbd, 0x6c, 0x2d, 0xbe,
	0xd2, 0x4f, 0x29, 0x3e, 0xee, 0x72, 0xc1, 0xbd, 0xc5, 0x69, 0x81, 0xbf,
	0x75, 0xf9, 0x05, 0xc0, 0xe2, 0xf3, 0xbb, 0x3c, 0xed, 0x11, 0xcf, 0x3e,
	0x2c, 0x8b, 0x63, 0x3c, 0x79, 0x0f, 0xc4, 0xbd, 0x53, 0x48, 0xc1, 0xbf,
	0xb0, 0x2d, 0x04, 0x3e, 0xc8, 0x90, 0x0c, 0xbf, 0x52, 0x54, 0x27, 0xbb,
	0xf1, 0x62, 0x4d, 0xbe, 0xa6, 0x1e, 0xdb, 0xbf, 0x49, 0x38, 0x3e, 0xbd,
	0xaa, 0x3f, 0xd6, 0x3e, 0x00, 0xaf, 0x2a, 0xbf, 0x06, 0x60, 0x6c, 0xbe,
	0xa2, 0xdb, 0x5b, 0xbe, 0x80, 0xf1, 0x49, 0x3e, 0x8b, 0xd4, 0x65, 0xbf,
	0xa6, 0x89, 0x11, 0x3e, 0x9e, 0xaa, 0xb1, 0x3e, 0x6a, 0x6a, 0x60, 0x3e,
	0x4b, 0x39, 0x4d, 0xbe, 0xd5, 0x15, 0xed, 0x3e, 0x88, 0x6d, 0xe1, 0xbc,
	0x18, 0xf5, 0xde, 0xbe, 0xf6, 0x6e, 0x86, 0xbd, 0x3f, 0x9a, 0x4a, 0xbf,
	0xc4, 0x31, 0xb0, 0xbe, 0x71, 0x62, 0x92, 0xbd, 0x50, 0x25, 0x41, 0xbf,
	0x55, 0x70, 0xf5, 0xbf, 0xaf, 0xb8, 0xde, 0xbf, 0x5e, 0x9c, 0xae, 0x3e,
	0x84, 0x47, 0x77, 0x3d, 0xa7, 0xba, 0x80, 0xbf, 0x83, 0xcb, 0x42, 0xbf,
	0x05, 0x67, 0xf1, 0x3e, 0x35, 0x09, 0x5f, 0xbf, 0xd0, 0x08, 0x59, 0xbf,
	0x4f, 0x80, 0x9d, 0x3e, 0x14, 0x61, 0xd0, 0xbe, 0x74, 0x30, 0x53, 0xbe,
	0xa6, 0xdd, 0x22, 0x3f, 0xcf, 0xb0, 0x56, 0xbf, 0xe0, 0xb4, 0xad, 0x3e,
	0x9a, 0x1b, 0xb1, 0xbe, 0x6c, 0xef, 0x63, 0xbf, 0x66, 0x8c, 0x48, 0xbd,
	0xc9, 0x2d, 0x2a, 0xbf, 0xb3, 0x57, 0x8a, 0x3e, 0xd1, 0xf7, 0x0f, 0xbe,
	0x4f, 0xe8, 0x47, 0xbe, 0x9e, 0xfd, 0x9b, 0xbf, 0x44, 0xf7, 0x8a, 0xbf,
	0x27, 0x16, 0x69, 0xbe, 0x71, 0xb5, 0xdf, 0xbf, 0x46, 0x20, 0x29, 0xbf,
	0xef, 0x03, 0x8f, 0xbf, 0x47, 0x2a, 0xc4, 0x3e, 0x8e, 0x19, 0x80, 0xbf,
	0xe9, 0x19, 0x62, 0xbf, 0x3d, 0x6c, 0x4b, 0xbc, 0x96, 0x9b, 0x16, 0xbf,
	0x47, 0xef, 0xc6, 0xbd, 0xff, 0x5f, 0x21, 0x3e, 0x5a, 0xa6, 0xec, 0xbe,
	0xf3, 0x79, 0x6e, 0xbe, 0xff, 0x65, 0x95, 0x3c, 0x9c, 0xf7, 0xc5, 0xbe,
	0xe3, 0xb4, 0x98, 0x3e, 0xe5, 0x5c, 0x1d, 0xbf, 0xf1, 0x43, 0xc2, 0xbe,
	0x87, 0x50, 0x95, 0xbe, 0x48, 0xa3, 0x41, 0xbf, 0xc2, 0xd4, 0x00, 0xbf,
	0xf6, 0x95, 0xf0, 0x3d, 0x93, 0x2d, 0xd0, 0xbd, 0xe1, 0xc4, 0x71, 0x3d,
	0x64, 0x08, 0x06, 0xbd, 0x1c, 0x91, 0x28, 0x3e, 0x97, 0x96, 0x64, 0xbd,
	0xb9, 0x74, 0x0e, 0x3f, 0xd4, 0x28, 0xb0, 0x3d, 0x8c, 0xdc, 0x60, 0xbf,
	0x0b, 0x2d, 0xfb, 0x3e, 0xff, 0x51, 0x01, 0xbf, 0xc7, 0x42, 0x3a, 0xbd,
	0xfb, 0x11, 0xf1, 0x3d, 0x0d, 0xb3, 0x3a, 0x3d, 0x07, 0x60, 0xa3, 0xbe,
	0x30, 0xe5, 0xe2, 0x3c, 0x29, 0xbe, 0x4d, 0xbf, 0xb9, 0x5f, 0xfb, 0x3c,
	0xc7, 0xfe, 0xa3, 0x3e, 0x76, 0x66, 0x36, 0xbf, 0xf1, 0x35, 0xf2, 0x3e,
	0x8c, 0x10, 0xc5, 0xbb, 0x44, 0x66, 0xbb, 0x3e, 0x95, 0xfa, 0x69, 0xbe,
	0x04, 0x00, 0x35, 0xbf, 0x33, 0x87, 0x8a, 0xbe, 0xe3, 0x51, 0x28, 0xbe,
	0x53, 0xa6, 0xcf, 0xbd, 0x9e, 0x53, 0x91, 0xbd, 0xc9, 0xeb, 0x80, 0x3e,
	0xfb, 0xb6, 0x5d, 0x3f, 0x3f, 0x3d, 0xb8, 0x3e, 0x37, 0xb6, 0x5b, 0x3e,
	0xe8, 0xd9, 0x0c, 0xbf, 0x83, 0x6b, 0x28, 0xbf, 0x2d, 0xe3, 0x7e, 0xbe,
	0x91, 0xf9, 0x73, 0x3d, 0x21, 0x0c, 0x7a, 0xbe, 0x26, 0x9a, 0x78, 0xbf,
	0x9b, 0x62, 0x10, 0xbd, 0x9c, 0xe3, 0x2a, 0x3f, 0xf1, 0x85, 0x97, 0xbd,
	0xd6, 0xca, 0x0e, 0x3e, 0xc6, 0x25, 0x78, 0x3d, 0x11, 0xba, 0x84, 0xbf,
	0x47, 0x8e, 0x14, 0x3f, 0x08, 0xd0, 0xb4, 0xbe, 0xea, 0x54, 0xbd, 0x3c,
	0x1b, 0x19, 0x68, 0xbf, 0x2b, 0x11, 0x9e, 0xbf, 0x19, 0x11, 0xc4, 0xbe,
	0x5c, 0x10, 0x15, 0xc0, 0xcf, 0x60, 0x38, 0xbe, 0x63, 0x37, 0xa6, 0xbe,
	0x36, 0x52, 0x45, 0xbf, 0x68, 0x09, 0x3c, 0xbd, 0xb7, 0xcc, 0x9b, 0xbe,
	0x52, 0x9f, 0x35, 0xbf, 0x14, 0xd9, 0x00, 0xbd, 0xb7, 0x59, 0xaf, 0xbf,
	0xc0, 0x85, 0xfc, 0xbe, 0xa5, 0x96, 0x06, 0xbf, 0x06, 0x0f, 0x1f, 0xc0,
	0x2d, 0xd9, 0x9f, 0xbf, 0xd7, 0xe5, 0xcc, 0xbe, 0x0e, 0x53, 0x72, 0xbf,
	0x32, 0xb8, 0xa2, 0xbf, 0xdf, 0xb0, 0xdb, 0xbe, 0x1f, 0xff, 0xaf, 0xbd,
	0xa4, 0x94, 0x17, 0x3e, 0x4b, 0x11, 0x33, 0x3e, 0x29, 0xe8, 0x03, 0xbf,
	0xf5, 0x9f, 0x88, 0xbe, 0x2c, 0xcd, 0x6e, 0x3e, 0x03, 0xa4, 0xb8, 0xbd,
	0xe4, 0x66, 0xdf, 0xbe, 0x20, 0x1f, 0x4b, 0xbe, 0xae, 0x50, 0xf8, 0xbe,
	0xd5, 0x5e, 0x89, 0xbf, 0x95, 0xc7, 0x37, 0xbf, 0xf5, 0xf9, 0x05, 0xc0,
	0xa8, 0x70, 0x1f, 0xbf, 0xa6, 0xf6, 0x26, 0xbf, 0xa8, 0x2b, 0x6e, 0xbe,
	0x2c, 0xc6, 0x24, 0xc0, 0x49, 0x67, 0x8f, 0xbe, 0xe1, 0x5e, 0xd6, 0xbe,
	0xa8, 0x1e, 0x88, 0xbf, 0x14, 0x3d, 0x36, 0xbe, 0x44, 0x07, 0x9f, 0xbf,
	0xed, 0x54, 0xda, 0x3c, 0x4f, 0x2b, 0x5a, 0xbf, 0x23, 0xfb, 0x16, 0x3d,
	0xa4, 0x71, 0x05, 0xbf, 0x21, 0x1c, 0xe5, 0xbf, 0x3b, 0x90, 0x74, 0xbf,
	0x54, 0x39, 0x05, 0xbf, 0x17, 0x57, 0xcc, 0xbd, 0xba, 0xb8, 0x63, 0xbf,
	0xac, 0xd1, 0x38, 0xbe, 0x27, 0x98, 0xec, 0x3b, 0xc0, 0xd1, 0x8e, 0x3e,
	0x6d, 0x84, 0x55, 0xbf, 0x64, 0x64, 0x67, 0x3d, 0x1a, 0xc7, 0xcd, 0x3d,
	0x6b, 0x36, 0x8e, 0xbe, 0x7b, 0xc0, 0x81, 0xbe, 0x54, 0x6a, 0xde, 0xbe,
	0xeb, 0x8e, 0xc7, 0xbe, 0xab, 0x4d, 0x83, 0xbe, 0x8f, 0xf9, 0x94, 0xbe,
	0x49, 0xeb, 0xa1, 0x3e, 0xce, 0xb1, 0xd2, 0xbe, 0xb1, 0x95, 0x2a, 0xbe,
	0xac, 0x91, 0x9d, 0xbe, 0xcb, 0x92, 0x3c, 0x3e, 0x53, 0x3f, 0x3f, 0x3d,
	0xbf, 0x53, 0xe5, 0x3d, 0x8b, 0xb5, 0x75, 0x3b, 0x86, 0x82, 0xaa, 0xbe,
	0x4d, 0xf0, 0x2c, 0x3f, 0x6b, 0x1e, 0x7c, 0x3e, 0x37, 0x32, 0xbf, 0x3d,
	0xa7, 0x1f, 0x89, 0xbe, 0xe9, 0x02, 0x1b, 0xbe, 0x12, 0x35, 0x8f, 0xbd,
	0xb2, 0xce, 0x41, 0xbd, 0x6c, 0x75, 0xcb, 0x3d, 0xb1, 0xc4, 0x04, 0x3f,
	0x8c, 0xbe, 0xb2, 0xbd, 0xbb, 0xc8, 0xc5, 0xbe, 0x2c, 0xd0, 0xc4, 0x3e,
	0xef, 0x9d, 0xb9, 0x3e, 0x3a, 0x45, 0x60, 0x3e, 0xa6, 0x69, 0x90, 0xbd,
	0x50, 0x0f, 0x64, 0xbe, 0xd4, 0xa7, 0x29, 0xbf, 0x11, 0xff, 0xe7, 0xbe,
	0xb0, 0xee, 0x28, 0xbe, 0x9b, 0xbb, 0x86, 0xbe, 0x3f, 0xf9, 0xe2, 0x3e,
	0x30, 0xdd, 0x8a, 0x3e, 0x59, 0x92, 0x78, 0xbc, 0xba, 0x15, 0x9a, 0xbd,
	0x81, 0x64, 0x8d, 0xbd, 0x21, 0xec, 0x26, 0x3f, 0xd7, 0x6e, 0xf0, 0xbd,
	0x3c, 0xe6, 0xe0, 0xbe, 0xc3, 0x2c, 0xa6, 0xbe, 0x96, 0x70, 0x12, 0x3f,
	0x80, 0x05, 0x85, 0xbd, 0x9a, 0xd9, 0x4f, 0x3f, 0xfa, 0x73, 0x70, 0xbf,
	0xcb, 0x4b, 0x6a, 0x3e, 0xb1, 0xe6, 0x0c, 0x3f, 0xd3, 0xc7, 0x55, 0xbf,
	0x0a, 0x3e, 0xd6, 0xbd, 0x67, 0x6c, 0x1d, 0xbf, 0xdc, 0xa4, 0x81, 0xbd,
	0xe9, 0x76, 0xcc, 0xbd, 0x4e, 0x01, 0x97, 0xbf, 0x01, 0xd3, 0xca, 0x3d,
	0x3b, 0x3a, 0x42, 0xbe, 0x29, 0x7a, 0xe3, 0x3d, 0x16, 0x31, 0x6b, 0xbf,
	0x40, 0x34, 0xbe, 0x3c, 0x29, 0x4f, 0xa9, 0x3d, 0xd2, 0xe4, 0xe6, 0xbe,
	0x2b, 0xfd, 0x1c, 0xbd, 0x84, 0x85, 0xb4, 0xbe, 0x35, 0x0a, 0xc6, 0xbc,
	0x42, 0x4c, 0x07, 0x3e, 0x92, 0x8f, 0x48, 0xbf, 0x79, 0xb1, 0x76, 0x3e,
	0xcd, 0x79, 0x94, 0xbd, 0x53, 0x6b, 0x2b, 0xbe, 0x27, 0xac, 0x0f, 0xbe,
	0x10, 0x59, 0x8c, 0xbe, 0xa1, 0xa4, 0xc2, 0xbe, 0xb0, 0x80, 0x8a, 0xbe,
	0xab, 0x4c, 0xca, 0xbe, 0x2c, 0x63, 0xcf, 0xbc, 0x48, 0x3e, 0x28, 0xbe,
	0x9a, 0x13, 0x80, 0xbd, 0x26, 0x37, 0x9e, 0xbe, 0x7a, 0x6f, 0x5c, 0xbe,
	0x3e, 0x63, 0x0e, 0xbe, 0x15, 0x13, 0xa2, 0x3b, 0x82, 0xc6, 0x4c, 0xbd,
	0xc5, 0x5b, 0x76, 0xbe, 0x89, 0x69, 0x10, 0xbe, 0xe4, 0xde, 0x9d, 0xbe,
	0x7d, 0x78, 0x05, 0xbe, 0x1b, 0x3e, 0x2d, 0xbc, 0x99, 0xe7, 0x9d, 0xbe,
	0x8c, 0x98, 0xc9, 0x3c, 0xc9, 0xd1, 0x5a, 0x3e, 0x86, 0xb1, 0x02, 0xbf,
	0x35, 0xf1, 0x80, 0xbe, 0xa0, 0x59, 0xa3, 0xbd, 0xe0, 0xce, 0x0a, 0xbd,
	0x19, 0xa7, 0x8e, 0x3d, 0x2c, 0x8f, 0x4c, 0xbe, 0x47, 0x07, 0x21, 0x3e,
	0x92, 0xa2, 0x32, 0xbe, 0x48, 0xa2, 0x8f, 0xbe, 0xa6, 0xa1, 0x60, 0xbe,
	0xf2, 0x9e, 0xa4, 0xbd, 0x25, 0x66, 0x10, 0xbf, 0x94, 0x82, 0x26, 0xbd,
	0x41, 0x47, 0x7f, 0xbe, 0x1e, 0x4b, 0x9d, 0xbd, 0x50, 0x97, 0x18, 0xbe,
	0xc6, 0x49, 0x1c, 0xbe, 0x3a, 0x5f, 0x96, 0xbe, 0x59, 0x03, 0x8b, 0xbe,
	0x78, 0xd8, 0x58, 0xbe, 0xe7, 0xde, 0x8b, 0xbd, 0x9a, 0x6f, 0xa6, 0xbc,
	0xbf, 0x6c, 0x65, 0xbe, 0x3c, 0x65, 0x9c, 0xbd, 0xce, 0x22, 0x3d, 0xbe,
	0xc5, 0x12, 0x0a, 0xbe, 0x0d, 0x6b, 0x50, 0xbe, 0x73, 0x6f, 0x95, 0xbe,
	0xbf, 0x4b, 0x46, 0xbe, 0x59, 0x28, 0x9d, 0x3d, 0x2d, 0x31, 0x36, 0xbe,
	0xb4, 0x8c, 0x0e, 0xbe, 0x4a, 0x06, 0x2e, 0xbd, 0xe4, 0xc7, 0x99, 0xbe,
	0x29, 0x4a, 0x87, 0xbe, 0xe5, 0x51, 0x9f, 0xbe, 0xd9, 0x20, 0x6f, 0xbe,
	0x57, 0x4e, 0x92, 0xbe, 0x80, 0x41, 0x82, 0xbe, 0x58, 0x33, 0x6d, 0xbd,
	0xc5, 0x86, 0x86, 0xbd, 0x80, 0x83, 0x24, 0xbe, 0x3e, 0x11, 0x58, 0xbe,
	0xc0, 0xfe, 0xb4, 0x3e, 0x1b, 0xb8, 0x82, 0xbd, 0xe5, 0x81, 0x98, 0xbf,
	0x6a, 0x64, 0xce, 0xbf, 0x77, 0xeb, 0xf1, 0x3d, 0x5d, 0x92, 0x87, 0xbf,
	0xb6, 0x1b, 0x1a, 0xc0, 0x5b, 0x48, 0xd6, 0xbf, 0xd4, 0x99, 0x0c, 0xbd,
	0xac, 0x68, 0x90, 0xbe, 0x81, 0x81, 0x73, 0x3d, 0x4a, 0x64, 0x85, 0xbc,
	0xe6, 0xda, 0x40, 0xbf, 0xf9, 0x9f, 0x17, 0xbf, 0x79, 0xd4, 0x81, 0xbe,
	0xcb, 0xf6, 0x9f, 0xbe, 0xd5, 0x24, 0x3a, 0x3f, 0x07, 0xb6, 0x54, 0x3f,
	0x34, 0x42, 0x72, 0x3e, 0x0c, 0xaf, 0xa6, 0x3c, 0x90, 0x70, 0x07, 0xbe,
	0xd7, 0x1c, 0x4e, 0xbf, 0x6e, 0x4c, 0x48, 0xbf, 0x3c, 0x67, 0x72, 0xbe,
	0x29, 0x88, 0xc6, 0x3e, 0xa2, 0x6a, 0x5d, 0x3e, 0x01, 0x3e, 0xb1, 0xbd,
	0xd1, 0xeb, 0x77, 0xbf, 0xc9, 0x54, 0x83, 0x3e, 0x24, 0x6d, 0xdb, 0xbe,
	0x7e, 0xe5, 0xf6, 0xbf, 0x23, 0x4a, 0x54, 0xbf, 0xe7, 0x61, 0xb1, 0xbf,
	0x67, 0xa4, 0x3b, 0xbf, 0x0f, 0xc1, 0xb1, 0xbf, 0x34, 0x2e, 0x7e, 0x3e,
	0x13, 0xb2, 0xf1, 0xbf, 0x1c, 0xf2, 0x87, 0xbf, 0x93, 0x52, 0x2a, 0xbf,
	0xe6, 0x0b, 0x35, 0x3f, 0x49, 0xd3, 0xbf, 0x3d, 0xfe, 0xd9, 0x59, 0x3c,
	0x40, 0xc7, 0x0d, 0x3f, 0xb8, 0x3a, 0xc8, 0xbf, 0x33, 0x25, 0xb0, 0xbf,
	0x2b, 0x54, 0x35, 0xbf, 0x0e, 0x90, 0xf8, 0xbe, 0x66, 0xd5, 0x4b, 0xbf,
	0xd1, 0xd0, 0xc5, 0xbf, 0x20, 0x6d, 0x3a, 0xbd, 0xb0, 0x9e, 0x6e, 0x3e,
	0x4d, 0x13, 0x03, 0xbf, 0x4c, 0x36, 0x02, 0xc0, 0x5b, 0xce, 0x60, 0xbe,
	0x41, 0x64, 0xad, 0xbf, 0x52, 0xd8, 0xb3, 0xbe, 0x18, 0xb6, 0x94, 0xbf,
	0x70, 0x4c, 0x6b, 0xbe, 0x8d, 0x42, 0x10, 0xc0, 0x82, 0xc2, 0x89, 0xbf,
	0xe4, 0x75, 0x28, 0x3f, 0x9c, 0xab, 0xf8, 0xbe, 0xba, 0xc2, 0x0e, 0xbf,
	0x74, 0x5f, 0x0e, 0xbd, 0xec, 0xcc, 0x88, 0xbf, 0x24, 0xe9, 0xb2, 0xbe,
	0x55, 0x9a, 0xf1, 0xbe, 0x96, 0xfb, 0xb3, 0xbf, 0xbf, 0x30, 0x60, 0xbf,
	0xbb, 0x60, 0xa6, 0xbe, 0x35, 0x9d, 0x81, 0xbe, 0xaa, 0x3e, 0x91, 0xbf,
	0xf9, 0x81, 0x83, 0xbf, 0x1f, 0xa6, 0x0b, 0xbf, 0xfe, 0xd1, 0xa0, 0xbf,
	0x4e, 0xcb, 0x44, 0xbe, 0xbb, 0x83, 0x5c, 0xbd, 0xe5, 0x95, 0x2c, 0x3f,
	0x94, 0x23, 0xc2, 0x3e, 0x32, 0x14, 0x06, 0x3e, 0xed, 0x94, 0x60, 0xbe,
	0x50, 0x0a, 0x9b, 0xbe, 0xc8, 0x61, 0x4b, 0xbf, 0xd7, 0x59, 0xf0, 0x3b,
	0x0c, 0x19, 0xa1, 0xbe, 0xcc, 0xb3, 0xcb, 0xbf, 0x4f, 0xa8, 0x95, 0x3e,
	0xc5, 0xa6, 0xca, 0x3b, 0x48, 0x60, 0xa6, 0xbf, 0x77, 0x09, 0x41, 0x3e,
	0xf0, 0xb1, 0xb2, 0xbf, 0xea, 0x3b, 0x19, 0xbf, 0xde, 0x85, 0xb1, 0xbf,
	0x5f, 0x92, 0xa1, 0x3d, 0x3d, 0x89, 0x84, 0xbf, 0xed, 0x67, 0xb3, 0xbf,
	0x57, 0xf8, 0x94, 0xbf, 0x1e, 0x1d, 0xa6, 0xbe, 0xea, 0xf7, 0xb7, 0xbf,
	0xcf, 0xb9, 0xbf, 0xbe, 0x6b, 0x02, 0x79, 0x3a, 0xc9, 0x4f, 0xc1, 0xbe,
	0x96, 0x32, 0x80, 0xbf, 0x4b, 0xeb, 0xc8, 0x3b, 0xe2, 0xbe, 0x08, 0xbe,
	0xe3, 0xd2, 0xb2, 0xbf, 0xa8, 0xdf, 0x7e, 0xbf, 0xa7, 0x7c, 0x55, 0xbf,
	0xbd, 0xbd, 0xbf, 0xbf, 0xd8, 0xf6, 0x18, 0xbe, 0x85, 0x47, 0xe8, 0xbc,
	0xd6, 0x48, 0x35, 0x3c, 0x2a, 0xe8, 0xe5, 0xbe, 0xca, 0x8e, 0x70, 0xbe,
	0xdf, 0xb5, 0x43, 0xbf, 0xf3, 0x39, 0xda, 0xbf, 0x2f, 0xa0, 0x1f, 0xbf,
	0x99, 0x8b, 0x32, 0xbe, 0x3d, 0xb1, 0xc5, 0xbc, 0x94, 0x66, 0xd0, 0xbe,
	0xe7, 0x6c, 0x50, 0xbf, 0xb7, 0x1c, 0x80, 0xbc, 0x08, 0x89, 0x04, 0xbf,
	0x09, 0xbc, 0xfd, 0xbd, 0x06, 0xbe, 0x96, 0xbf, 0x46, 0x49, 0xb1, 0xbe,
	0x08, 0x61, 0xca, 0xbf, 0xa4, 0xe5, 0x92, 0xbe, 0x83, 0x34, 0x4a, 0xbe,
	0x68, 0x84, 0xcb, 0xbd, 0x0d, 0x21, 0x02, 0x3e, 0x3a, 0xf3, 0xda, 0xbd,
	0x96, 0xc1, 0x88, 0xbe, 0xcf, 0xd8, 0xcb, 0xbd, 0xfc, 0x71, 0x96, 0xbd,
	0xe8, 0xdf, 0x28, 0xbd, 0xef, 0x43, 0x09, 0xbe, 0xed, 0x61, 0xf7, 0xbd,
	0x52, 0xf6, 0xa9, 0xbd, 0xd3, 0x6a, 0xd3, 0x3c, 0x11, 0xa0, 0x11, 0xbc,
	0x43, 0x91, 0x87, 0xbe, 0xb2, 0xbc, 0x96, 0xbd, 0x9b, 0xa2, 0xfe, 0xbc,
	0x5a, 0x24, 0x11, 0xbe, 0x1c, 0x63, 0x31, 0xbe, 0x39, 0x59, 0xcc, 0xbd,
	0xe2, 0x88, 0x94, 0xbe, 0x65, 0x85, 0xb9, 0xbd, 0x98, 0x46, 0xab, 0xbd,
	0x36, 0x1d, 0x1a, 0xbe, 0xf3, 0x77, 0x5a, 0xbe, 0x77, 0x15, 0x29, 0xbe,
	0xe9, 0xa6, 0x1d, 0xbd, 0xad, 0xbd, 0x56, 0xbe, 0xfe, 0x22, 0x9a, 0x3d,
	0xed, 0xf0, 0x64, 0xbe, 0x01, 0xc8, 0x81, 0xbe, 0x06, 0xb0, 0xb5, 0xbd,
	0x42, 0xe0, 0x67, 0xbe, 0xbf, 0xe5, 0x62, 0xbd, 0x21, 0x5a, 0x27, 0xbe,
	0x96, 0x04, 0x08, 0xbe, 0xa4, 0x5f, 0xdf, 0x3c, 0x4f, 0x1c, 0xb4, 0xbd,
	0xe1, 0x1a, 0xea, 0xbd, 0x6e, 0x49, 0x28, 0xbe, 0x8c, 0x88, 0xb5, 0xbc,
	0xca, 0xa2, 0x03, 0xbe, 0x45, 0x99, 0x1f, 0xbe, 0x1c, 0xfb, 0x26, 0xbe,
	0x57, 0x9a, 0x02, 0xbe, 0x78, 0xb9, 0x6b, 0xbd, 0x6c, 0x1b, 0x29, 0xbe,
	0x1c, 0x07, 0x6a, 0xbd, 0x09, 0x78, 0xa7, 0xbd, 0x91, 0x24, 0xda, 0xbc,
	0x76, 0x86, 0x2a, 0xbc, 0x49, 0xa0, 0xe9, 0x3d, 0x72, 0x9f, 0x23, 0xbe,
	0x81, 0x29, 0x03, 0xbe, 0x96, 0x00, 0x2d, 0xbe, 0xbe, 0xbf, 0x76, 0xbe,
	0xa6, 0x4a, 0x87, 0x3e, 0x99, 0xef, 0x82, 0xbe, 0xb5, 0x26, 0x27, 0xbd,
	0x54, 0x1a, 0x80, 0xbe, 0x91, 0xbe, 0x57, 0xbe, 0x01, 0x79, 0x4f, 0xbe,
	0xbf, 0x1e, 0x35, 0xbe, 0x8b, 0xe0, 0xa9, 0x3d, 0xee, 0xff, 0x00, 0xbd,
	0x43, 0x97, 0xed, 0x3e, 0xeb, 0x19, 0x86, 0xbe, 0x50, 0xa9, 0xed, 0x3e,
	0x2d, 0xc5, 0xca, 0x3e, 0x94, 0x5a, 0x90, 0x3f, 0x50, 0xf4, 0x21, 0xbf,
	0xa3, 0x41, 0xe3, 0xbe, 0xc4, 0x94, 0xa9, 0x3e, 0x7b, 0x1d, 0x11, 0x3e,
	0x14, 0x10, 0x5f, 0x3e, 0xf0, 0x3c, 0x1e, 0xbf, 0x2b, 0x04, 0x92, 0xbf,
	0xa4, 0x38, 0x91, 0xbd, 0x7a, 0x92, 0x59, 0xbe, 0x7d, 0x54, 0x0b, 0xbd,
	0xc3, 0x00, 0x5a, 0x3f, 0x0b, 0x9f, 0x3b, 0x3f, 0xaf, 0xa4, 0xf2, 0x3d,
	0x12, 0x0b, 0xdd, 0xbd, 0xa2, 0x51, 0xa6, 0xbc, 0xe1, 0x42, 0x06, 0x3e,
	0x2b, 0x73, 0xa5, 0xbe, 0xdd, 0xc5, 0x94, 0xbd, 0x17, 0x69, 0x78, 0x3e,
	0xd7, 0xe9, 0xb3, 0xbe, 0xaa, 0xe9, 0x9e, 0xbf, 0x4d, 0x56, 0x4c, 0xbf,
	0x52, 0x42, 0x1c, 0xbf, 0x5f, 0x86, 0x67, 0xbd, 0x18, 0x8b, 0x22, 0xbc,
	0x0b, 0xf3, 0x17, 0x3f, 0x51, 0xad, 0xfc, 0x3e, 0xe4, 0xb6, 0xb3, 0xbe,
	0xa0, 0x71, 0xc9, 0xbe, 0x4e, 0x02, 0x62, 0x3e, 0x81, 0xc0, 0x1b, 0xbf,
	0x3f, 0x41, 0x75, 0xbe, 0x3e, 0x5c, 0x89, 0x3f, 0x04, 0xe2, 0x95, 0x3e,
	0x03, 0x34, 0x80, 0xbc, 0x46, 0x54, 0x9a, 0xbe, 0x8f, 0xf6, 0x61, 0x3f,
	0xb2, 0xcd, 0x08, 0xbf, 0xb0, 0x77, 0x80, 0xbe, 0x31, 0x5b, 0x07, 0x3e,
	0x90, 0xd5, 0x7d, 0x3d, 0xf9, 0x15, 0x53, 0xbe, 0xbb, 0x0e, 0xed, 0xbd,
	0x64, 0xa7, 0x69, 0xbe, 0x87, 0xda, 0xd2, 0xbf, 0x16, 0x69, 0x10, 0x3f,
	0xc9, 0xad, 0x4e, 0xbf, 0xb4, 0x7b, 0x97, 0xbe, 0x3c, 0x74, 0x8a, 0xbd,
	0x74, 0x12, 0x35, 0x3e, 0x88, 0x07, 0x51, 0x3f, 0x82, 0x39, 0x27, 0x3e,
	0x69, 0x51, 0xac, 0x3e, 0x33, 0x0c, 0x26, 0xbe, 0x78, 0x75, 0xbd, 0x3d,
	0xd0, 0xed, 0xca, 0xbe, 0x52, 0x8e, 0xdd, 0x3d, 0x9d, 0xcb, 0x3f, 0xbb,
	0x66, 0xfc, 0xff, 0xff, 0x04, 0x00, 0x00, 0x00, 0x00, 0x03, 0x00, 0x00,
	0xc2, 0xae, 0x8f, 0xbe, 0x01, 0x91, 0xca, 0xbd, 0xea, 0x30, 0x97, 0xbd,
	0x8d, 0xaa, 0xd5, 0x3e, 0xf5, 0xf9, 0x25, 0x3d, 0xd2, 0xd9, 0x3f, 0x3e,
	0x6b, 0x4e, 0x50, 0xbc, 0x50, 0xe7, 0xcc, 0x3e, 0x8b, 0xcb, 0x27, 0x3e,
	0x78, 0x68, 0xbb, 0x3d, 0xed, 0xed, 0x85, 0x3e, 0x9d, 0x4c, 0x01, 0x3d,
	0x11, 0x25, 0x5c, 0xbd, 0xb4, 0x48, 0x04, 0x3d, 0x61, 0x02, 0x49, 0x3e,
	0x0c, 0xbc, 0x5e, 0xbc, 0x59, 0x3b, 0xcb, 0xbe, 0xcd, 0xa8, 0x73, 0x3e,
	0xe4, 0xc1, 0x0b, 0x3f, 0x93, 0xa0, 0x33, 0x3d, 0xca, 0x7b, 0x4c, 0x3d,
	0x37, 0xbd, 0x15, 0xbf, 0x9c, 0xb5, 0x2a, 0x3e, 0xdd, 0xd1, 0x6f, 0xbe,
	0x33, 0xa1, 0xf4, 0xbd, 0x54, 0xed, 0x32, 0x3d, 0xfe, 0xa3, 0x31, 0x3c,
	0xaf, 0x6d, 0x01, 0xbe, 0xd5, 0xf2, 0x06, 0xbe, 0x22, 0x83, 0x67, 0x3e,
	0xe1, 0x67, 0x58, 0x3d, 0x1b, 0x07, 0x12, 0xbe, 0x1c, 0x44, 0x3c, 0xbe,
	0x65, 0xfd, 0xa2, 0xb9, 0xe6, 0xad, 0x6d, 0xbe, 0x66, 0x83, 0x6d, 0xbd,
	0xa7, 0x13, 0xdd, 0xbc, 0x38, 0x6c, 0xbe, 0xbc, 0x18, 0xa3, 0x47, 0x3d,
	0x56, 0xda, 0xea, 0xbd, 0x9a, 0x4b, 0x7a, 0x3c, 0x31, 0xba, 0x3f, 0x3d,
	0xb6, 0x81, 0x26, 0x3e, 0xac, 0xdb, 0xfc, 0xbc, 0x3e, 0x6c, 0xb3, 0xbd,
	0x8f, 0xf4, 0xc7, 0xbd, 0xf3, 0x4a, 0x9d, 0xbe, 0x49, 0x8e, 0xd7, 0x3e,
	0xca, 0x27, 0xe8, 0x3e, 0xdf, 0x81, 0x5e, 0xbe, 0x30, 0xc6, 0x87, 0x3e,
	0xc4, 0x9a, 0xcf, 0xbe, 0xdd, 0x74, 0xf0, 0x3d, 0xcf, 0x40, 0x3a, 0xbf,
	0xac, 0xf5, 0x9d, 0xbe, 0x05, 0x21, 0x07, 0x3e, 0x56, 0xfb, 0xe5, 0x3c,
	0xe3, 0x3c, 0x09, 0x3e, 0x9a, 0x81, 0xe6, 0xbd, 0x78, 0xc6, 0xba, 0xbd,
	0x6f, 0x65, 0x2e, 0x3d, 0x3a, 0x2f, 0xca, 0xbe, 0xb2, 0x3c, 0x82, 0x3d,
	0xa6, 0x44, 0x8b, 0x3e, 0x92, 0x0b, 0x6e, 0xbe, 0xae, 0xac, 0x78, 0x3d,
	0x1d, 0x69, 0x7b, 0x3c, 0x8a, 0x12, 0x67, 0x3c, 0xa3, 0xc7, 0x50, 0x3e,
	0xe6, 0x8c, 0x03, 0x3e, 0xfe, 0x01, 0xfa, 0xbd, 0x8f, 0x0e, 0x30, 0xbe,
	0x10, 0x01, 0x10, 0x3e, 0x34, 0x67, 0xd4, 0xbd, 0x43, 0x85, 0x50, 0xbd,
	0x83, 0x35, 0xba, 0xbe, 0x0a, 0x9a, 0xd9, 0xbd, 0xf6, 0xdf, 0x2c, 0x3e,
	0x57, 0xf5, 0x26, 0x3d, 0x0e, 0x13, 0xae, 0xbd, 0x95, 0xf0, 0x34, 0x3d,
	0x35, 0xaa, 0x3e, 0x3e, 0xa4, 0xb1, 0x8f, 0x3e, 0xbb, 0x33, 0x14, 0x3f,
	0xe5, 0x09, 0x7e, 0x3d, 0x78, 0x49, 0x85, 0x3e, 0x30, 0xc2, 0x9c, 0xbe,
	0x14, 0x1e, 0x68, 0x3e, 0xa8, 0x98, 0x2e, 0x3d, 0xb2, 0xf2, 0xa5, 0x3e,
	0x9c, 0x0f, 0x73, 0xbd, 0xbc, 0x32, 0xee, 0x3c, 0x63, 0x68, 0xf2, 0x3d,
	0xe5, 0x2d, 0x48, 0x3f, 0x74, 0xd1, 0x0b, 0xbe, 0xc1, 0x6e, 0x8d, 0xbd,
	0xf0, 0x62, 0x14, 0xbe, 0xe2, 0xa3, 0x12, 0xbd, 0xe1, 0xbf, 0x00, 0xbf,
	0x93, 0x5b, 0xd6, 0xbd, 0x23, 0x99, 0x98, 0xbd, 0xea, 0x3a, 0x79, 0x3e,
	0x9e, 0xb9, 0x54, 0xbd, 0x97, 0x21, 0xa6, 0x3e, 0x75, 0x45, 0x63, 0x3d,
	0xe1, 0xbb, 0x14, 0x3e, 0x87, 0x5d, 0xc7, 0xbc, 0x53, 0x40, 0x50, 0xbc,
	0xf9, 0x3f, 0x47, 0x3e, 0x8a, 0xf2, 0x0d, 0x3e, 0x03, 0xe0, 0xe9, 0xbd,
	0xee, 0xad, 0xba, 0xbe, 0x6a, 0x50, 0x8e, 0x3d, 0x92, 0x58, 0x64, 0x3c,
	0x1e, 0xbf, 0x8b, 0x3d, 0x5f, 0x75, 0x97, 0x3e, 0x39, 0x67, 0x75, 0x3d,
	0xa4, 0x38, 0x02, 0xbf, 0x78, 0xf1, 0x80, 0xbe, 0x8e, 0x14, 0x50, 0xbd,
	0x32, 0xb1, 0x4c, 0xbe, 0x4c, 0xd9, 0xac, 0xbd, 0xc4, 0xf5, 0x73, 0x3e,
	0x83, 0x80, 0x73, 0x3d, 0x3b, 0x2a, 0x84, 0x3e, 0x6d, 0x09, 0x70, 0x3d,
	0xdf, 0xaf, 0x21, 0x3e, 0x5d, 0xb3, 0x66, 0xbd, 0x4f, 0x35, 0xf5, 0x3d,
	0x43, 0xb7, 0x4d, 0xbd, 0x0e, 0x9b, 0xad, 0x3d, 0x74, 0xf1, 0x9f, 0x3d,
	0xf8, 0x37, 0x4a, 0xbe, 0x57, 0x70, 0xa0, 0x3e, 0xf4, 0x77, 0x44, 0xbc,
	0xa7, 0xdd, 0xc8, 0x3d, 0x4a, 0xda, 0x13, 0xbe, 0xdc, 0xeb, 0x66, 0xbe,
	0x98, 0xcf, 0x08, 0x3b, 0xce, 0x90, 0x83, 0xbd, 0xb7, 0xd5, 0x93, 0x3e,
	0x85, 0x0b, 0xf6, 0x3d, 0xd7, 0x87, 0x0f, 0x3e, 0xb4, 0x92, 0xe4, 0x3c,
	0xf7, 0xce, 0x61, 0x3d, 0x5f, 0xe9, 0xac, 0xbd, 0xe2, 0x53, 0xf5, 0xbc,
	0x4a, 0x9f, 0xd8, 0x3d, 0x74, 0x3c, 0x17, 0xbe, 0x36, 0x7f, 0x40, 0xbd,
	0x38, 0x31, 0x3b, 0xbe, 0x85, 0xee, 0xa9, 0x3e, 0x9b, 0x0e, 0x73, 0x3e,
	0x3e, 0x10, 0x10, 0x3d, 0xa5, 0x9a, 0xe3, 0x3d, 0xec, 0xca, 0xdf, 0xbd,
	0xe1, 0xd8, 0x48, 0x3c, 0x79, 0x99, 0xe1, 0xbe, 0x90, 0x63, 0x2a, 0xbe,
	0x73, 0xc3, 0x44, 0xbd, 0x4e, 0x54, 0x01, 0x3d, 0x8b, 0xcf, 0x4d, 0xbd,
	0x32, 0x8e, 0x56, 0x3e, 0x1d, 0x21, 0x13, 0x3d, 0x97, 0x40, 0x93, 0xbd,
	0xdb, 0x3a, 0x2f, 0xbe, 0x38, 0x28, 0x5a, 0xbe, 0x7e, 0x3c, 0xa7, 0x3c,
	0x59, 0x48, 0x5a, 0x3d, 0x74, 0xf0, 0x2f, 0xbe, 0x4d, 0x2f, 0x11, 0x3e,
	0x75, 0x7d, 0xba, 0x3b, 0xdf, 0xfb, 0xcb, 0xbd, 0x3f, 0x1d, 0xe1, 0xbd,
	0xa4, 0x27, 0xe9, 0xbd, 0x64, 0x74, 0xab, 0x3d, 0x55, 0x7b, 0x85, 0xbe,
	0x53, 0x79, 0x70, 0x3b, 0x1b, 0x09, 0x43, 0xbc, 0x16, 0x2d, 0xed, 0xbd,
	0x55, 0x07, 0x81, 0xbd, 0xe8, 0x81, 0x06, 0x3e, 0x9d, 0x8f, 0x5d, 0x3e,
	0x4e, 0x3c, 0x11, 0xbe, 0x03, 0xab, 0x95, 0x3d, 0x60, 0x61, 0x65, 0xbe,
	0xe2, 0x8d, 0x00, 0x3e, 0x16, 0xc5, 0xfc, 0x3c, 0x21, 0x8a, 0x43, 0x3e,
	0x58, 0x63, 0xec, 0xbe, 0x75, 0x9f, 0xc6, 0xbd, 0x3b, 0xb8, 0x91, 0x3e,
	0x72, 0xff, 0xff, 0xff, 0x04, 0x00, 0x00, 0x00, 0x80, 0x00, 0x00, 0x00,
	0x44, 0x05, 0x9b, 0xc0, 0x91, 0x05, 0x49, 0xbe, 0x4f, 0xd4, 0x0a, 0xbf,
	0x85, 0x54, 0x6d, 0xbf, 0xa1, 0x34, 0xc4, 0xbe, 0xef, 0x83, 0xa5, 0xbe,
	0x86, 0x68, 0x87, 0xbe, 0x50, 0xbc, 0x28, 0xbf, 0x8d, 0x8b, 0x2d, 0xbe,
	0x37, 0x02, 0x2c, 0xbe, 0x7f, 0xc8, 0x9d, 0xbe, 0xc3, 0xda, 0x16, 0x40,
	0x7d, 0x10, 0x31, 0xbf, 0x29, 0x3a, 0x84, 0x3f, 0x59, 0x4c, 0x31, 0x3f,
	0xca, 0x6e, 0x5d, 0xbf, 0x01, 0x6f, 0x62, 0x3f, 0xf5, 0x45, 0xa4, 0xbe,
	0xfc, 0x70, 0x8f, 0x3f, 0x39, 0xd7, 0xfe, 0xbe, 0xa8, 0x6a, 0xdb, 0xbe,
	0x76, 0x7e, 0x4c, 0xbe, 0xd3, 0xf2, 0x39, 0xbf, 0x39, 0xe9, 0x24, 0xbf,
	0xca, 0x86, 0x92, 0x3f, 0xf4, 0xf2, 0x83, 0xbe, 0x35, 0x6e, 0x9e, 0x3f,
	0x22, 0xa1, 0x5d, 0xbe, 0xdd, 0xd0, 0x05, 0x3f, 0xab, 0x6d, 0x11, 0xbf,
	0xe0, 0x63, 0x8a, 0xbe, 0xe6, 0xf2, 0x92, 0x3f, 0x00, 0x00, 0x06, 0x00,
	0x08, 0x00, 0x04, 0x00, 0x06, 0x00, 0x00, 0x00, 0x04, 0x00, 0x00, 0x00,
	0x18, 0x00, 0x00, 0x00, 0x5e, 0xfb, 0x74, 0x3e, 0x33, 0x9a, 0x8b, 0x3e,
	0x1b, 0x21, 0x13, 0xbf, 0x35, 0x1b, 0x0e, 0xbf, 0x76, 0xf2, 0x0b, 0xbf,
	0x0b, 0xa1, 0x70, 0xbf, 0xa8, 0xfa, 0xff, 0xff, 0xac, 0xfa, 0xff, 0xff,
	0x0f, 0x00, 0x00, 0x00, 0x4d, 0x4c, 0x49, 0x52, 0x20, 0x43, 0x6f, 0x6e,
	0x76, 0x65, 0x72, 0x74, 0x65, 0x64, 0x2e, 0x00, 0x01, 0x00, 0x00, 0x00,
	0x14, 0x00, 0x00, 0x00, 0x00, 0x00, 0x0e, 0x00, 0x18, 0x00, 0x14, 0x00,
	0x10, 0x00, 0x0c, 0x00, 0x08, 0x00, 0x04, 0x00, 0x0e, 0x00, 0x00, 0x00,
	0x14, 0x00, 0x00, 0x00, 0x1c, 0x00, 0x00, 0x00, 0xec, 0x00, 0x00, 0x00,
	0xf0, 0x00, 0x00, 0x00, 0xf4, 0x00, 0x00, 0x00, 0x04, 0x00, 0x00, 0x00,
	0x6d, 0x61, 0x69, 0x6e, 0x00, 0x00, 0x00, 0x00, 0x03, 0x00, 0x00, 0x00,
	0x90, 0x00, 0x00, 0x00, 0x48, 0x00, 0x00, 0x00, 0x04, 0x00, 0x00, 0x00,
	0x8a, 0xff, 0xff, 0xff, 0x1c, 0x00, 0x00, 0x00, 0x00, 0x00, 0x00, 0x08,
	0x1c, 0x00, 0x00, 0x00, 0x20, 0x00, 0x00, 0x00, 0x00, 0x00, 0x0a, 0x00,
	0x08, 0x00, 0x00, 0x00, 0x00, 0x00, 0x07, 0x00, 0x0a, 0x00, 0x00, 0x00,
	0x00, 0x00, 0x00, 0x01, 0x01, 0x00, 0x00, 0x00, 0x09, 0x00, 0x00, 0x00,
	0x03, 0x00, 0x00, 0x00, 0x08, 0x00, 0x00, 0x00, 0x03, 0x00, 0x00, 0x00,
	0x01, 0x00, 0x00, 0x00, 0xca, 0xff, 0xff, 0xff, 0x10, 0x00, 0x00, 0x00,
	0x00, 0x00, 0x00, 0x08, 0x10, 0x00, 0x00, 0x00, 0x14, 0x00, 0x00, 0x00,
	0xba, 0xff, 0xff, 0xff, 0x00, 0x00, 0x01, 0x01, 0x01, 0x00, 0x00, 0x00,
	0x08, 0x00, 0x00, 0x00, 0x03, 0x00, 0x00, 0x00, 0x07, 0x00, 0x00, 0x00,
	0x04, 0x00, 0x00, 0x00, 0x02, 0x00, 0x00, 0x00, 0x00, 0x00, 0x0e, 0x00,
	0x16, 0x00, 0x00, 0x00, 0x10, 0x00, 0x0c, 0x00, 0x0b, 0x00, 0x04, 0x00,
	0x0e, 0x00, 0x00, 0x00, 0x1c, 0x00, 0x00, 0x00, 0x00, 0x00, 0x00, 0x08,
	0x1c, 0x00, 0x00, 0x00, 0x20, 0x00, 0x00, 0x00, 0x00, 0x00, 0x0a, 0x00,
	0x08, 0x00, 0x07, 0x00, 0x00, 0x00, 0x06, 0x00, 0x0a, 0x00, 0x00, 0x00,
	0x00, 0x00, 0x01, 0x01, 0x01, 0x00, 0x00, 0x00, 0x07, 0x00, 0x00, 0x00,
	0x03, 0x00, 0x00, 0x00, 0x00, 0x00, 0x00, 0x00, 0x05, 0x00, 0x00, 0x00,
	0x06, 0x00, 0x00, 0x00, 0x01, 0x00, 0x00, 0x00, 0x09, 0x00, 0x00, 0x00,
	0x01, 0x00, 0x00, 0x00, 0x00, 0x00, 0x00, 0x00, 0x0a, 0x00, 0x00, 0x00,
	0x00, 0x04, 0x00, 0x00, 0x84, 0x03, 0x00, 0x00, 0x08, 0x03, 0x00, 0x00,
	0x9c, 0x02, 0x00, 0x00, 0x34, 0x02, 0x00, 0x00, 0xcc, 0x01, 0x00, 0x00,
	0x50, 0x01, 0x00, 0x00, 0xd0, 0x00, 0x00, 0x00, 0x50, 0x00, 0x00, 0x00,
	0x04, 0x00, 0x00, 0x00, 0x3e, 0xfc, 0xff, 0xff, 0x00, 0x00, 0x00, 0x01,
	0x10, 0x00, 0x00, 0x00, 0x10, 0x00, 0x00, 0x00, 0x0a, 0x00, 0x00, 0x00,
	0x28, 0x00, 0x00, 0x00, 0x28, 0xfc, 0xff, 0xff, 0x19, 0x00, 0x00, 0x00,
	0x53, 0x74, 0x61, 0x74, 0x65, 0x66, 0x75, 0x6c, 0x50, 0x61, 0x72, 0x74,
	0x69, 0x74, 0x69, 0x6f, 0x6e, 0x65, 0x64, 0x43, 0x61, 0x6c, 0x6c, 0x3a,
	0x30, 0x00, 0x00, 0x00, 0x02, 0x00, 0x00, 0x00, 0x01, 0x00, 0x00, 0x00,
	0x06, 0x00, 0x00, 0x00, 0x86, 0xfc, 0xff, 0xff, 0x00, 0x00, 0x00, 0x01,
	0x10, 0x00, 0x00, 0x00, 0x10, 0x00, 0x00, 0x00, 0x09, 0x00, 0x00, 0x00,
	0x5c, 0x00, 0x00, 0x00, 0x70, 0xfc, 0xff, 0xff, 0x4c, 0x00, 0x00, 0x00,
	0x5f, 0x5f, 0x6d, 0x61, 0x69, 0x6e, 0x5f, 0x5f, 0x2e, 0x65, 0x32, 0x65,
	0x4e, 0x65, 0x74, 0x77, 0x6f, 0x72, 0x6b, 0x2f, 0x74, 0x6f, 0x72, 0x63,
	0x68, 0x2e, 0x6e, 0x6e, 0x2e, 0x6d, 0x6f, 0x64, 0x75, 0x6c, 0x65, 0x73,
	0x2e, 0x6c, 0x69, 0x6e, 0x65, 0x61, 0x72, 0x2e, 0x4c, 0x69, 0x6e, 0x65,
	0x61, 0x72, 0x5f, 0x66, 0x63, 0x32, 0x3b, 0x3b, 0x5f, 0x5f, 0x6d, 0x61,
	0x69, 0x6e, 0x5f, 0x5f, 0x2e, 0x65, 0x32, 0x65, 0x4e, 0x65, 0x74, 0x77,
	0x6f, 0x72, 0x6b, 0x3b, 0x00, 0x00, 0x00, 0x00, 0x02, 0x00, 0x00, 0x00,
	0x01, 0x00, 0x00, 0x00, 0x20, 0x00, 0x00, 0x00, 0x02, 0xfd, 0xff, 0xff,
	0x00, 0x00, 0x00, 0x01, 0x10, 0x00, 0x00, 0x00, 0x10, 0x00, 0x00, 0x00,
	0x08, 0x00, 0x00, 0x00, 0x5c, 0x00, 0x00, 0x00, 0xec, 0xfc, 0xff, 0xff,
	0x4c, 0x00, 0x00, 0x00, 0x5f, 0x5f, 0x6d, 0x61, 0x69, 0x6e, 0x5f, 0x5f,
	0x2e, 0x65, 0x32, 0x65, 0x4e, 0x65, 0x74, 0x77, 0x6f, 0x72, 0x6b, 0x2f,
	0x74, 0x6f, 0x72, 0x63, 0x68, 0x2e, 0x6e, 0x6e, 0x2e, 0x6d, 0x6f, 0x64,
	0x75, 0x6c, 0x65, 0x73, 0x2e, 0x6c, 0x69, 0x6e, 0x65, 0x61, 0x72, 0x2e,
	0x4c, 0x69, 0x6e, 0x65, 0x61, 0x72, 0x5f, 0x66, 0x63, 0x31, 0x3b, 0x3b,
	0x5f, 0x5f, 0x6d, 0x61, 0x69, 0x6e, 0x5f, 0x5f, 0x2e, 0x65, 0x32, 0x65,
	0x4e, 0x65, 0x74, 0x77, 0x6f, 0x72, 0x6b, 0x3b, 0x00, 0x00, 0x00, 0x00,
	0x02, 0x00, 0x00, 0x00, 0x01, 0x00, 0x00, 0x00, 0x40, 0x00, 0x00, 0x00,
	0x7e, 0xfd, 0xff, 0xff, 0x00, 0x00, 0x00, 0x01, 0x10, 0x00, 0x00, 0x00,
	0x10, 0x00, 0x00, 0x00, 0x07, 0x00, 0x00, 0x00, 0x5c, 0x00, 0x00, 0x00,
	0x68, 0xfd, 0xff, 0xff, 0x4c, 0x00, 0x00, 0x00, 0x5f, 0x5f, 0x6d, 0x61,
	0x69, 0x6e, 0x5f, 0x5f, 0x2e, 0x65, 0x32, 0x65, 0x4e, 0x65, 0x74, 0x77,
	0x6f, 0x72, 0x6b, 0x3b, 0x3b, 0x5f, 0x5f, 0x6d, 0x61, 0x69, 0x6e, 0x5f,
	0x5f, 0x2e, 0x65, 0x32, 0x65, 0x4e, 0x65, 0x74, 0x77, 0x6f, 0x72, 0x6b,
	0x2f, 0x74, 0x6f, 0x72, 0x63, 0x68, 0x2e, 0x6e, 0x6e, 0x2e, 0x6d, 0x6f,
	0x64, 0x75, 0x6c, 0x65, 0x73, 0x2e, 0x6c, 0x69, 0x6e, 0x65, 0x61, 0x72,
	0x2e, 0x4c, 0x69, 0x6e, 0x65, 0x61, 0x72, 0x5f, 0x66, 0x63, 0x31, 0x3b,
	0x00, 0x00, 0x00, 0x00, 0x01, 0x00, 0x00, 0x00, 0x40, 0x00, 0x00, 0x00,
	0xf6, 0xfd, 0xff, 0xff, 0x00, 0x00, 0x00, 0x01, 0x10, 0x00, 0x00, 0x00,
	0x10, 0x00, 0x00, 0x00, 0x06, 0x00, 0x00, 0x00, 0x44, 0x00, 0x00, 0x00,
	0xe0, 0xfd, 0xff, 0xff, 0x37, 0x00, 0x00, 0x00, 0x5f, 0x5f, 0x6d, 0x61,
	0x69, 0x6e, 0x5f, 0x5f, 0x2e, 0x65, 0x32, 0x65, 0x4e, 0x65, 0x74, 0x77,
	0x6f, 0x72, 0x6b, 0x2f, 0x74, 0x6f, 0x72, 0x63, 0x68, 0x2e, 0x6e, 0x6e,
	0x2e, 0x6d, 0x6f, 0x64, 0x75, 0x6c, 0x65, 0x73, 0x2e, 0x6c, 0x69, 0x6e,
	0x65, 0x61, 0x72, 0x2e, 0x4c, 0x69, 0x6e, 0x65, 0x61, 0x72, 0x5f, 0x66,
	0x63, 0x31, 0x3b, 0x00, 0x02, 0x00, 0x00, 0x00, 0x40, 0x00, 0x00, 0x00,
	0x0f, 0x00, 0x00, 0x00, 0x5a, 0xfe, 0xff, 0xff, 0x00, 0x00, 0x00, 0x01,
	0x10, 0x00, 0x00, 0x00, 0x10, 0x00, 0x00, 0x00, 0x05, 0x00, 0x00, 0x00,
	0x44, 0x00, 0x00, 0x00, 0x44, 0xfe, 0xff, 0xff, 0x37, 0x00, 0x00, 0x00,
	0x5f, 0x5f, 0x6d, 0x61, 0x69, 0x6e, 0x5f, 0x5f, 0x2e, 0x65, 0x32, 0x65,
	0x4e, 0x65, 0x74, 0x77, 0x6f, 0x72, 0x6b, 0x2f, 0x74, 0x6f, 0x72, 0x63,
	0x68, 0x2e, 0x6e, 0x6e, 0x2e, 0x6d, 0x6f, 0x64, 0x75, 0x6c, 0x65, 0x73,
	0x2e, 0x6c, 0x69, 0x6e, 0x65, 0x61, 0x72, 0x2e, 0x4c, 0x69, 0x6e, 0x65,
	0x61, 0x72, 0x5f, 0x66, 0x63, 0x32, 0x3b, 0x00, 0x02, 0x00, 0x00, 0x00,
	0x20, 0x00, 0x00, 0x00, 0x40, 0x00, 0x00, 0x00, 0xbe, 0xfe, 0xff, 0xff,
	0x00, 0x00, 0x00, 0x01, 0x10, 0x00, 0x00, 0x00, 0x10, 0x00, 0x00, 0x00,
	0x04, 0x00, 0x00, 0x00, 0x48, 0x00, 0x00, 0x00, 0xa8, 0xfe, 0xff, 0xff,
	0x38, 0x00, 0x00, 0x00, 0x5f, 0x5f, 0x6d, 0x61, 0x69, 0x6e, 0x5f, 0x5f,
	0x2e, 0x65, 0x32, 0x65, 0x4e, 0x65, 0x74, 0x77, 0x6f, 0x72, 0x6b, 0x2f,
	0x74, 0x6f, 0x72, 0x63, 0x68, 0x2e, 0x6e, 0x6e, 0x2e, 0x6d, 0x6f, 0x64,
	0x75, 0x6c, 0x65, 0x73, 0x2e, 0x6c, 0x69, 0x6e, 0x65, 0x61, 0x72, 0x2e,
	0x4c, 0x69, 0x6e, 0x65, 0x61, 0x72, 0x5f, 0x66, 0x63, 0x33, 0x3b, 0x31,
	0x00, 0x00, 0x00, 0x00, 0x02, 0x00, 0x00, 0x00, 0x06, 0x00, 0x00, 0x00,
	0x20, 0x00, 0x00, 0x00, 0x26, 0xff, 0xff, 0xff, 0x00, 0x00, 0x00, 0x01,
	0x10, 0x00, 0x00, 0x00, 0x10, 0x00, 0x00, 0x00, 0x03, 0x00, 0x00, 0x00,
	0x5c, 0x00, 0x00, 0x00, 0x10, 0xff, 0xff, 0xff, 0x4c, 0x00, 0x00, 0x00,
	0x5f, 0x5f, 0x6d, 0x61, 0x69, 0x6e, 0x5f, 0x5f, 0x2e, 0x65, 0x32, 0x65,
	0x4e, 0x65, 0x74, 0x77, 0x6f, 0x72, 0x6b, 0x3b, 0x3b, 0x5f, 0x5f, 0x6d,
	0x61, 0x69, 0x6e, 0x5f, 0x5f, 0x2e, 0x65, 0x32, 0x65, 0x4e, 0x65, 0x74,
	0x77, 0x6f, 0x72, 0x6b, 0x2f, 0x74, 0x6f, 0x72, 0x63, 0x68, 0x2e, 0x6e,
	0x6e, 0x2e, 0x6d, 0x6f, 0x64, 0x75, 0x6c, 0x65, 0x73, 0x2e, 0x6c, 0x69,
	0x6e, 0x65, 0x61, 0x72, 0x2e, 0x4c, 0x69, 0x6e, 0x65, 0x61, 0x72, 0x5f,
	0x66, 0x63, 0x32, 0x3b, 0x00, 0x00, 0x00, 0x00, 0x01, 0x00, 0x00, 0x00,
	0x20, 0x00, 0x00, 0x00, 0x9e, 0xff, 0xff, 0xff, 0x00, 0x00, 0x00, 0x01,
	0x10, 0x00, 0x00, 0x00, 0x10, 0x00, 0x00, 0x00, 0x02, 0x00, 0x00, 0x00,
	0x44, 0x00, 0x00, 0x00, 0x88, 0xff, 0xff, 0xff, 0x37, 0x00, 0x00, 0x00,
	0x5f, 0x5f, 0x6d, 0x61, 0x69, 0x6e, 0x5f, 0x5f, 0x2e, 0x65, 0x32, 0x65,
	0x4e, 0x65, 0x74, 0x77, 0x6f, 0x72, 0x6b, 0x2f, 0x74, 0x6f, 0x72, 0x63,
	0x68, 0x2e, 0x6e, 0x6e, 0x2e, 0x6d, 0x6f, 0x64, 0x75, 0x6c, 0x65, 0x73,
	0x2e, 0x6c, 0x69, 0x6e, 0x65, 0x61, 0x72, 0x2e, 0x4c, 0x69, 0x6e, 0x65,
	0x61, 0x72, 0x5f, 0x66, 0x63, 0x33, 0x3b, 0x00, 0x01, 0x00, 0x00, 0x00,
	0x06, 0x00, 0x00, 0x00, 0x00, 0x00, 0x16, 0x00, 0x18, 0x00, 0x14, 0x00,
	0x00, 0x00, 0x10, 0x00, 0x0c, 0x00, 0x08, 0x00, 0x00, 0x00, 0x00, 0x00,
	0x00, 0x00, 0x07, 0x00, 0x16, 0x00, 0x00, 0x00, 0x00, 0x00, 0x00, 0x01,
	0x14, 0x00, 0x00, 0x00, 0x14, 0x00, 0x00, 0x00, 0x01, 0x00, 0x00, 0x00,
	0x2c, 0x00, 0x00, 0x00, 0x04, 0x00, 0x04, 0x00, 0x04, 0x00, 0x00, 0x00,
	0x18, 0x00, 0x00, 0x00, 0x73, 0x65, 0x72, 0x76, 0x69, 0x6e, 0x67, 0x5f,
	0x64, 0x65, 0x66, 0x61, 0x75, 0x6c, 0x74, 0x5f, 0x61, 0x72, 0x67, 0x73,
	0x5f, 0x30, 0x3a, 0x30, 0x00, 0x00, 0x00, 0x00, 0x02, 0x00, 0x00, 0x00,
	0x01, 0x00, 0x00, 0x00, 0x0f, 0x00, 0x00, 0x00, 0x01, 0x00, 0x00, 0x00,
	0x10, 0x00, 0x00, 0x00, 0x0c, 0x00, 0x10, 0x00, 0x0f, 0x00, 0x00, 0x00,
	0x08, 0x00, 0x04, 0x00, 0x0c, 0x00, 0x00, 0x00, 0x09, 0x00, 0x00, 0x00,
	0x05, 0x00, 0x00, 0x00, 0x00, 0x00, 0x00, 0x09
};
