#include <cstdint>
#include "control_net.hpp"

alignas(16) const unsigned char control_net_tflite[] = {
	0x1c, 0x00, 0x00, 0x00, 0x54, 0x46, 0x4c, 0x33, 0x14, 0x00, 0x20, 0x00,
	0x1c, 0x00, 0x18, 0x00, 0x14, 0x00, 0x10, 0x00, 0x0c, 0x00, 0x00, 0x00,
	0x08, 0x00, 0x04, 0x00, 0x14, 0x00, 0x00, 0x00, 0x1c, 0x00, 0x00, 0x00,
	0x90, 0x00, 0x00, 0x00, 0xe8, 0x00, 0x00, 0x00, 0xb0, 0x35, 0x00, 0x00,
	0xc0, 0x35, 0x00, 0x00, 0x2c, 0x3b, 0x00, 0x00, 0x03, 0x00, 0x00, 0x00,
	0x01, 0x00, 0x00, 0x00, 0x10, 0x00, 0x00, 0x00, 0x00, 0x00, 0x0a, 0x00,
	0x10, 0x00, 0x0c, 0x00, 0x08, 0x00, 0x04, 0x00, 0x0a, 0x00, 0x00, 0x00,
	0x0c, 0x00, 0x00, 0x00, 0x1c, 0x00, 0x00, 0x00, 0x3c, 0x00, 0x00, 0x00,
	0x0f, 0x00, 0x00, 0x00, 0x73, 0x65, 0x72, 0x76, 0x69, 0x6e, 0x67, 0x5f,
	0x64, 0x65, 0x66, 0x61, 0x75, 0x6c, 0x74, 0x00, 0x01, 0x00, 0x00, 0x00,
	0x04, 0x00, 0x00, 0x00, 0x98, 0xff, 0xff, 0xff, 0x09, 0x00, 0x00, 0x00,
	0x04, 0x00, 0x00, 0x00, 0x08, 0x00, 0x00, 0x00, 0x6f, 0x75, 0x74, 0x70,
	0x75, 0x74, 0x5f, 0x30, 0x00, 0x00, 0x00, 0x00, 0x01, 0x00, 0x00, 0x00,
	0x04, 0x00, 0x00, 0x00, 0xf6, 0xca, 0xff, 0xff, 0x04, 0x00, 0x00, 0x00,
	0x06, 0x00, 0x00, 0x00, 0x61, 0x72, 0x67, 0x73, 0x5f, 0x30, 0x00, 0x00,
	0x02, 0x00, 0x00, 0x00, 0x34, 0x00, 0x00, 0x00, 0x04, 0x00, 0x00, 0x00,
	0xdc, 0xff, 0xff, 0xff, 0x0c, 0x00, 0x00, 0x00, 0x04, 0x00, 0x00, 0x00,
	0x13, 0x00, 0x00, 0x00, 0x43, 0x4f, 0x4e, 0x56, 0x45, 0x52, 0x53, 0x49,
	0x4f, 0x4e, 0x5f, 0x4d, 0x45, 0x54, 0x41, 0x44, 0x41, 0x54, 0x41, 0x00,
	0x08, 0x00, 0x0c, 0x00, 0x08, 0x00, 0x04, 0x00, 0x08, 0x00, 0x00, 0x00,
	0x0b, 0x00, 0x00, 0x00, 0x04, 0x00, 0x00, 0x00, 0x13, 0x00, 0x00, 0x00,
	0x6d, 0x69, 0x6e, 0x5f, 0x72, 0x75, 0x6e, 0x74, 0x69, 0x6d, 0x65, 0x5f,
	0x76, 0x65, 0x72, 0x73, 0x69, 0x6f, 0x6e, 0x00, 0x0d, 0x00, 0x00, 0x00,
	0xc4, 0x34, 0x00, 0x00, 0xbc, 0x34, 0x00, 0x00, 0x94, 0x34, 0x00, 0x00,
	0xfc, 0x33, 0x00, 0x00, 0xec, 0x30, 0x00, 0x00, 0xdc, 0x10, 0x00, 0x00,
	0xcc, 0x01, 0x00, 0x00, 0xbc, 0x00, 0x00, 0x00, 0xb4, 0x00, 0x00, 0x00,
	0xac, 0x00, 0x00, 0x00, 0xa4, 0x00, 0x00, 0x00, 0x84, 0x00, 0x00, 0x00,
	0x04, 0x00, 0x00, 0x00, 0x9e, 0xcb, 0xff, 0xff, 0x04, 0x00, 0x00, 0x00,
	0x70, 0x00, 0x00, 0x00, 0x10, 0x00, 0x00, 0x00, 0x00, 0x00, 0x00, 0x00,
	0x08, 0x00, 0x0e, 0x00, 0x08, 0x00, 0x04, 0x00, 0x08, 0x00, 0x00, 0x00,
	0x10, 0x00, 0x00, 0x00, 0x24, 0x00, 0x00, 0x00, 0x00, 0x00, 0x06, 0x00,
	0x08, 0x00, 0x04, 0x00, 0x06, 0x00, 0x00, 0x00, 0x04, 0x00, 0x00, 0x00,
	0x00, 0x00, 0x00, 0x00, 0x0c, 0x00, 0x1c, 0x00, 0x18, 0x00, 0x14, 0x00,
	0x10, 0x00, 0x04, 0x00, 0x0c, 0x00, 0x00, 0x00, 0x65, 0xf3, 0x71, 0x9e,
	0x86, 0x9a, 0xb9, 0x4d, 0x00, 0x00, 0x00, 0x00, 0x01, 0x00, 0x00, 0x00,
	0x02, 0x00, 0x00, 0x00, 0x04, 0x00, 0x00, 0x00, 0x12, 0x00, 0x00, 0x00,
	0x32, 0x2e, 0x32, 0x31, 0x2e, 0x30, 0x2d, 0x64, 0x65, 0x76, 0x32, 0x30,
	0x32, 0x35, 0x30, 0x38, 0x31, 0x38, 0x00, 0x00, 0x1a, 0xcc, 0xff, 0xff,
	0x04, 0x00, 0x00, 0x00, 0x10, 0x00, 0x00, 0x00, 0x32, 0x2e, 0x30, 0x2e,
	0x30, 0x00, 0x00, 0x00, 0x00, 0x00, 0x00, 0x00, 0x00, 0x00, 0x00, 0x00,
	0xb4, 0xc6, 0xff, 0xff, 0xb8, 0xc6, 0xff, 0xff, 0xbc, 0xc6, 0xff, 0xff,
	0x42, 0xcc, 0xff, 0xff, 0x04, 0x00, 0x00, 0x00, 0x00, 0x01, 0x00, 0x00,
	0xd8, 0xa2, 0xd1, 0xbf, 0xce, 0x36, 0x51, 0xc0, 0x49, 0xa4, 0x62, 0xc0,
	0x35, 0xc0, 0xda, 0xbf, 0x9b, 0xaa, 0xa5, 0xbf, 0xd3, 0x02, 0xd9, 0xbf,
	0xf0, 0xb2, 0x2f, 0xc0, 0xed, 0x66, 0x89, 0xbf, 0xde, 0xd8, 0xbb, 0xc0,
	0xe4, 0x04, 0x98, 0xbf, 0x25, 0xf7, 0x9e, 0xbf, 0xd4, 0x17, 0x00, 0xbf,
	0x57, 0xc6, 0x74, 0xbf, 0x61, 0x2a, 0xa7, 0xbf, 0x62, 0x37, 0x2f, 0x3f,
	0x88, 0x64, 0x4c, 0xbf, 0x8c, 0x42, 0x31, 0xbf, 0x65, 0xe2, 0x7f, 0xc0,
	0x6b, 0xef, 0xa6, 0xbf, 0x36, 0xed, 0xd2, 0x3d, 0xf4, 0x53, 0x63, 0xc0,
	0x80, 0x3b, 0x43, 0xc0, 0x2f, 0x49, 0x27, 0xbf, 0x4b, 0xe3, 0xce, 0xbf,
	0xa8, 0xf8, 0x78, 0xc0, 0x76, 0x54, 0xe1, 0xbf, 0x1e, 0xd7, 0x96, 0xbf,
	0x2d, 0x7c, 0x41, 0xc0, 0xf0, 0xba, 0x07, 0xc0, 0x08, 0xcf, 0xd0, 0xbe,
	0x1b, 0xc1, 0x73, 0xbf, 0x04, 0x74, 0xea, 0xbf, 0x2b, 0xe1, 0x39, 0xc0,
	0x60, 0x91, 0xc8, 0xbf, 0x74, 0x8e, 0x18, 0xc0, 0xf4, 0xbc, 0x53, 0xc0,
	0x29, 0x51, 0xd1, 0xbf, 0x5c, 0xdb, 0xce, 0xbf, 0x45, 0x24, 0x9d, 0xbf,
	0xaa, 0x05, 0xcf, 0xbf, 0x2d, 0xc3, 0xe0, 0x3d, 0x59, 0x1f, 0x49, 0xc0,
	0x64, 0xa3, 0x2f, 0xc0, 0x45, 0xec, 0xb2, 0xbf, 0x71, 0x38, 0x4d, 0xc0,
	0x2c, 0x67, 0xe6, 0xbf, 0x39, 0x92, 0x1a, 0xc0, 0x90, 0xc8, 0xb6, 0xbf,
	0x7d, 0x83, 0x30, 0xc0, 0x6c, 0x4d, 0x6c, 0xc0, 0xc1, 0x33, 0x00, 0xc0,
	0x8e, 0xa9, 0xd3, 0xbf, 0xba, 0xce, 0x99, 0xbe, 0xea, 0x38, 0x14, 0xc0,
	0x90, 0xe4, 0x60, 0xc0, 0x59, 0x85, 0xfa, 0xbe, 0x09, 0xa5, 0xd8, 0xbe,
	0x94, 0xf5, 0xec, 0xbe, 0x3c, 0xce, 0xbd, 0xbf, 0x9e, 0xd9, 0x20, 0xc0,
	0xb1, 0x8e, 0xa8, 0xbf, 0x72, 0x5d, 0x3d, 0xbf, 0x03, 0x18, 0xf2, 0xbf,
	0xf5, 0x9d, 0x54, 0xc0, 0x4e, 0xcd, 0xff, 0xff, 0x04, 0x00, 0x00, 0x00,
	0x00, 0x0f, 0x00, 0x00, 0x66, 0xc3, 0x0f, 0xbe, 0xd1, 0x5f, 0x49, 0x3e,
	0x02, 0x2e, 0x34, 0x3d, 0xe9, 0xac, 0xb6, 0xbf, 0xb3, 0xbf, 0x30, 0x3e,
	0xf0, 0x31, 0x57, 0x3f, 0x7d, 0x9d, 0xcf, 0xbf, 0x76, 0x44, 0x25, 0xbf,
	0x23, 0x50, 0xd2, 0xc0, 0x48, 0xf3, 0x5e, 0xbc, 0xd1, 0x2a, 0x88, 0xbf,
	0x47, 0x97, 0x52, 0x3e, 0xc8, 0x9b, 0xe4, 0xbe, 0x6e, 0xd9, 0x0b, 0x3e,
	0x3f, 0x1b, 0xa0, 0x3d, 0x1f, 0xcf, 0x8c, 0xbd, 0xac, 0x60, 0xc7, 0xbd,
	0x18, 0x74, 0x04, 0xbf, 0x71, 0x3a, 0x89, 0x3e, 0x88, 0xa3, 0xc8, 0xbf,
	0x3f, 0xe5, 0x8c, 0x40, 0x86, 0xf5, 0x30, 0xbe, 0x47, 0x07, 0xb8, 0x3e,
	0x39, 0x35, 0x42, 0x40, 0x62, 0x25, 0x92, 0xbd, 0x63, 0x57, 0x5c, 0xbf,
	0x37, 0xed, 0x43, 0xbf, 0x13, 0x3c, 0xcd, 0xbe, 0xf6, 0x49, 0x43, 0x3e,
	0xa3, 0xc1, 0x59, 0x3e, 0xd2, 0x66, 0x7a, 0xbf, 0x67, 0x94, 0x29, 0xbf,
	0x82, 0x11, 0xa5, 0xbf, 0x6d, 0xe0, 0xb8, 0xbe, 0x9e, 0xf5, 0x77, 0x3f,
	0x50, 0xd5, 0xc8, 0xbd, 0xa7, 0xb7, 0xc4, 0x3f, 0xa6, 0xda, 0x2f, 0x3d,
	0x30, 0xe0, 0x11, 0x40, 0x0f, 0x77, 0x7f, 0xbd, 0x92, 0xf2, 0x0a, 0xbf,
	0xa7, 0x63, 0xe6, 0x3e, 0x21, 0x4c, 0x7a, 0xbf, 0x1e, 0x8f, 0xf6, 0x3e,
	0xa8, 0xab, 0xce, 0xbe, 0x40, 0x9a, 0xf5, 0x3d, 0x51, 0x79, 0x35, 0x3e,
	0xb2, 0xd4, 0x8c, 0x3d, 0x5d, 0xa0, 0xca, 0x3e, 0xdd, 0x3c, 0x37, 0x3f,
	0x12, 0xb1, 0xae, 0xc0, 0xfc, 0x2c, 0xae, 0xbe, 0xa5, 0xe2, 0x56, 0x3f,
	0x2f, 0xbb, 0x50, 0x40, 0x76, 0x5e, 0x73, 0xbe, 0xa4, 0x78, 0x45, 0x3f,
	0xeb, 0xd8, 0x00, 0xbf, 0x43, 0xa2, 0x1c, 0xbf, 0xff, 0xa9, 0xf5, 0xbe,
	0x0b, 0x08, 0x80, 0xbf, 0x8d, 0x7b, 0x16, 0xc0, 0x84, 0x4a, 0x1d, 0x3f,
	0xf1, 0x8a, 0x37, 0xbf, 0xf2, 0xcb, 0xd4, 0xbe, 0xe3, 0xc9, 0x0c, 0xbd,
	0x46, 0xff, 0xc6, 0xbf, 0x4a, 0xe2, 0xf6, 0xbe, 0x86, 0xc9, 0x4e, 0x3e,
	0x2d, 0xab, 0x89, 0x40, 0xad, 0xf0, 0xad, 0xbf, 0xe5, 0x37, 0x07, 0xbd,
	0x0e, 0xdf, 0x30, 0x3f, 0x73, 0x8e, 0x71, 0xbd, 0xdb, 0x45, 0x30, 0xbe,
	0xe1, 0xb0, 0xf0, 0x3e, 0x0e, 0x3f, 0x84, 0xbf, 0x47, 0x28, 0x4f, 0x3f,
	0x8f, 0x4b, 0x3a, 0xbf, 0xe0, 0xeb, 0x54, 0xbe, 0x14, 0xee, 0x02, 0x40,
	0x93, 0xb1, 0x8c, 0x40, 0xe1, 0x5b, 0xe4, 0xbe, 0x94, 0x24, 0x9b, 0x3d,
	0x47, 0xf5, 0x6f, 0x40, 0x84, 0x6e, 0x7e, 0x3f, 0x01, 0x48, 0x49, 0xbc,
	0xff, 0x54, 0x69, 0x3f, 0xce, 0xf1, 0x47, 0xbe, 0x37, 0x4c, 0xb6, 0xbe,
	0x08, 0xb6, 0x82, 0xbd, 0x83, 0x99, 0xdb, 0xbf, 0x2d, 0x73, 0x84, 0xbf,
	0x6c, 0x95, 0x8d, 0xbe, 0xe2, 0xe8, 0x22, 0x3e, 0x09, 0x47, 0xb6, 0xbe,
	0xd5, 0x41, 0xaa, 0x3e, 0x44, 0x6a, 0x88, 0xbe, 0x81, 0x46, 0x09, 0x3f,
	0x9e, 0x8e, 0xc3, 0x3d, 0x3b, 0x18, 0x3e, 0x3f, 0xdd, 0xe0, 0xa5, 0xbe,
	0xea, 0x5e, 0x84, 0xbf, 0x46, 0x27, 0xa4, 0xbe, 0x8d, 0x79, 0x02, 0x3d,
	0xb0, 0x21, 0x04, 0xbf, 0x45, 0x10, 0x9e, 0xc0, 0x30, 0x6e, 0x08, 0x3f,
	0xe3, 0xa9, 0xf8, 0x3d, 0x7a, 0x0c, 0x70, 0x3f, 0x73, 0x18, 0xa7, 0xbe,
	0xb2, 0xe5, 0x5f, 0x40, 0x76, 0x96, 0xac, 0x3d, 0xd4, 0x06, 0x3e, 0x3e,
	0xc3, 0xea, 0xff, 0x3d, 0xa3, 0xaf, 0xec, 0x3f, 0xc4, 0x77, 0x5d, 0xbc,
	0xec, 0xbc, 0x8d, 0xbd, 0x8d, 0xcf, 0x86, 0xbc, 0xcc, 0xaa, 0x0f, 0xbd,
	0x57, 0x8b, 0x4e, 0x3d, 0xa1, 0xc2, 0xd0, 0xbe, 0x9c, 0x19, 0x9c, 0xbf,
	0x08, 0x27, 0x44, 0x3f, 0x42, 0xba, 0xff, 0x3c, 0x3a, 0x01, 0x0c, 0x3f,
	0x46, 0xa7, 0x15, 0x40, 0x34, 0xc5, 0x6c, 0x3f, 0x29, 0xe9, 0xf5, 0xbe,
	0x47, 0x51, 0x9b, 0x40, 0x9e, 0x38, 0xb8, 0x3e, 0xd4, 0x2e, 0x9c, 0x3e,
	0x3e, 0xc5, 0x04, 0xc0, 0x1a, 0x3c, 0x80, 0xbe, 0xb9, 0xcf, 0x2d, 0x3f,
	0xc7, 0x31, 0xa6, 0xbe, 0xcd, 0x43, 0x70, 0x3e, 0xa5, 0xac, 0x4d, 0x3f,
	0xee, 0xec, 0x17, 0x3e, 0x0a, 0x5c, 0x82, 0xbf, 0x80, 0xc2, 0x9f, 0xbf,
	0x83, 0x45, 0xaa, 0xc0, 0xc5, 0x9d, 0xac, 0x3f, 0x91, 0xc1, 0xab, 0x3e,
	0x86, 0x55, 0x91, 0xc0, 0x21, 0x39, 0xde, 0x3c, 0xa9, 0xb7, 0x82, 0xbe,
	0xc1, 0xc8, 0xa4, 0xbe, 0x2a, 0xeb, 0xd9, 0xbe, 0xd0, 0x95, 0x9d, 0xbe,
	0x50, 0xcf, 0x3a, 0x3e, 0xe1, 0x03, 0xd3, 0xbe, 0x00, 0xea, 0x17, 0xbf,
	0x15, 0x97, 0x6f, 0x3d, 0xe9, 0xe2, 0x32, 0xbf, 0x8f, 0x4c, 0x7d, 0x3f,
	0x71, 0x50, 0x31, 0xc0, 0x5c, 0x96, 0x72, 0xbf, 0x54, 0x44, 0x1e, 0x3f,
	0xcc, 0xfe, 0x6c, 0x3f, 0x14, 0x42, 0xd0, 0xbf, 0x54, 0x52, 0x18, 0x3f,
	0xd3, 0x86, 0xc6, 0x3e, 0xc9, 0x58, 0x6b, 0x3e, 0xc0, 0x1e, 0x99, 0xbe,
	0xa6, 0x2b, 0xbf, 0xbe, 0x4d, 0xef, 0x8c, 0xbf, 0x25, 0x3f, 0x1b, 0xc0,
	0xe6, 0x7b, 0x00, 0xbf, 0x96, 0xe7, 0x52, 0xbf, 0x4d, 0xd9, 0x4c, 0xbe,
	0xd2, 0x48, 0x91, 0x3f, 0x6e, 0xc6, 0xa8, 0xbd, 0x3e, 0x87, 0xc2, 0xbe,
	0x7e, 0x5b, 0x04, 0xbe, 0xd9, 0x4b, 0xdf, 0x3e, 0x76, 0x53, 0xa1, 0x3f,
	0xb1, 0x3d, 0x5d, 0x3e, 0xef, 0x66, 0x4d, 0x3e, 0x40, 0xd4, 0xa6, 0xbe,
	0x40, 0x63, 0x60, 0xbe, 0x14, 0x97, 0x9a, 0xbe, 0x18, 0xa2, 0x20, 0xbe,
	0xbf, 0xfc, 0x51, 0x3e, 0xb3, 0x32, 0xba, 0xbf, 0xb0, 0xb3, 0x8c, 0xbf,
	0x3e, 0x0a, 0x99, 0x40, 0x3e, 0x44, 0x5a, 0x3f, 0xc9, 0x98, 0x9b, 0xbf,
	0xb5, 0x03, 0x1d, 0x40, 0x94, 0xe4, 0xdf, 0x3e, 0xeb, 0x56, 0xbc, 0x3e,
	0x93, 0x0d, 0x2f, 0xbe, 0xa9, 0x58, 0x12, 0x3f, 0xeb, 0x5d, 0x2d, 0xbc,
	0xf5, 0xd9, 0x23, 0x3f, 0xcd, 0x21, 0x34, 0xc0, 0x9b, 0x6e, 0x08, 0xbf,
	0x5c, 0x16, 0x30, 0x3e, 0xbf, 0xdf, 0x8a, 0x3f, 0x4e, 0x0a, 0x74, 0x3f,
	0x9e, 0x4d, 0x92, 0x40, 0x9d, 0x4e, 0xbb, 0x3e, 0x74, 0x23, 0x93, 0x3e,
	0x23, 0x9c, 0x03, 0x3f, 0x8b, 0xb8, 0xd5, 0x3f, 0xf1, 0x76, 0xac, 0x3e,
	0x6f, 0x37, 0xb2, 0xbe, 0x57, 0xe3, 0x84, 0x3e, 0xb0, 0x75, 0xb8, 0x3e,
	0xc0, 0x43, 0xbe, 0xbe, 0x79, 0x86, 0x91, 0x3e, 0x84, 0x5e, 0x86, 0x3f,
	0x14, 0x42, 0x20, 0xbe, 0x20, 0xc5, 0x28, 0xbe, 0x0b, 0x59, 0x1b, 0x3e,
	0x04, 0x2f, 0x34, 0xbf, 0x87, 0x6f, 0x53, 0x3d, 0xc0, 0x38, 0x4e, 0xbe,
	0x68, 0xa8, 0x66, 0xbc, 0xc1, 0xb6, 0xaf, 0xbe, 0xaf, 0x01, 0xe3, 0xbe,
	0x95, 0xa2, 0x67, 0x3f, 0x66, 0xe0, 0x12, 0x3d, 0xa4, 0x52, 0xd1, 0x3d,
	0xee, 0x94, 0xa1, 0x3d, 0x62, 0x06, 0x13, 0x3f, 0x34, 0x09, 0xa4, 0x3d,
	0x6d, 0x71, 0x5b, 0x3e, 0x7c, 0x9a, 0x0b, 0x3e, 0xb8, 0xa4, 0xf2, 0x3e,
	0xed, 0x00, 0x88, 0x40, 0x92, 0xda, 0x3c, 0xbf, 0xdf, 0xc3, 0x5a, 0xbe,
	0x92, 0xbb, 0xe4, 0x3f, 0x23, 0x0a, 0x18, 0xbe, 0x77, 0x4a, 0x79, 0x3e,
	0xaa, 0x57, 0xf1, 0xbe, 0x48, 0xe5, 0x78, 0xbe, 0x21, 0x7d, 0x89, 0x3d,
	0xb4, 0x19, 0x4e, 0xbf, 0x81, 0xe5, 0x1d, 0x3f, 0x6c, 0xd7, 0x18, 0x3e,
	0x12, 0x1f, 0xdc, 0xbc, 0x0e, 0x18, 0xa1, 0x3e, 0x4d, 0x4a, 0xcd, 0x3d,
	0x50, 0x54, 0xa8, 0xc0, 0x8c, 0x58, 0x86, 0xbc, 0xce, 0x24, 0x39, 0x3f,
	0xa2, 0x19, 0xf4, 0xbf, 0xa9, 0xa4, 0x68, 0xbf, 0xf1, 0x0b, 0x5b, 0xbe,
	0xa7, 0x5f, 0x16, 0x3c, 0x0b, 0xa1, 0x02, 0x3f, 0xbd, 0x95, 0xd8, 0xbf,
	0x05, 0xa4, 0x6c, 0xbe, 0x77, 0x3a, 0x15, 0xbf, 0x7b, 0xfe, 0xd6, 0xbf,
	0x62, 0x14, 0xb8, 0xbf, 0x2f, 0x9c, 0x21, 0xbf, 0xd2, 0x9b, 0x03, 0xbd,
	0x75, 0x2d, 0xac, 0x3f, 0x8e, 0x75, 0xf3, 0xbe, 0x0d, 0x76, 0x9b, 0xbf,
	0xed, 0xc6, 0xcf, 0xbd, 0xcf, 0x5b, 0x43, 0xbf, 0x9f, 0x92, 0xfe, 0x3e,
	0xbd, 0xd2, 0xac, 0xbe, 0xf0, 0xa4, 0x80, 0x3e, 0x82, 0x67, 0x2a, 0x3e,
	0x5b, 0xf1, 0x9f, 0x3e, 0x39, 0x94, 0x43, 0xbf, 0x61, 0xa4, 0x14, 0x3f,
	0x58, 0xe8, 0x9d, 0x3c, 0x88, 0xa0, 0x04, 0xbe, 0x67, 0xf7, 0xbf, 0xbf,
	0x94, 0x2f, 0x92, 0x40, 0x85, 0x28, 0x74, 0x3f, 0x56, 0x17, 0x1a, 0xbf,
	0xf6, 0x10, 0x1e, 0xc0, 0x42, 0x92, 0x8d, 0x3f, 0xe7, 0xca, 0x8e, 0xbe,
	0x3f, 0xa1, 0x30, 0x3e, 0x1d, 0x17, 0x18, 0x3f, 0xad, 0xe8, 0x2a, 0xbf,
	0x52, 0xcf, 0x3a, 0x3d, 0x75, 0xff, 0x84, 0xbe, 0xba, 0xcf, 0xd8, 0xbf,
	0x2d, 0xb8, 0xaa, 0xbe, 0x92, 0x5f, 0xf2, 0x3b, 0x08, 0x17, 0x6a, 0xbc,
	0x64, 0x8e, 0x0d, 0xbb, 0x2c, 0xd4, 0x0f, 0x3f, 0x32, 0x59, 0xe2, 0x3e,
	0x39, 0xd5, 0x53, 0x40, 0xe1, 0xd2, 0x9b, 0xbd, 0xe7, 0x1e, 0x35, 0x3f,
	0x42, 0x24, 0x05, 0x3f, 0xcf, 0x84, 0x01, 0xbf, 0x8a, 0x6d, 0xb9, 0xbd,
	0x76, 0x27, 0xfe, 0x3d, 0xe0, 0xf7, 0x64, 0xbc, 0xa7, 0xed, 0x9c, 0xbf,
	0x42, 0x57, 0xad, 0xbf, 0x06, 0x3a, 0x77, 0xbf, 0xcf, 0x32, 0x48, 0xbf,
	0x18, 0xb5, 0xe4, 0xbf, 0x59, 0xa9, 0xf3, 0x3e, 0x8f, 0x74, 0xc6, 0xbe,
	0x1d, 0xc9, 0x76, 0x40, 0x0c, 0xd5, 0x84, 0x3e, 0xd7, 0xb2, 0x95, 0x3e,
	0x84, 0xb8, 0x1d, 0x3f, 0xbc, 0x4c, 0x7a, 0xbe, 0x1e, 0x9e, 0xfa, 0xbe,
	0xc9, 0xc8, 0xdc, 0xbd, 0xe6, 0x68, 0x67, 0xbf, 0xbe, 0x00, 0x9c, 0xbe,
	0x64, 0x15, 0x66, 0xbf, 0x4f, 0x37, 0x26, 0x3f, 0x9c, 0x99, 0x58, 0x3e,
	0x6b, 0x81, 0x99, 0xbe, 0x56, 0x89, 0xca, 0xbd, 0x9b, 0x99, 0xab, 0xbe,
	0x11, 0xbd, 0x9f, 0xc0, 0x0e, 0x32, 0x9e, 0xbe, 0x8c, 0x0a, 0xa4, 0xbf,
	0x59, 0x56, 0x58, 0x3f, 0x3b, 0x00, 0xb0, 0x3f, 0x93, 0x6c, 0xe9, 0x3e,
	0x55, 0x8f, 0x64, 0x3f, 0x5c, 0x30, 0x08, 0xc0, 0xf5, 0x63, 0x33, 0xbd,
	0xad, 0xb9, 0xda, 0xbb, 0x62, 0xf4, 0x28, 0x3f, 0x3b, 0xbe, 0x1c, 0xbf,
	0x8e, 0x8d, 0xcd, 0x40, 0x19, 0xef, 0x0d, 0x3f, 0xa7, 0xe1, 0x0b, 0x3f,
	0xc2, 0xc0, 0x94, 0x3f, 0x32, 0xb1, 0xb1, 0x3f, 0x78, 0x0c, 0x2c, 0xbe,
	0xa3, 0xa3, 0xe6, 0x3e, 0xf5, 0x8f, 0x79, 0x3d, 0x62, 0x11, 0xea, 0x3e,
	0x71, 0x37, 0x36, 0x3f, 0x4f, 0xf5, 0x3b, 0xbe, 0x4c, 0x26, 0x7b, 0x3e,
	0xd1, 0x02, 0x8f, 0xbe, 0x82, 0x35, 0x62, 0x3f, 0x0a, 0x5e, 0xa2, 0x3f,
	0xf8, 0x6a, 0x73, 0x40, 0xa4, 0xe1, 0x0e, 0xbf, 0x63, 0xf5, 0x24, 0x3b,
	0x37, 0xd4, 0xa9, 0xc0, 0x31, 0x4b, 0x8e, 0x3e, 0x17, 0xab, 0xd3, 0xbe,
	0x94, 0xb1, 0x55, 0xbe, 0x0b, 0xb6, 0xf3, 0x3d, 0xb3, 0x4d, 0x15, 0x3f,
	0x4e, 0x3f, 0x35, 0xbf, 0x98, 0xc1, 0x96, 0xbf, 0xe6, 0x00, 0xb1, 0x3d,
	0x58, 0xcc, 0xa2, 0xbd, 0x62, 0x05, 0x2b, 0xbf, 0x07, 0x04, 0x57, 0x3f,
	0x90, 0x17, 0xb3, 0xbf, 0x54, 0x2f, 0x29, 0xbf, 0x91, 0x37, 0x77, 0x3f,
	0xa5, 0x74, 0xb7, 0x3e, 0xf0, 0x1f, 0x86, 0x3e, 0xf9, 0xfe, 0x90, 0xbf,
	0xab, 0x79, 0x60, 0xbf, 0x4c, 0x28, 0x2f, 0x3e, 0xee, 0x8d, 0x37, 0x3f,
	0x0a, 0x3b, 0x84, 0xbf, 0x77, 0xdd, 0x11, 0xbf, 0xae, 0x1f, 0xb8, 0xbf,
	0xf5, 0xbd, 0x49, 0xbf, 0x6c, 0xe1, 0x93, 0xbf, 0xcd, 0x61, 0x06, 0xc0,
	0x7f, 0xea, 0xee, 0xbf, 0xf2, 0x7d, 0x0a, 0xbf, 0x14, 0x38, 0x0f, 0xbf,
	0xea, 0x9e, 0x57, 0xc0, 0xc9, 0xfe, 0xa3, 0xbf, 0xac, 0x66, 0x91, 0xbc,
	0xa7, 0x7c, 0xb7, 0xbf, 0xe9, 0x70, 0x36, 0xbe, 0xbe, 0xfe, 0x4a, 0x3c,
	0x27, 0x13, 0x54, 0x3f, 0x7f, 0x38, 0x3b, 0x3e, 0x6b, 0x23, 0xe7, 0xbe,
	0x3a, 0xfd, 0x91, 0xbd, 0xce, 0xff, 0x9e, 0xbf, 0x2d, 0x42, 0xbf, 0x3f,
	0x8e, 0x5a, 0xa4, 0xc0, 0x86, 0xa7, 0xa2, 0xbf, 0xd4, 0xcc, 0x03, 0xbf,
	0x7a, 0x15, 0x03, 0x40, 0xe7, 0x6a, 0xe9, 0xbe, 0xe4, 0x01, 0xa6, 0xbe,
	0x4e, 0x78, 0xfc, 0xbe, 0x04, 0xb6, 0x03, 0x3f, 0x92, 0x79, 0xd0, 0x3b,
	0xc2, 0xa7, 0x73, 0xbe, 0x64, 0x7c, 0xb3, 0xbe, 0xb4, 0xed, 0x8d, 0xbf,
	0xa0, 0x64, 0x57, 0xbf, 0xe5, 0xd1, 0x81, 0x3e, 0x25, 0xc7, 0xfd, 0xbd,
	0xab, 0x4c, 0x12, 0x40, 0x23, 0x06, 0x2d, 0x3e, 0xc3, 0xbd, 0x88, 0x3d,
	0xa6, 0xd9, 0x81, 0x40, 0x3a, 0xe7, 0x2b, 0xbe, 0x93, 0x9e, 0x75, 0x3f,
	0x62, 0xc8, 0x0f, 0x3e, 0x21, 0x1a, 0x93, 0xbe, 0x2f, 0x63, 0xac, 0x3e,
	0xb9, 0x58, 0x4a, 0x3e, 0x83, 0x76, 0xa7, 0xbf, 0xec, 0x56, 0xda, 0xbf,
	0xa1, 0x71, 0x3a, 0xbe, 0x26, 0x39, 0xd4, 0x3e, 0xad, 0xea, 0x11, 0x3e,
	0xc1, 0xbf, 0x96, 0x3e, 0x6a, 0x54, 0x36, 0xbf, 0x5e, 0x0a, 0xcf, 0xbe,
	0x4e, 0x35, 0xa1, 0x40, 0x9e, 0xc6, 0x2e, 0x3f, 0x76, 0x6c, 0x2e, 0x3f,
	0x53, 0x73, 0xd6, 0x3e, 0x56, 0x16, 0x86, 0xbe, 0xd3, 0xeb, 0xad, 0xbc,
	0x51, 0xe7, 0xb5, 0x3e, 0x4e, 0x47, 0xa5, 0xbf, 0xd8, 0x44, 0x6f, 0xbf,
	0x8e, 0x91, 0x71, 0xbf, 0x37, 0x00, 0xba, 0x3e, 0x91, 0xf8, 0x98, 0xbe,
	0x23, 0x95, 0x9e, 0x3f, 0xf8, 0xc7, 0x48, 0x3e, 0x35, 0xe9, 0x8c, 0xbf,
	0xa9, 0x9a, 0x2a, 0x3f, 0xa1, 0x06, 0x59, 0xbe, 0x9f, 0x46, 0x94, 0x3e,
	0x4d, 0x97, 0x97, 0x3e, 0xcf, 0x2d, 0x62, 0x3f, 0xad, 0xa7, 0x50, 0x3f,
	0xf5, 0x0e, 0x50, 0x3f, 0x0a, 0x6c, 0xc9, 0xbe, 0xa9, 0x91, 0xad, 0x3d,
	0x8a, 0x2c, 0xc4, 0xbd, 0x5e, 0x48, 0x62, 0xbf, 0x5a, 0x15, 0x53, 0x3e,
	0x45, 0xb9, 0x3a, 0xc0, 0x04, 0x4b, 0x50, 0xbf, 0x7d, 0x11, 0x15, 0xbf,
	0xfb, 0x59, 0xd1, 0xbf, 0x84, 0x96, 0xfb, 0x3d, 0xb8, 0x01, 0x11, 0x3f,
	0x90, 0xf8, 0x56, 0x3e, 0xb9, 0x3b, 0x45, 0x3d, 0xe2, 0x75, 0x96, 0x3d,
	0x20, 0x02, 0x14, 0xbf, 0xcc, 0x29, 0xdb, 0xbf, 0x24, 0x03, 0xc1, 0xbf,
	0x48, 0xe7, 0x5e, 0xbf, 0xb5, 0xc1, 0x9d, 0xbe, 0xba, 0x61, 0x54, 0xbf,
	0x22, 0x4c, 0x2a, 0x40, 0x7c, 0x2f, 0xbc, 0x3f, 0x28, 0xec, 0x2e, 0xbe,
	0x0a, 0x7e, 0xf6, 0xbe, 0x43, 0xcb, 0x89, 0x3f, 0x03, 0xf1, 0xc7, 0x3e,
	0x8d, 0x62, 0x15, 0x3f, 0xa3, 0xf6, 0x62, 0x3f, 0xbd, 0x7d, 0x33, 0x3e,
	0x4c, 0x30, 0x9a, 0x3f, 0xea, 0xd2, 0xd7, 0xbf, 0xc1, 0x4e, 0x1d, 0xbf,
	0xcc, 0x1b, 0x58, 0xbf, 0xbd, 0xa0, 0xe4, 0x3e, 0x1f, 0xa4, 0xe3, 0xbd,
	0x4c, 0x0c, 0xb6, 0x40, 0xf6, 0x15, 0x3c, 0x3f, 0x41, 0x9f, 0x90, 0xbd,
	0xdd, 0x55, 0x6b, 0xc0, 0x60, 0x56, 0xb7, 0x3f, 0x6b, 0x58, 0xf2, 0xbf,
	0x29, 0x37, 0xac, 0x3d, 0xe8, 0xde, 0x9c, 0x3e, 0xba, 0xb6, 0x6e, 0x3e,
	0xf4, 0x33, 0xe8, 0xbe, 0xe7, 0x8e, 0xc8, 0x3b, 0x5b, 0xff, 0xce, 0xbf,
	0x50, 0xa8, 0x70, 0xbe, 0x0a, 0x99, 0xa0, 0xbf, 0x42, 0xab, 0x6e, 0xbf,
	0xd7, 0xf9, 0x94, 0xbf, 0x74, 0xc9, 0xcb, 0x3f, 0xff, 0x06, 0x0e, 0x3f,
	0xbf, 0x8f, 0x9c, 0x40, 0x47, 0x5d, 0x70, 0x3e, 0x10, 0x0b, 0xb2, 0x3f,
	0x83, 0xd2, 0xaa, 0x3c, 0xf2, 0x7a, 0xfb, 0xbc, 0x9c, 0x5a, 0x97, 0x3e,
	0x33, 0x12, 0xde, 0x3e, 0x74, 0x22, 0x40, 0xbf, 0x3a, 0xbd, 0xda, 0xbf,
	0x7e, 0x16, 0xd0, 0xbd, 0x9b, 0x95, 0x3b, 0xbe, 0x50, 0x7b, 0x88, 0xbf,
	0x86, 0xbf, 0x94, 0xbf, 0x2d, 0x03, 0x62, 0x3e, 0x1a, 0x8d, 0xbb, 0x3e,
	0x9a, 0xf9, 0xee, 0xbf, 0x45, 0xe2, 0xa5, 0xbf, 0x56, 0xbc, 0x09, 0x3f,
	0xa0, 0x75, 0xb9, 0x3f, 0xbf, 0xad, 0x98, 0x3d, 0xc9, 0x6f, 0x25, 0xbf,
	0xc0, 0x27, 0xcd, 0x3f, 0x77, 0x97, 0xa9, 0xbe, 0x25, 0xf8, 0xae, 0xbe,
	0x33, 0xe1, 0x9a, 0xbf, 0xc9, 0x75, 0x61, 0xbe, 0xcc, 0x9e, 0xf6, 0xbe,
	0x1f, 0x65, 0x8c, 0xbf, 0x95, 0xb5, 0x77, 0x3e, 0xa8, 0xdb, 0x04, 0xbe,
	0x58, 0x4a, 0xd2, 0xbe, 0x00, 0xec, 0xd2, 0xbe, 0x2b, 0x66, 0x7f, 0xbe,
	0x80, 0x5e, 0xdb, 0x3d, 0x87, 0xe4, 0x8e, 0x3e, 0xb5, 0x62, 0xea, 0xbe,
	0x92, 0xa8, 0x1a, 0x3f, 0x94, 0x03, 0x0b, 0xbf, 0xf9, 0x0b, 0x6d, 0x3f,
	0x06, 0xdd, 0x6d, 0xbe, 0x95, 0x94, 0x4d, 0x3e, 0xe7, 0x15, 0x05, 0xbe,
	0x77, 0x04, 0x99, 0xbf, 0x72, 0xa2, 0xbe, 0x3e, 0xf9, 0xd8, 0x0b, 0x3f,
	0x7c, 0x7f, 0xa5, 0x40, 0xc3, 0xfd, 0x9c, 0xbd, 0xd1, 0xaf, 0x65, 0x3f,
	0x44, 0x03, 0x1a, 0x3e, 0x11, 0x49, 0x8a, 0xbf, 0x2d, 0x41, 0x5c, 0xbe,
	0xab, 0xda, 0xef, 0x3e, 0xc1, 0x44, 0x86, 0xbe, 0x82, 0x1a, 0xb2, 0x3e,
	0x5e, 0x47, 0x9c, 0xbe, 0x5e, 0x38, 0xb5, 0xbc, 0xfc, 0xf7, 0x2b, 0xbf,
	0x05, 0x94, 0xac, 0x3f, 0x79, 0xb4, 0x73, 0x3f, 0x4f, 0x4e, 0x79, 0xbd,
	0xd4, 0x53, 0x18, 0x40, 0x85, 0x12, 0x04, 0xbc, 0xfd, 0xdc, 0x0f, 0x3e,
	0x35, 0xb5, 0x0c, 0x3f, 0xd1, 0xfc, 0x08, 0xbe, 0xbe, 0x8f, 0xa7, 0x3e,
	0x71, 0xe5, 0x14, 0x3f, 0xfd, 0x1b, 0xa1, 0xbe, 0x27, 0x4b, 0x8c, 0xbf,
	0x8b, 0xc5, 0x8b, 0xbf, 0xad, 0x3e, 0xda, 0x3e, 0x98, 0x45, 0x7f, 0x3f,
	0xdc, 0x75, 0xba, 0xbd, 0xe6, 0x72, 0x8f, 0xba, 0x38, 0x13, 0x81, 0x3f,
	0xb3, 0x89, 0x68, 0xbe, 0x17, 0x90, 0xc6, 0x3e, 0xe6, 0xcb, 0x0e, 0xbf,
	0x78, 0x07, 0x90, 0xbe, 0xe5, 0x51, 0xa3, 0xbc, 0x99, 0x73, 0x36, 0xbd,
	0x05, 0xf5, 0x2d, 0xbf, 0x1c, 0x6c, 0x47, 0xbe, 0xb5, 0xaa, 0x1c, 0xbd,
	0x1d, 0x66, 0x52, 0xbe, 0xa3, 0x02, 0xf4, 0xbf, 0xd7, 0x48, 0x1c, 0x3e,
	0x91, 0xd4, 0xf4, 0x3f, 0x62, 0x5b, 0x15, 0xbf, 0xd0, 0x60, 0x88, 0xbf,
	0xb7, 0x0e, 0xc4, 0x40, 0x94, 0x1f, 0x05, 0x3f, 0xc9, 0x3c, 0x2a, 0x3f,
	0xa7, 0xdb, 0xb8, 0xbe, 0x1f, 0xd9, 0xb0, 0x3e, 0xdb, 0xe0, 0x2d, 0xbe,
	0xb8, 0x93, 0x31, 0x3f, 0x1f, 0x13, 0x1f, 0xbf, 0xcd, 0xae, 0x69, 0xbe,
	0x06, 0x59, 0xdc, 0xbe, 0x43, 0x57, 0x8d, 0xbe, 0x89, 0xe2, 0x09, 0xbd,
	0x75, 0x96, 0x76, 0xbe, 0x42, 0x33, 0x18, 0x3d, 0xab, 0xe6, 0x80, 0x3e,
	0x1d, 0x80, 0x34, 0x3e, 0xba, 0x28, 0x03, 0xbe, 0xc0, 0x8a, 0x1b, 0x3f,
	0xeb, 0xeb, 0x99, 0x3e, 0x37, 0x23, 0xe5, 0x3e, 0x7d, 0x12, 0xfd, 0xbe,
	0x72, 0x21, 0x8b, 0x3f, 0xa0, 0x36, 0x62, 0xbf, 0xe2, 0xc7, 0xd4, 0xbf,
	0x4b, 0x30, 0x75, 0xbe, 0x7d, 0x25, 0xa6, 0xbf, 0xeb, 0xfb, 0x96, 0x3e,
	0xd7, 0x54, 0x96, 0x3f, 0xa4, 0x35, 0x1e, 0x3d, 0x48, 0x47, 0xa8, 0xbe,
	0x62, 0x2c, 0xe6, 0xbf, 0xe2, 0x4c, 0xc6, 0xbf, 0xc5, 0xaa, 0x87, 0x3f,
	0x1f, 0xe2, 0xdf, 0xbf, 0xf4, 0xb3, 0x23, 0x3f, 0x83, 0x2b, 0x73, 0x3d,
	0x51, 0xee, 0x26, 0xbe, 0x0a, 0x0d, 0x89, 0x3e, 0x28, 0x84, 0xa6, 0x3e,
	0x0c, 0x6d, 0x58, 0xbe, 0x73, 0x31, 0xf4, 0x3e, 0x17, 0x02, 0x0d, 0xbf,
	0x53, 0x83, 0x92, 0xc0, 0x0b, 0x84, 0xee, 0xbc, 0xa5, 0x8b, 0x00, 0xbf,
	0x7c, 0x28, 0x83, 0xbe, 0x7b, 0xbc, 0xa6, 0xbf, 0xb4, 0xda, 0x85, 0x3c,
	0x74, 0x9a, 0x14, 0x3f, 0xc2, 0x60, 0xe2, 0xbe, 0x82, 0xb7, 0xc1, 0x3d,
	0x35, 0xbd, 0x2e, 0xbf, 0x8e, 0x47, 0x72, 0xbf, 0x24, 0x94, 0x2d, 0x3e,
	0x71, 0x17, 0x97, 0xbe, 0x00, 0x3b, 0x1b, 0x3f, 0xbb, 0xc1, 0xd8, 0x3e,
	0x67, 0x56, 0x68, 0xbf, 0xd0, 0x24, 0x18, 0xbf, 0xfe, 0xf7, 0x35, 0xbf,
	0x1c, 0xbe, 0x97, 0x3f, 0xe1, 0x8a, 0x08, 0x3f, 0xfe, 0xfa, 0xf9, 0xbf,
	0x47, 0xee, 0x53, 0xbf, 0x63, 0xe7, 0x7f, 0x3e, 0xac, 0xd9, 0x05, 0xbe,
	0xe2, 0x4c, 0xdd, 0x3e, 0xb9, 0xe3, 0x73, 0xbf, 0x2c, 0x19, 0x95, 0xbf,
	0x83, 0x1b, 0x88, 0xbe, 0xb6, 0x2a, 0x8a, 0xbf, 0xd5, 0x7c, 0x5d, 0x3f,
	0xac, 0xdd, 0x15, 0x40, 0x47, 0xc5, 0x3f, 0x3f, 0x08, 0xa8, 0x7e, 0x3e,
	0x54, 0x61, 0x51, 0x40, 0x82, 0x25, 0x36, 0x3e, 0x26, 0xd0, 0xb0, 0xbc,
	0x0c, 0xf7, 0xda, 0x3d, 0xfe, 0x04, 0xb6, 0x3e, 0x76, 0xab, 0x5d, 0xbf,
	0xe7, 0x54, 0x63, 0x3e, 0xd3, 0xc7, 0x2c, 0xbf, 0xb8, 0xd7, 0x41, 0xbe,
	0x5a, 0x26, 0xf1, 0xba, 0xd4, 0xee, 0x94, 0xbf, 0xeb, 0xc6, 0xa8, 0x3e,
	0xe5, 0xd1, 0xd2, 0x40, 0x69, 0xa7, 0x0b, 0xbf, 0x78, 0x5e, 0x03, 0xc0,
	0xbe, 0xe5, 0x17, 0xc0, 0x16, 0x97, 0x32, 0x3f, 0xeb, 0xbd, 0x37, 0xbe,
	0x7c, 0x1a, 0xb9, 0xbe, 0x83, 0xc7, 0xd1, 0xbe, 0xa3, 0xf2, 0x47, 0xbf,
	0xd4, 0x38, 0x86, 0x3c, 0x1b, 0x68, 0x40, 0xbe, 0xfd, 0x2c, 0x10, 0xbe,
	0x9d, 0xcb, 0xab, 0xbc, 0xe5, 0x56, 0x5f, 0x3d, 0x5b, 0x46, 0x2d, 0xbe,
	0x02, 0xeb, 0x28, 0x3f, 0x33, 0x80, 0x3b, 0x3f, 0xd2, 0xe0, 0x66, 0x3e,
	0xd6, 0xe8, 0xba, 0x40, 0x8d, 0x97, 0x0f, 0x3f, 0xf2, 0x90, 0x79, 0x3f,
	0x07, 0x57, 0xd1, 0xbe, 0xd9, 0x65, 0x2b, 0xbe, 0xf2, 0xe3, 0x9a, 0x3e,
	0xf4, 0xa5, 0x48, 0x3f, 0x28, 0x4b, 0x19, 0x3d, 0xf8, 0xd4, 0x9a, 0xbe,
	0xa3, 0x74, 0x2b, 0x3e, 0x02, 0xc7, 0x02, 0xc0, 0x52, 0x98, 0xc2, 0xbe,
	0xda, 0xf0, 0x5a, 0xc0, 0x98, 0xda, 0xbe, 0x3f, 0x5a, 0x08, 0x0d, 0xbf,
	0x40, 0x99, 0x82, 0x40, 0x74, 0x05, 0x73, 0xbe, 0x8e, 0x9d, 0xd9, 0xbd,
	0x30, 0x3c, 0xcb, 0xbe, 0x97, 0xec, 0x39, 0xbd, 0x84, 0xf2, 0x9c, 0x3e,
	0x6f, 0xd0, 0xc6, 0x3e, 0x36, 0xd5, 0x98, 0xbf, 0xe6, 0x6c, 0x89, 0x3d,
	0x40, 0x92, 0x09, 0xbf, 0x6b, 0xd5, 0x43, 0xbf, 0x69, 0x1f, 0x05, 0x3f,
	0x8d, 0x94, 0x7e, 0xc0, 0xca, 0x18, 0x0d, 0xbf, 0xe2, 0x1b, 0xa1, 0xbf,
	0x3c, 0x79, 0x99, 0x3f, 0x4b, 0xf0, 0x64, 0xbf, 0x99, 0x5d, 0xa7, 0xbe,
	0x6e, 0x7a, 0x5c, 0xbf, 0xdb, 0xd4, 0x2b, 0x3f, 0xa0, 0xfe, 0xce, 0x3d,
	0x9e, 0x76, 0xee, 0x3e, 0xd7, 0xba, 0xd3, 0xbe, 0x44, 0x1a, 0x12, 0xbf,
	0x71, 0x0f, 0x1a, 0x3e, 0x84, 0xed, 0xc5, 0xbf, 0xdc, 0x7c, 0xf7, 0xbe,
	0x77, 0x25, 0x63, 0xc0, 0xbf, 0x51, 0x60, 0x3c, 0x51, 0xd4, 0x91, 0xbf,
	0xa6, 0x75, 0x83, 0x40, 0xf0, 0x95, 0x21, 0xbf, 0xf3, 0x3f, 0x89, 0x3f,
	0xfd, 0x37, 0x03, 0xc0, 0x98, 0xa0, 0x2b, 0x3e, 0xb9, 0x43, 0x9b, 0x3e,
	0xe3, 0x85, 0x1b, 0x3d, 0x6f, 0x7d, 0x8d, 0xbe, 0x22, 0x57, 0x64, 0xbf,
	0x87, 0x56, 0xfa, 0xbf, 0x63, 0x4f, 0x85, 0x3f, 0xd0, 0xea, 0x24, 0xbf,
	0x08, 0xdc, 0x9e, 0x3b, 0xad, 0x20, 0xe0, 0xbe, 0x78, 0xd2, 0xba, 0xbf,
	0xd9, 0xfc, 0xe0, 0xbd, 0x2d, 0x9c, 0x22, 0xbf, 0x22, 0xaa, 0xd0, 0x3e,
	0x16, 0xe4, 0xe5, 0x3f, 0x10, 0x67, 0x41, 0xbe, 0xa6, 0x63, 0x42, 0x3c,
	0x4f, 0x2b, 0x9c, 0xbe, 0x23, 0x6c, 0xe5, 0xbe, 0x9c, 0x1d, 0x53, 0xc0,
	0x16, 0x3c, 0x27, 0xbe, 0xa9, 0x63, 0xa9, 0xbe, 0x94, 0xa9, 0x46, 0xbf,
	0x7a, 0xd5, 0x9b, 0x3f, 0x2b, 0xc1, 0x9e, 0x3e, 0x22, 0x8f, 0xdf, 0xbf,
	0x80, 0xa4, 0x99, 0x40, 0x37, 0xa4, 0x71, 0xbe, 0xfd, 0x2d, 0x8e, 0x3f,
	0x54, 0x6a, 0x72, 0x3f, 0x44, 0xa0, 0x57, 0xbe, 0x29, 0xdf, 0xb4, 0x3e,
	0x73, 0x57, 0x1a, 0x3f, 0xa6, 0xf6, 0x34, 0xc0, 0xbd, 0x84, 0x07, 0x3e,
	0x4c, 0x61, 0xc1, 0x3d, 0x32, 0x9c, 0x55, 0x3f, 0xb5, 0x4d, 0xc9, 0xbd,
	0xb0, 0xd1, 0x02, 0x40, 0x75, 0xb4, 0xe0, 0x3e, 0xb9, 0x41, 0x57, 0x3f,
	0x37, 0x88, 0x8f, 0xbe, 0x94, 0xab, 0x1e, 0x3f, 0x26, 0xaa, 0xa2, 0x3e,
	0x2d, 0x49, 0xab, 0x3c, 0x6b, 0x7d, 0x05, 0xbd, 0x18, 0x31, 0x11, 0x3d,
	0xc0, 0xae, 0x46, 0x3d, 0x16, 0x04, 0x0a, 0xc0, 0xb6, 0x25, 0x7b, 0xbf,
	0x34, 0x3d, 0xff, 0x3d, 0x01, 0x3e, 0x13, 0x3d, 0x14, 0x27, 0x74, 0xbe,
	0x3d, 0x38, 0xae, 0x40, 0xdd, 0x6b, 0x81, 0xbd, 0xb8, 0xa6, 0x65, 0xbf,
	0xfb, 0x0d, 0x51, 0x3f, 0xf3, 0x66, 0xa5, 0x3f, 0x2e, 0x75, 0x36, 0xbe,
	0xd3, 0x76, 0xc4, 0x3f, 0x12, 0x05, 0x7a, 0x3d, 0x76, 0x79, 0x1d, 0x3f,
	0xf2, 0x1c, 0x6d, 0x3e, 0x8f, 0xeb, 0xfa, 0xbf, 0x6d, 0x11, 0x36, 0xc0,
	0x66, 0xae, 0x88, 0x3d, 0x0d, 0x79, 0xe2, 0xbe, 0x6a, 0x89, 0x8c, 0x3f,
	0x4f, 0xdd, 0x6f, 0x40, 0x86, 0xeb, 0x68, 0xbf, 0x68, 0x50, 0x1e, 0xbd,
	0xf0, 0x52, 0xf2, 0x3f, 0x5e, 0x43, 0x3d, 0x3f, 0x51, 0xf7, 0xdd, 0x3d,
	0xae, 0x4a, 0xe1, 0x3e, 0xec, 0xf1, 0xb7, 0x3c, 0xc2, 0xcc, 0x2f, 0x3f,
	0x8b, 0xbd, 0x5c, 0xbf, 0x3e, 0x51, 0xa4, 0x3e, 0x76, 0x59, 0x93, 0xc0,
	0x1b, 0x33, 0x3b, 0xbe, 0xad, 0xad, 0x01, 0xbf, 0x95, 0x07, 0x09, 0x3e,
	0x56, 0x22, 0x97, 0xbd, 0x7f, 0x90, 0xba, 0x3e, 0xa4, 0x33, 0x97, 0x3f,
	0x95, 0x50, 0x98, 0x40, 0x70, 0x7e, 0x9c, 0xbe, 0xc2, 0xd3, 0xce, 0x3f,
	0xb1, 0x53, 0x3d, 0xbe, 0x6a, 0xb0, 0xd5, 0xbe, 0x68, 0x78, 0xba, 0xbd,
	0xa6, 0x95, 0x21, 0xbd, 0x52, 0xd5, 0x9a, 0x3f, 0x48, 0x98, 0x5a, 0x3f,
	0x41, 0x4c, 0x84, 0x3e, 0xb9, 0x84, 0xba, 0x3e, 0x94, 0x1c, 0x2f, 0xbf,
	0x8a, 0xf1, 0xa8, 0xbe, 0x38, 0x34, 0x15, 0x3f, 0x4c, 0x1d, 0xa5, 0x3e,
	0xb9, 0x6b, 0x3a, 0xbe, 0x91, 0x60, 0x1f, 0xbf, 0xb1, 0xae, 0xa2, 0xbe,
	0xef, 0x8f, 0xcd, 0xbe, 0x6e, 0x5c, 0x86, 0x3e, 0x3c, 0x83, 0x8d, 0xbd,
	0x3a, 0x0d, 0x5f, 0x3f, 0xb3, 0xdd, 0x3f, 0xbf, 0xc6, 0xb1, 0x86, 0xbe,
	0x91, 0xca, 0x31, 0xbd, 0xb4, 0x90, 0x5a, 0x3f, 0xfd, 0xb4, 0xf6, 0xbc,
	0x94, 0x90, 0x8c, 0x40, 0xfa, 0xf0, 0x06, 0x3f, 0x93, 0x66, 0x0b, 0x3e,
	0xe2, 0xdc, 0x49, 0xc0, 0x2a, 0x09, 0x25, 0x3f, 0xf1, 0xe8, 0x76, 0xbf,
	0xa9, 0xf3, 0xa8, 0x3e, 0x3e, 0xc6, 0xb9, 0x3f, 0x1a, 0x35, 0x9f, 0x3e,
	0x14, 0x27, 0x99, 0x3e, 0xb8, 0x35, 0xb2, 0xbd, 0x25, 0x47, 0x42, 0xbe,
	0xa0, 0xd5, 0x80, 0x3d, 0x11, 0x3a, 0xb9, 0xbe, 0x04, 0xf9, 0xfd, 0x3f,
	0x4a, 0x95, 0xbb, 0xbf, 0x97, 0x86, 0x38, 0xbf, 0x1d, 0xfe, 0x9a, 0xbe,
	0xf5, 0x86, 0xf6, 0x40, 0x81, 0x36, 0x99, 0x3e, 0xcd, 0x1b, 0x43, 0x3f,
	0xc3, 0x50, 0x62, 0xbe, 0xb6, 0xd0, 0x7e, 0xbd, 0x4a, 0x5e, 0x28, 0xbf,
	0x25, 0x29, 0xfe, 0x3c, 0x71, 0x8f, 0x9a, 0xbc, 0x17, 0x96, 0xa2, 0xbf,
	0xe2, 0x87, 0x10, 0xbf, 0xa0, 0xfb, 0xcd, 0xbf, 0xe9, 0xc1, 0xd2, 0x3e,
	0x7d, 0x84, 0x84, 0xbf, 0x31, 0xf3, 0x0e, 0xbf, 0x78, 0x47, 0x96, 0xbf,
	0xf2, 0xd8, 0x9e, 0x3e, 0x6f, 0xae, 0x98, 0xbf, 0xe8, 0xa7, 0x42, 0x3f,
	0x56, 0x99, 0x59, 0x3f, 0x8a, 0x9b, 0x89, 0x3e, 0x12, 0x9b, 0xb3, 0xbd,
	0xd0, 0x31, 0x05, 0xbe, 0x19, 0x36, 0x50, 0xbf, 0x35, 0x08, 0xdd, 0xbe,
	0x5b, 0x32, 0x5b, 0x3c, 0xc5, 0x2d, 0xc6, 0xbf, 0x34, 0x61, 0x9f, 0x3f,
	0x69, 0x1c, 0x8a, 0x40, 0xca, 0xfe, 0xbe, 0xbf, 0x3f, 0xa7, 0xf9, 0xbd,
	0x3d, 0x62, 0x06, 0xc0, 0xdd, 0xaa, 0x78, 0x3f, 0x6c, 0x78, 0x68, 0x3f,
	0xde, 0x1b, 0x58, 0x3e, 0x3d, 0xa9, 0x8e, 0xbe, 0xd5, 0x40, 0x21, 0xbe,
	0x2b, 0xd5, 0x0e, 0xbe, 0x66, 0x5a, 0xf8, 0x3e, 0x09, 0xf7, 0x3d, 0x3f,
	0x04, 0xcd, 0x65, 0x3d, 0xae, 0xcc, 0x9c, 0x3e, 0x31, 0x2c, 0xae, 0x3d,
	0x25, 0x23, 0x07, 0xc0, 0xf7, 0xae, 0xcf, 0xbe, 0xf3, 0x88, 0x34, 0x3f,
	0x7b, 0xa7, 0xbc, 0xc0, 0x46, 0xa3, 0x1e, 0xbe, 0xdc, 0x2e, 0x09, 0xbf,
	0x94, 0x77, 0x32, 0xbe, 0x06, 0x7a, 0xbf, 0x3e, 0x56, 0x2e, 0x7c, 0x3e,
	0x4e, 0x43, 0x91, 0x3c, 0xe1, 0x95, 0x01, 0xbf, 0x5b, 0x6e, 0x8a, 0xbe,
	0x88, 0x95, 0x36, 0x3f, 0x08, 0xb9, 0x6f, 0xbf, 0xbc, 0xba, 0x3e, 0xbf,
	0x0c, 0x90, 0x9c, 0x3e, 0x1d, 0x8c, 0xc3, 0x3e, 0xa7, 0x20, 0x88, 0x3e,
	0xcc, 0x05, 0x58, 0xc0, 0xcf, 0x67, 0xa1, 0xbe, 0x39, 0xd1, 0x76, 0x3f,
	0x9f, 0x7d, 0xe6, 0xbf, 0x2f, 0xff, 0xd3, 0x3d, 0x1a, 0x24, 0x25, 0xbe,
	0x27, 0x57, 0xc6, 0x3e, 0x6b, 0x4b, 0xf7, 0xbe, 0xb9, 0x75, 0x8b, 0xbf,
	0x63, 0x3a, 0x81, 0xbe, 0xa0, 0x1c, 0x01, 0x3e, 0xd7, 0x2f, 0x24, 0x3f,
	0x14, 0x59, 0xa0, 0x3f, 0x72, 0xf5, 0x2e, 0x3f, 0x4e, 0x8d, 0xa0, 0xbe,
	0xd6, 0x2d, 0x8d, 0xbf, 0x8b, 0x40, 0x9f, 0xbe, 0x56, 0x54, 0x97, 0x3d,
	0xf9, 0xdf, 0xae, 0x3e, 0x98, 0x85, 0x4f, 0x3e, 0x03, 0x1d, 0x2e, 0xbd,
	0xeb, 0xa8, 0x35, 0x3e, 0x5a, 0xdc, 0xff, 0xff, 0x04, 0x00, 0x00, 0x00,
	0x00, 0x20, 0x00, 0x00, 0x9b, 0x97, 0xa6, 0xbe, 0xdf, 0xae, 0x88, 0x3d,
	0xc4, 0x76, 0x5b, 0x3b, 0x47, 0xc6, 0x51, 0xbe, 0xc2, 0xe7, 0x87, 0x3d,
	0xa6, 0xa4, 0x08, 0xbe, 0x92, 0x4c, 0x0f, 0xbe, 0x06, 0xe0, 0x9c, 0xbe,
	0xa7, 0xb3, 0x8c, 0xbe, 0x96, 0xc1, 0x4d, 0xbe, 0x3f, 0xc7, 0x39, 0x3d,
	0xd3, 0x80, 0x3c, 0xbe, 0x87, 0xde, 0x54, 0xbe, 0x85, 0x69, 0x89, 0xbe,
	0xa1, 0xac, 0x4b, 0xbe, 0x96, 0x43, 0x4c, 0xbe, 0x9a, 0x01, 0xd5, 0xbd,
	0x0d, 0x5b, 0xb3, 0xbd, 0xcf, 0x38, 0xe3, 0xbc, 0x11, 0x94, 0x14, 0xbe,
	0xcf, 0x70, 0xab, 0xbd, 0x26, 0xea, 0x38, 0xbe, 0x1f, 0x63, 0x84, 0xbd,
	0x7e, 0xdc, 0xcb, 0x3c, 0xc5, 0xde, 0xfd, 0x3c, 0x29, 0xc3, 0x18, 0xbe,
	0x33, 0x0e, 0x4a, 0xbd, 0x0b, 0x77, 0x91, 0x3c, 0xdf, 0xf2, 0xcb, 0xbd,
	0x8d, 0xca, 0x82, 0xbe, 0xa1, 0xc3, 0xb1, 0x3c, 0x17, 0x98, 0x07, 0xbe,
	0x72, 0xb0, 0x6b, 0xbe, 0x81, 0x82, 0xc9, 0xbc, 0x00, 0xf9, 0x33, 0xbe,
	0xef, 0x16, 0xf1, 0xbd, 0x13, 0xf4, 0x90, 0x3d, 0x0d, 0x31, 0x74, 0xbe,
	0x16, 0x83, 0x1d, 0xbe, 0xde, 0x2a, 0xd7, 0xbe, 0xaa, 0x1e, 0x98, 0xbd,
	0x8f, 0x9f, 0xa6, 0xbe, 0x83, 0xdc, 0x2b, 0xbd, 0x85, 0xcd, 0x1b, 0xbe,
	0x49, 0x38, 0x7a, 0x3c, 0x2c, 0x63, 0xae, 0x3d, 0xfd, 0xaa, 0xc7, 0xbe,
	0x93, 0xf5, 0xb4, 0xbd, 0xca, 0x01, 0xf4, 0xbb, 0x94, 0x34, 0x0b, 0xbc,
	0x68, 0x5d, 0xed, 0xbe, 0xb6, 0x4b, 0x8e, 0xbe, 0x70, 0x6e, 0x84, 0xbe,
	0x1b, 0xd6, 0x34, 0x3d, 0x32, 0xa5, 0x87, 0xbe, 0xb1, 0xde, 0x82, 0xbe,
	0x01, 0xe8, 0xa8, 0xbc, 0x4c, 0x3c, 0xbe, 0x3c, 0x08, 0xf3, 0x94, 0xbd,
	0x0c, 0x15, 0xcd, 0xbd, 0xd3, 0x1e, 0x97, 0xbd, 0x0d, 0xd2, 0xb7, 0xbd,
	0x30, 0x5f, 0x4c, 0xbd, 0x57, 0x75, 0xa9, 0xbd, 0xbb, 0x74, 0x9b, 0xbe,
	0xcc, 0x11, 0x9f, 0x3d, 0x69, 0x81, 0x22, 0xbe, 0xa7, 0x20, 0x77, 0xbe,
	0x52, 0xee, 0x96, 0xbd, 0x02, 0xab, 0xbe, 0xbd, 0x2e, 0x19, 0xf9, 0xbd,
	0x43, 0x2b, 0x52, 0xbd, 0xaa, 0x6c, 0x8e, 0xbe, 0x53, 0x2f, 0x13, 0xbe,
	0xde, 0x9a, 0xb9, 0xbd, 0x84, 0x8e, 0xf3, 0xbd, 0xc8, 0x3a, 0xaf, 0x3c,
	0x3d, 0x03, 0x44, 0xbe, 0x3e, 0xe5, 0x94, 0xbe, 0x90, 0x79, 0x88, 0xbd,
	0x10, 0xf3, 0x01, 0xbe, 0x2e, 0x08, 0x76, 0xbe, 0x4a, 0x55, 0x88, 0xbe,
	0xaa, 0x2b, 0xa4, 0xbe, 0xcb, 0xfb, 0xed, 0xbd, 0x50, 0x4f, 0x40, 0xbd,
	0xeb, 0x9e, 0xf2, 0x3c, 0x76, 0x99, 0x00, 0xbe, 0x0d, 0x72, 0xa5, 0xbe,
	0x1b, 0x6f, 0x43, 0xbd, 0xd8, 0x95, 0x7c, 0xbe, 0xbb, 0xa5, 0x38, 0xbe,
	0xe8, 0x3b, 0x0a, 0xbe, 0x62, 0x5b, 0x0b, 0x3b, 0xea, 0x0d, 0x3a, 0xbe,
	0x14, 0xea, 0x85, 0xbd, 0xd9, 0x1b, 0x02, 0xbe, 0x1c, 0x36, 0x9b, 0xbe,
	0x70, 0x0e, 0x47, 0xbe, 0xc5, 0x5e, 0xc0, 0xbd, 0x24, 0x84, 0xe3, 0x3b,
	0xbd, 0x0b, 0x05, 0xbd, 0x93, 0x47, 0xae, 0x3d, 0x91, 0x4f, 0xf8, 0x3c,
	0xb6, 0x40, 0x05, 0xbe, 0x60, 0x9d, 0x28, 0xbb, 0xe5, 0x52, 0x7c, 0xbe,
	0xaa, 0x4b, 0x4c, 0xbe, 0x46, 0xf2, 0x12, 0xbe, 0x03, 0x06, 0x95, 0xbe,
	0xa2, 0xc1, 0xce, 0xbe, 0x04, 0x02, 0x26, 0xbe, 0x4f, 0x38, 0x9e, 0xbe,
	0x19, 0x33, 0x41, 0xbd, 0xba, 0xf2, 0x67, 0xbe, 0xb8, 0xc6, 0x81, 0xbe,
	0x1e, 0x9e, 0x70, 0xbe, 0xc3, 0x85, 0x15, 0x3e, 0x33, 0x9a, 0x70, 0x3d,
	0xd1, 0x95, 0x18, 0xbe, 0x8c, 0x8a, 0xa2, 0xbe, 0x74, 0xc3, 0xdc, 0xbc,
	0x68, 0x8d, 0x1c, 0xbd, 0xe1, 0x62, 0x9d, 0xbd, 0x53, 0x4a, 0xfb, 0x3c,
	0x69, 0x2b, 0x1e, 0xbe, 0xb4, 0xc7, 0x85, 0xbe, 0x30, 0xf5, 0x68, 0xbe,
	0xfb, 0x0a, 0x86, 0xbe, 0x55, 0xf5, 0x09, 0xbf, 0x3f, 0x1d, 0x8d, 0x3e,
	0x5e, 0x54, 0x9c, 0xbf, 0x89, 0xaa, 0x02, 0xbe, 0xd1, 0xc6, 0xcb, 0x3d,
	0x0e, 0x54, 0x1a, 0xbf, 0x38, 0xe7, 0x8a, 0xbf, 0xdf, 0xd6, 0x7b, 0xbf,
	0xc9, 0xc1, 0x19, 0xbf, 0xf2, 0xc2, 0xdb, 0xbf, 0x37, 0x37, 0xc2, 0xbf,
	0x94, 0x89, 0xce, 0xbf, 0xd5, 0x88, 0x5f, 0x3f, 0x7c, 0x3e, 0x96, 0xbe,
	0xa6, 0xa5, 0x4d, 0xbf, 0x08, 0xfc, 0xca, 0xbf, 0x29, 0x4e, 0x40, 0xbe,
	0x57, 0xe3, 0x7c, 0xbc, 0xbe, 0xa5, 0x36, 0x3b, 0x80, 0x6f, 0x9d, 0xbe,
	0xbd, 0x7a, 0x16, 0x3f, 0x65, 0x3d, 0xf6, 0xbe, 0x4e, 0xc4, 0x0f, 0xbe,
	0x57, 0x56, 0x66, 0xbe, 0xdf, 0x84, 0x16, 0xbf, 0x28, 0x30, 0x8e, 0xbe,
	0x30, 0x7e, 0x56, 0x3f, 0xc5, 0xe3, 0x06, 0xbf, 0x7d, 0x7b, 0x2f, 0xbf,
	0xdb, 0x74, 0x2e, 0xbf, 0xea, 0x4b, 0x0d, 0xbf, 0x92, 0xe3, 0xcf, 0xbe,
	0xe8, 0xde, 0x34, 0xbf, 0x75, 0xf2, 0x9c, 0x3e, 0xd9, 0xda, 0x97, 0xbf,
	0x6a, 0x01, 0x2b, 0x3e, 0x34, 0xad, 0x9c, 0xbf, 0x5c, 0xe1, 0x20, 0xbf,
	0x20, 0x3d, 0xb4, 0xbf, 0x4d, 0x3d, 0x6e, 0xbf, 0xca, 0x7c, 0xa7, 0xbe,
	0xf5, 0x93, 0xaf, 0xbf, 0xc6, 0x48, 0x3f, 0xbf, 0x12, 0x98, 0x65, 0x3e,
	0x09, 0xfa, 0xc9, 0x3e, 0x53, 0x9a, 0x4c, 0xbe, 0x37, 0x1c, 0x01, 0xbf,
	0x28, 0xda, 0x7c, 0xbe, 0x09, 0x28, 0x54, 0xbf, 0xa0, 0x8a, 0x62, 0xbf,
	0x1f, 0x16, 0xd0, 0xbe, 0xb2, 0x37, 0xfb, 0xbf, 0x78, 0x74, 0xa4, 0x3e,
	0xa2, 0x0c, 0xae, 0x3e, 0x77, 0x6c, 0x62, 0xbe, 0x5e, 0x34, 0x9d, 0xbe,
	0xe9, 0x26, 0x01, 0xbf, 0x6d, 0x3a, 0x4a, 0xbf, 0x53, 0x91, 0xa7, 0xbf,
	0x98, 0x77, 0xc1, 0x3e, 0x8d, 0xf1, 0x84, 0xbf, 0x4c, 0x71, 0x0d, 0xbf,
	0xe4, 0x5e, 0x56, 0xbf, 0xb0, 0x82, 0xb6, 0xbe, 0xd7, 0x55, 0x4a, 0xbf,
	0x7c, 0x24, 0x43, 0xbe, 0x7d, 0x0c, 0xf0, 0xbe, 0x85, 0xa9, 0x25, 0x3d,
	0xa9, 0x39, 0x9d, 0xbe, 0xde, 0xcc, 0x87, 0xbd, 0x54, 0xc9, 0x19, 0xbe,
	0xd1, 0xb9, 0x50, 0xbe, 0xb2, 0xa0, 0x14, 0xbf, 0x07, 0xd4, 0x25, 0x3e,
	0x56, 0x71, 0x12, 0xbf, 0x25, 0x08, 0xcb, 0xbe, 0x57, 0xbe, 0x98, 0x3c,
	0x65, 0xaf, 0x3d, 0xbf, 0x3b, 0x75, 0xa5, 0xbe, 0x8c, 0x89, 0x06, 0xbe,
	0xce, 0xa2, 0x42, 0xbf, 0x9d, 0x9e, 0x20, 0xbe, 0x32, 0x93, 0x87, 0xbe,
	0xa6, 0x48, 0x55, 0xbe, 0xb8, 0xa1, 0x92, 0xbc, 0x10, 0x45, 0x6d, 0xbf,
	0x84, 0xae, 0xc7, 0xbe, 0x23, 0x11, 0x3b, 0x3d, 0x03, 0xde, 0x8f, 0xbe,
	0x73, 0xfd, 0x87, 0xbf, 0x98, 0x61, 0xdf, 0xbe, 0x81, 0x3e, 0x03, 0xbf,
	0xe7, 0x4e, 0x0a, 0xbe, 0x7a, 0x2c, 0xb1, 0xbd, 0xac, 0xc7, 0x44, 0xbe,
	0x75, 0xcc, 0xdc, 0xbe, 0x61, 0x00, 0x75, 0xbf, 0x82, 0xe9, 0xf4, 0xbe,
	0x2f, 0xe6, 0x01, 0x3d, 0x41, 0x4e, 0x91, 0xbf, 0xed, 0x4b, 0x30, 0xbe,
	0xe0, 0x08, 0x06, 0xbe, 0x18, 0x2a, 0x15, 0xbe, 0xef, 0xa4, 0x83, 0xbe,
	0xd0, 0x5d, 0xb9, 0xbe, 0xe0, 0x49, 0xa2, 0xbd, 0x33, 0x19, 0x0a, 0xbf,
	0xbe, 0x2b, 0x42, 0x3e, 0x8e, 0x2e, 0x8b, 0xbe, 0x39, 0x02, 0x88, 0xbd,
	0xcc, 0x06, 0x4e, 0xbf, 0x69, 0x03, 0xdc, 0x3d, 0x07, 0xe3, 0x9e, 0xbd,
	0xfd, 0x42, 0x8a, 0xbe, 0x6e, 0x54, 0x02, 0x3e, 0x4c, 0x21, 0x93, 0xbc,
	0xef, 0x73, 0x93, 0x3d, 0xfc, 0xec, 0xdd, 0xbe, 0xb2, 0xa6, 0x1f, 0x3d,
	0x98, 0xe0, 0x0f, 0x3d, 0x08, 0x61, 0x17, 0xbf, 0x37, 0x31, 0x3a, 0xbe,
	0x48, 0x9f, 0xc2, 0x3c, 0xaf, 0x28, 0x51, 0xbe, 0x8f, 0xb0, 0x20, 0xbf,
	0xcf, 0xa8, 0x15, 0xbe, 0x71, 0x63, 0x47, 0xbd, 0x76, 0x0f, 0x61, 0x3e,
	0x09, 0x66, 0x20, 0x3e, 0x02, 0xf6, 0x17, 0xbd, 0xc3, 0x77, 0x08, 0xbf,
	0xa0, 0x6d, 0x40, 0xbd, 0x03, 0xf6, 0xea, 0x3d, 0x66, 0x11, 0x05, 0xbf,
	0xfd, 0xe8, 0x1b, 0x3d, 0xe0, 0x0d, 0x27, 0xbf, 0x9a, 0x59, 0x78, 0xbf,
	0x37, 0xe3, 0xa0, 0xbe, 0x5f, 0xcd, 0x65, 0xbe, 0x08, 0x56, 0xf0, 0x3b,
	0xdb, 0x5e, 0x4f, 0x3e, 0xa1, 0x06, 0xa8, 0x3c, 0x0d, 0x27, 0x1a, 0xbd,
	0xf8, 0xbb, 0x4f, 0xbf, 0x3c, 0xa3, 0x68, 0xbd, 0x0c, 0x15, 0x5f, 0xbe,
	0x35, 0x05, 0x7c, 0x3d, 0x02, 0xd9, 0x18, 0x3e, 0xd3, 0x9a, 0x76, 0xbf,
	0xa1, 0x7d, 0xd2, 0x3e, 0x68, 0x21, 0x15, 0x3e, 0x17, 0xda, 0x50, 0x3e,
	0xbc, 0x06, 0x7e, 0xbf, 0x6f, 0x98, 0x6b, 0xbe, 0x60, 0x25, 0x3a, 0xbf,
	0xb8, 0xa2, 0x0a, 0xbe, 0x53, 0x0a, 0xdd, 0x3d, 0x89, 0xe3, 0x7d, 0xbe,
	0x8f, 0xf0, 0x45, 0xbe, 0x1f, 0xf9, 0x34, 0xbf, 0xb0, 0xe4, 0xe3, 0x3e,
	0xb2, 0x75, 0x68, 0xbe, 0x54, 0xd6, 0x1a, 0xbf, 0x45, 0xba, 0x09, 0x3d,
	0x54, 0x76, 0xbe, 0x3d, 0x77, 0xb3, 0x04, 0xbe, 0x03, 0xff, 0x56, 0xbf,
	0x28, 0x87, 0xe9, 0xbc, 0x20, 0x28, 0x8c, 0xbf, 0xdd, 0xd1, 0x66, 0x3e,
	0x88, 0x86, 0xb7, 0xbe, 0xe9, 0x49, 0xb6, 0xbe, 0xed, 0x10, 0x8d, 0xbf,
	0x01, 0x41, 0x5c, 0x3e, 0x5c, 0x6a, 0x9e, 0xbb, 0x70, 0xfb, 0xd5, 0xbe,
	0x71, 0x9d, 0xd2, 0x3a, 0xbb, 0x22, 0x6f, 0x3e, 0x87, 0xe9, 0xe4, 0xbe,
	0xc3, 0x91, 0x8b, 0x3e, 0xbc, 0xf7, 0x2c, 0xbf, 0x62, 0x36, 0x4d, 0xbf,
	0x4c, 0x80, 0x1e, 0xbe, 0x15, 0xe4, 0xd1, 0xbd, 0x9d, 0xc5, 0x5f, 0x3e,
	0xde, 0xa3, 0x47, 0xbf, 0x7f, 0xad, 0x96, 0x3e, 0xcf, 0xc3, 0xaf, 0x3e,
	0x88, 0xe9, 0x7a, 0xbc, 0xf3, 0x50, 0xa5, 0xbe, 0xf1, 0x33, 0xef, 0xbd,
	0x30, 0xa2, 0xe8, 0xbd, 0x77, 0x63, 0x53, 0xbf, 0xa5, 0xa0, 0x7f, 0xbf,
	0x16, 0xba, 0x16, 0xbe, 0x8d, 0xa2, 0x07, 0xbf, 0xeb, 0xf0, 0x25, 0x3d,
	0xa8, 0x1f, 0x0b, 0xbf, 0xfc, 0x9e, 0x37, 0x3b, 0x4f, 0x2d, 0x25, 0x3e,
	0xae, 0x20, 0x00, 0xbd, 0xc1, 0xac, 0xc3, 0xbe, 0x62, 0xcc, 0x15, 0xbe,
	0xfb, 0x98, 0xef, 0x3d, 0x25, 0xc0, 0x21, 0xbe, 0x30, 0x6c, 0x10, 0xbf,
	0x9f, 0x22, 0x05, 0xbe, 0x56, 0x9e, 0x8d, 0x3c, 0xeb, 0x42, 0xfb, 0x3e,
	0xe0, 0x9b, 0x0f, 0xbe, 0x39, 0xb6, 0xdb, 0x3d, 0x3b, 0xb5, 0x4a, 0xbe,
	0x4e, 0xa9, 0x2c, 0xbf, 0xf4, 0xa2, 0x1b, 0xbf, 0x9f, 0xa2, 0x94, 0x3d,
	0xe3, 0x1e, 0x68, 0xbf, 0x48, 0xcf, 0x8c, 0xbe, 0x56, 0x0c, 0x21, 0xbc,
	0xb7, 0xbe, 0x52, 0xbe, 0x80, 0xd0, 0x1b, 0xbf, 0xce, 0x20, 0x66, 0x3e,
	0x16, 0xf8, 0xe4, 0xbe, 0x15, 0x34, 0x4c, 0xbe, 0x56, 0x07, 0x06, 0xbf,
	0x0b, 0x49, 0x04, 0xbe, 0xfe, 0x4f, 0x82, 0xbe, 0xd3, 0x0f, 0x64, 0xbd,
	0x99, 0x2f, 0x58, 0xbd, 0x77, 0x97, 0x5b, 0xbe, 0xc1, 0x97, 0x08, 0xbe,
	0xf4, 0xb7, 0x25, 0x3d, 0x32, 0x7b, 0x82, 0xbe, 0x56, 0x81, 0xd1, 0xbe,
	0x1d, 0x68, 0x2d, 0x3e, 0x84, 0xeb, 0x3b, 0xbf, 0x2d, 0x1f, 0xd3, 0x3e,
	0x31, 0x40, 0x38, 0xbc, 0x7a, 0x07, 0xf6, 0x3d, 0x73, 0x50, 0x39, 0xbf,
	0xc6, 0xb5, 0x94, 0xbe, 0x77, 0x14, 0xcf, 0xbe, 0xd1, 0x21, 0x92, 0x3e,
	0x18, 0xce, 0xf4, 0x3d, 0x8c, 0x12, 0x3c, 0xbe, 0x79, 0x9a, 0x15, 0x3f,
	0xf0, 0x0a, 0x60, 0x3d, 0x2b, 0x35, 0x8a, 0xbd, 0x3c, 0xcc, 0xb2, 0xbe,
	0xcb, 0x32, 0x17, 0x3c, 0x79, 0xb1, 0x76, 0x3c, 0x5a, 0x50, 0x5e, 0x3e,
	0x43, 0x2c, 0x94, 0xbe, 0x7e, 0xc5, 0x48, 0xbf, 0xc2, 0x9d, 0x3d, 0xbe,
	0xcf, 0x81, 0x3d, 0x3d, 0x84, 0xd1, 0x3b, 0xbd, 0x2a, 0xbc, 0x5f, 0xbd,
	0x0f, 0xe2, 0x6b, 0xbe, 0xf9, 0x54, 0x02, 0x3d, 0xda, 0xd6, 0xc1, 0xbe,
	0xe6, 0xb5, 0xae, 0xbd, 0x92, 0x6b, 0x8f, 0xbd, 0xda, 0x74, 0xde, 0xbd,
	0x9d, 0xc8, 0x38, 0xbe, 0x0f, 0x79, 0x16, 0xbe, 0x79, 0x41, 0xa5, 0xbd,
	0xc2, 0xe7, 0x93, 0xbe, 0x54, 0x3c, 0x05, 0xbd, 0xe1, 0x0e, 0xae, 0xbd,
	0x2a, 0x2b, 0xdd, 0x3d, 0x03, 0xa8, 0x9a, 0xbd, 0xa0, 0x94, 0xca, 0xbe,
	0xdf, 0x4d, 0xb6, 0xbd, 0x3c, 0x96, 0xbb, 0xbe, 0x26, 0x39, 0xd2, 0xbd,
	0x74, 0x0b, 0xe6, 0xbd, 0x01, 0x84, 0x41, 0xbc, 0xc9, 0x5a, 0x8f, 0xbc,
	0x2a, 0xbd, 0xf1, 0xbd, 0xf2, 0x31, 0x79, 0xbd, 0xdf, 0xb6, 0x33, 0xbe,
	0x64, 0x61, 0xae, 0xbd, 0xb3, 0x0d, 0xce, 0xbd, 0x09, 0xd8, 0x68, 0xbd,
	0x72, 0x7f, 0xce, 0xbc, 0x22, 0x67, 0xee, 0xbd, 0x0e, 0x12, 0x14, 0x3d,
	0x98, 0xbe, 0x1a, 0xbd, 0x6b, 0x1b, 0xc1, 0xbd, 0x94, 0xc3, 0x14, 0xbe,
	0xa9, 0xa9, 0xca, 0xbc, 0x2f, 0xa2, 0x94, 0xbe, 0xfc, 0x06, 0x89, 0xbe,
	0x8f, 0x9f, 0xe2, 0xbd, 0xdd, 0xe2, 0xe0, 0xbe, 0x5b, 0xb3, 0xcb, 0xbe,
	0xfe, 0xd5, 0xa7, 0xba, 0x40, 0x7b, 0xad, 0xbe, 0x55, 0x38, 0x56, 0xbe,
	0xb4, 0x6e, 0x9d, 0x3d, 0x68, 0x8e, 0x0f, 0x3d, 0xd2, 0xeb, 0x8a, 0xbc,
	0xa6, 0x3c, 0x66, 0xbd, 0x59, 0xb6, 0x1a, 0xbe, 0xc6, 0x5b, 0x30, 0x3d,
	0xa3, 0xdb, 0x62, 0xbd, 0xb1, 0x68, 0x80, 0xbd, 0xc0, 0x73, 0x84, 0xbd,
	0x7c, 0xf4, 0x27, 0xbe, 0x42, 0x73, 0x14, 0xbe, 0x56, 0x5b, 0x01, 0xbe,
	0x9e, 0x67, 0x39, 0x3d, 0x9f, 0x1d, 0x6b, 0xbe, 0x37, 0x15, 0x90, 0xbd,
	0x9e, 0x3e, 0x97, 0xbe, 0x82, 0x76, 0xd3, 0x3c, 0x3f, 0xb8, 0x45, 0xbd,
	0x24, 0x2c, 0x6f, 0x3d, 0x0f, 0x07, 0x42, 0xbc, 0xee, 0xd9, 0xb1, 0xbe,
	0x39, 0x5a, 0xf7, 0xbe, 0x88, 0x83, 0x88, 0xbe, 0x16, 0x07, 0xc4, 0xbe,
	0xfb, 0xa1, 0x39, 0xbe, 0xbd, 0x46, 0x8d, 0xbe, 0xf5, 0x40, 0x19, 0xbe,
	0x38, 0x68, 0xa0, 0x3c, 0xaa, 0xea, 0x3e, 0xbe, 0x0b, 0x41, 0xe7, 0xbe,
	0x32, 0x1d, 0x51, 0xbe, 0x32, 0xbc, 0xce, 0xbe, 0x85, 0xf6, 0x89, 0xbe,
	0xc9, 0x13, 0x37, 0xbe, 0x39, 0xb7, 0xca, 0xbe, 0x8f, 0xf7, 0x82, 0xbe,
	0x12, 0x8c, 0x89, 0xbc, 0xfa, 0x22, 0xcf, 0xbd, 0xb7, 0x99, 0xc0, 0xbc,
	0xc2, 0x19, 0xf5, 0xbe, 0x83, 0xf5, 0x24, 0xbd, 0x86, 0xa2, 0x90, 0xbe,
	0xc5, 0xba, 0x7d, 0xbe, 0x4e, 0x81, 0x54, 0xbe, 0x71, 0x40, 0x9b, 0x3d,
	0x2c, 0xac, 0xab, 0xbe, 0xbf, 0x67, 0x18, 0xbe, 0xb0, 0x78, 0xe7, 0xbd,
	0x08, 0x9a, 0xde, 0xbd, 0x8a, 0xdc, 0xf5, 0xbe, 0xe5, 0x5e, 0x4e, 0xbe,
	0x4e, 0xe5, 0x2d, 0xbe, 0xa0, 0x20, 0x4f, 0xbe, 0x8e, 0xd6, 0xe0, 0xbd,
	0xb5, 0x03, 0x08, 0xbe, 0xb1, 0xf8, 0x03, 0xbd, 0xae, 0x37, 0x4d, 0xbe,
	0x08, 0x16, 0xd9, 0xbe, 0x48, 0x9a, 0x46, 0xbe, 0xb9, 0xe4, 0x8c, 0xbd,
	0x37, 0x44, 0x2b, 0xbe, 0x26, 0x89, 0x61, 0xbe, 0xfd, 0x56, 0x2b, 0xbe,
	0x26, 0x65, 0x1d, 0xbe, 0x19, 0x49, 0x15, 0xbe, 0x14, 0x18, 0xb9, 0xbd,
	0x74, 0x97, 0xcd, 0x3c, 0xf5, 0x16, 0x05, 0xbe, 0xe1, 0xd1, 0x23, 0x3d,
	0x7a, 0x51, 0x52, 0xbe, 0xc5, 0x8d, 0x4c, 0xbe, 0xad, 0x2b, 0x13, 0xbe,
	0x87, 0x7e, 0x2e, 0xbc, 0x32, 0x7c, 0x6b, 0x3c, 0x56, 0xd6, 0x87, 0xbe,
	0xaf, 0x29, 0xe3, 0xbd, 0xcd, 0xed, 0x13, 0xbe, 0x29, 0x65, 0x0c, 0xbe,
	0x27, 0xc2, 0x82, 0x3d, 0x61, 0x0b, 0x24, 0xbe, 0xaf, 0xb3, 0x56, 0xbe,
	0xad, 0xa0, 0xa1, 0xbe, 0x00, 0xa9, 0xe4, 0x3d, 0xdd, 0x95, 0x03, 0xbe,
	0xaa, 0xca, 0x9e, 0xbf, 0x25, 0x0d, 0xa1, 0xbf, 0x00, 0x96, 0x99, 0x3e,
	0xb9, 0x6c, 0x9e, 0x3e, 0xac, 0x6e, 0xb1, 0xbd, 0x25, 0x83, 0x9b, 0x3e,
	0xb3, 0x69, 0x84, 0x3e, 0xa9, 0x0b, 0xe7, 0xbe, 0xfb, 0x30, 0x96, 0xbf,
	0xe9, 0x9a, 0x11, 0xbf, 0x29, 0x90, 0x22, 0x3e, 0x7c, 0x06, 0x46, 0x3e,
	0xdd, 0x9f, 0x59, 0x3e, 0x2f, 0x51, 0xb1, 0x3e, 0x9c, 0xbc, 0xbd, 0x3e,
	0x1e, 0xa6, 0x26, 0x3d, 0x0b, 0xac, 0x69, 0xbe, 0x1c, 0x11, 0xb8, 0xbf,
	0x9d, 0x11, 0x9a, 0xbe, 0x36, 0x19, 0xd4, 0xbc, 0x55, 0x99, 0x60, 0x3e,
	0x40, 0xca, 0xbb, 0xbf, 0x93, 0x2b, 0xb3, 0xbe, 0x47, 0x61, 0xd6, 0x3e,
	0x25, 0xf6, 0x11, 0xbf, 0x8b, 0x06, 0x8b, 0xbe, 0x7f, 0x13, 0x96, 0x3e,
	0x7f, 0x39, 0xa9, 0xbf, 0xf3, 0xa6, 0x8b, 0x3e, 0xcc, 0x60, 0x47, 0xbf,
	0x52, 0x54, 0x03, 0xbf, 0x0a, 0xe9, 0x21, 0xbf, 0x67, 0x05, 0x7f, 0xbf,
	0x0c, 0x60, 0xc8, 0xbf, 0xe4, 0x08, 0x6f, 0xbf, 0x66, 0xed, 0x05, 0xbf,
	0x8a, 0x78, 0x80, 0xbe, 0x73, 0xc6, 0x93, 0x3e, 0x80, 0xbd, 0x33, 0x3e,
	0xa9, 0xed, 0x20, 0x3f, 0x5c, 0x42, 0x1f, 0xbf, 0x1a, 0x1c, 0x9c, 0xbe,
	0x6f, 0x38, 0x9a, 0xbf, 0x6a, 0xd2, 0x17, 0xbf, 0x1c, 0x17, 0x11, 0xbf,
	0x60, 0x38, 0x0c, 0xbe, 0x77, 0xe1, 0x0a, 0x3d, 0xb6, 0xee, 0xd1, 0xbe,
	0x79, 0xf1, 0x3d, 0xbf, 0xb3, 0xa9, 0x2f, 0xc0, 0x25, 0xa6, 0x84, 0x3e,
	0xb5, 0x8a, 0xfd, 0xbf, 0xde, 0x26, 0x89, 0xbc, 0xa2, 0xbd, 0x64, 0x3f,
	0xc3, 0xb5, 0x13, 0xbf, 0x2a, 0x74, 0x8a, 0xbd, 0x83, 0x1e, 0x7d, 0xbf,
	0x9d, 0xa8, 0xa7, 0xbe, 0x0d, 0x79, 0x08, 0x3f, 0x2a, 0xa0, 0x17, 0xbf,
	0x1a, 0xf1, 0xef, 0x3e, 0xc0, 0x1d, 0xbb, 0x3e, 0x0b, 0x96, 0x84, 0xbf,
	0xf4, 0x03, 0x11, 0x3f, 0x87, 0x9e, 0x1e, 0x3f, 0x1f, 0x83, 0x19, 0xbf,
	0x2f, 0x68, 0x20, 0xbf, 0x44, 0x74, 0xc5, 0x3e, 0xa7, 0xe4, 0x7b, 0xbe,
	0x3f, 0xbf, 0x45, 0x3e, 0x62, 0x08, 0x12, 0xbf, 0x7c, 0xaf, 0x1a, 0x3d,
	0x38, 0xd7, 0x4b, 0xbf, 0xa8, 0x5f, 0x69, 0x3d, 0x07, 0xef, 0x60, 0xbe,
	0xcd, 0x17, 0x59, 0xbf, 0xb6, 0xb7, 0x3a, 0xbf, 0xcc, 0x4f, 0x31, 0x3e,
	0x64, 0x58, 0xf6, 0xbe, 0xe8, 0x04, 0x01, 0x3f, 0x10, 0x95, 0xca, 0xbe,
	0x5c, 0x72, 0x24, 0xbe, 0xfd, 0x3f, 0xb0, 0xbf, 0xc5, 0x8c, 0x35, 0x3e,
	0xa4, 0x47, 0x1d, 0x3f, 0x57, 0x1a, 0x07, 0xc0, 0x29, 0xa5, 0xbe, 0xbd,
	0x67, 0x19, 0x31, 0xbe, 0x53, 0xc6, 0xa0, 0xbf, 0x9c, 0xef, 0xd3, 0x3e,
	0x9f, 0x47, 0x18, 0xbf, 0x3e, 0xf3, 0x32, 0xbf, 0xe4, 0x73, 0x59, 0x3a,
	0x96, 0x4a, 0x15, 0xbf, 0x3f, 0x23, 0x2a, 0x3e, 0xa9, 0x94, 0x96, 0xbf,
	0xb6, 0x45, 0x8d, 0xbf, 0x63, 0xec, 0x8d, 0x3d, 0xf7, 0xde, 0xd7, 0xbe,
	0x6c, 0xec, 0x40, 0xbf, 0x6a, 0xcd, 0x05, 0x3f, 0xc1, 0x68, 0x9b, 0x3e,
	0xd8, 0x46, 0x91, 0xbd, 0x21, 0xb3, 0x79, 0xbf, 0x62, 0xc5, 0xec, 0xbe,
	0x7c, 0x39, 0x9b, 0xbf, 0xe9, 0x2f, 0xa2, 0x3e, 0xab, 0xc9, 0xcd, 0x3d,
	0xe4, 0xd1, 0x64, 0xbf, 0x93, 0xd0, 0x9b, 0x3e, 0x49, 0xb0, 0xeb, 0x3c,
	0xfc, 0x00, 0x27, 0x3d, 0x08, 0x2e, 0x91, 0xbf, 0x5e, 0x96, 0xba, 0xbe,
	0xfb, 0x81, 0x18, 0xbf, 0x1b, 0x8f, 0x17, 0xc0, 0x4a, 0xb1, 0xf4, 0xbc,
	0xda, 0xd0, 0xaa, 0xbf, 0x93, 0xf2, 0xdf, 0xbe, 0x5a, 0x30, 0xe0, 0x3e,
	0x2a, 0x82, 0x1b, 0x3d, 0x21, 0x22, 0x0d, 0xbf, 0x98, 0xcc, 0x13, 0x3d,
	0x26, 0x44, 0x76, 0xbf, 0xb4, 0xb7, 0x16, 0x3e, 0x42, 0xe8, 0xca, 0xbe,
	0xb3, 0xb7, 0x75, 0x3d, 0x7d, 0x64, 0xbb, 0xbb, 0x4b, 0xd3, 0xd5, 0xbe,
	0x92, 0x5b, 0x65, 0xbe, 0x4e, 0x23, 0xdf, 0xbd, 0x70, 0xae, 0xea, 0xbd,
	0x93, 0x7a, 0x50, 0xbe, 0x34, 0x4b, 0xae, 0xbe, 0x89, 0xa3, 0x06, 0xbe,
	0x25, 0xc0, 0x3b, 0xbc, 0xec, 0x21, 0x27, 0x3d, 0xe0, 0xf2, 0x56, 0xbe,
	0x67, 0x9d, 0x4f, 0xbe, 0xad, 0xfc, 0x84, 0xbd, 0x6e, 0xbe, 0x80, 0xbd,
	0x71, 0xa3, 0xfa, 0xbd, 0x6c, 0x02, 0x99, 0xbe, 0x01, 0xfe, 0xb8, 0xbe,
	0x77, 0x80, 0xe8, 0xbd, 0x7d, 0xf2, 0x90, 0xbe, 0x84, 0x6a, 0x61, 0xbd,
	0xf3, 0xb0, 0x69, 0xbc, 0x82, 0x32, 0x02, 0xbe, 0x77, 0x92, 0xf0, 0xbd,
	0xf1, 0xc9, 0xe9, 0xbc, 0x3c, 0x1a, 0xf5, 0xbd, 0xd6, 0x2b, 0x9e, 0xbd,
	0xaf, 0xa3, 0x67, 0xbe, 0x61, 0xbf, 0x65, 0xbe, 0x4e, 0xdf, 0x84, 0xbe,
	0xd4, 0xde, 0xc1, 0xbd, 0x5b, 0xac, 0x92, 0xbd, 0x17, 0xbe, 0xae, 0xbd,
	0x1b, 0xf6, 0x76, 0x3d, 0xe7, 0x35, 0x94, 0xbe, 0x3a, 0x17, 0xa6, 0xbe,
	0x31, 0x4e, 0x58, 0xbe, 0xcb, 0x6f, 0x5a, 0xbe, 0x19, 0x42, 0xff, 0xbd,
	0x35, 0x60, 0x8d, 0xbe, 0x84, 0xb1, 0xa1, 0xbe, 0x5f, 0x4e, 0xee, 0xbd,
	0x11, 0x52, 0x1f, 0x3d, 0xbc, 0xa5, 0x89, 0xbe, 0x23, 0xa2, 0x77, 0xbd,
	0x73, 0xb2, 0x47, 0xbe, 0x3c, 0x7f, 0x3a, 0xbe, 0xe0, 0xc0, 0x72, 0xbe,
	0xdd, 0x2f, 0xd3, 0xbd, 0x49, 0x8b, 0x2f, 0xbe, 0x22, 0x83, 0xd1, 0xbd,
	0x05, 0xc7, 0xc2, 0xbd, 0x49, 0x4f, 0xe2, 0xbc, 0x31, 0x4d, 0xa6, 0xbc,
	0xb8, 0x7e, 0xcf, 0x3c, 0xb6, 0x69, 0x23, 0xbe, 0xe2, 0x47, 0xa8, 0xbc,
	0xce, 0x4c, 0x4d, 0x3c, 0x5f, 0x93, 0x97, 0xbd, 0x74, 0x68, 0x99, 0xbd,
	0xe5, 0x60, 0xee, 0xbd, 0x85, 0xf3, 0x54, 0x3c, 0xf0, 0x33, 0x87, 0xbe,
	0x2c, 0xfa, 0xf4, 0xbd, 0x87, 0x30, 0x0b, 0xbe, 0xc0, 0xa1, 0x82, 0xbe,
	0x32, 0x5d, 0x69, 0xbf, 0x86, 0x94, 0xd0, 0xbe, 0xbb, 0xa8, 0x07, 0xbf,
	0x03, 0x3f, 0x83, 0xbf, 0x46, 0x52, 0xad, 0xbe, 0x7e, 0x37, 0xe9, 0xbe,
	0xc2, 0x9d, 0x01, 0xbe, 0xa6, 0xb2, 0x60, 0xbf, 0x10, 0x33, 0x02, 0xbf,
	0x12, 0xd6, 0x74, 0xbf, 0x8e, 0xa9, 0x5b, 0xbf, 0x49, 0x93, 0x80, 0xbf,
	0xd3, 0x46, 0x80, 0xbf, 0xa9, 0x4f, 0x2a, 0xbf, 0xa0, 0xec, 0xff, 0xbd,
	0xf8, 0x3c, 0xbb, 0xbe, 0xe7, 0x41, 0x1f, 0xbe, 0x94, 0x43, 0x2e, 0xbf,
	0x83, 0xd7, 0x94, 0xbe, 0x2d, 0xe4, 0x76, 0xbf, 0x00, 0xdc, 0x05, 0xbd,
	0xea, 0xbb, 0x6e, 0xbe, 0x38, 0x3b, 0x28, 0xbf, 0xfb, 0xbf, 0xb0, 0xbf,
	0x8a, 0xcd, 0x72, 0xbe, 0x99, 0x89, 0x85, 0xbe, 0x2e, 0xd0, 0x21, 0xbf,
	0xb2, 0xd4, 0xd6, 0x3e, 0xe4, 0xc7, 0x0f, 0xbf, 0x85, 0x16, 0x44, 0xbf,
	0xf5, 0x5f, 0x94, 0xbf, 0x03, 0x4d, 0x6e, 0x3f, 0x31, 0x4a, 0xf4, 0xbe,
	0xbf, 0x3d, 0x36, 0xbf, 0x32, 0x7e, 0x9f, 0xbe, 0x1e, 0xa1, 0xd5, 0x3d,
	0xee, 0x6c, 0x0e, 0x3e, 0x77, 0x71, 0x99, 0xbd, 0x30, 0x1c, 0x2f, 0xbf,
	0xec, 0x5f, 0x5f, 0x3e, 0xfd, 0x6b, 0x9c, 0xbd, 0x36, 0x7d, 0x03, 0xbe,
	0x24, 0x74, 0x16, 0xbf, 0x7b, 0x0c, 0x16, 0xbf, 0x26, 0x80, 0xc3, 0xbe,
	0x4d, 0x45, 0x7d, 0xbf, 0xcf, 0x5f, 0xa2, 0xbe, 0xa3, 0xab, 0xab, 0xbe,
	0x46, 0x69, 0x3b, 0xbf, 0x91, 0x5c, 0x42, 0x3e, 0xd7, 0xad, 0x88, 0xbd,
	0x5f, 0xc4, 0x06, 0xbe, 0xa0, 0x35, 0x91, 0xbf, 0xa9, 0x96, 0x5a, 0xbe,
	0xf1, 0xc4, 0x94, 0xbe, 0x77, 0x8b, 0x5c, 0xbf, 0xcc, 0x23, 0x48, 0xbf,
	0x12, 0x87, 0x84, 0xbe, 0x12, 0x11, 0x8f, 0xbf, 0xc1, 0x5d, 0x15, 0xbf,
	0x4e, 0x0c, 0x68, 0xbf, 0x0e, 0x4f, 0xc0, 0xbe, 0xd9, 0x54, 0x81, 0xbd,
	0x15, 0xd7, 0x96, 0xbe, 0xe9, 0x40, 0x79, 0xbe, 0x20, 0xda, 0x3e, 0xbf,
	0xd2, 0xe3, 0x6a, 0xbe, 0x66, 0x7e, 0xb6, 0xbf, 0x91, 0xf1, 0xb0, 0xbe,
	0x42, 0x45, 0x12, 0xbf, 0x57, 0xfd, 0x84, 0xbe, 0x22, 0x14, 0xc7, 0xbd,
	0xf3, 0xab, 0x85, 0x3d, 0x78, 0x72, 0x68, 0xbf, 0x7e, 0x66, 0xb5, 0xbd,
	0x4e, 0xc7, 0xb5, 0xbd, 0x17, 0xc6, 0xa2, 0xbd, 0x79, 0x71, 0x45, 0xbd,
	0x15, 0x93, 0xa6, 0xbe, 0xd1, 0x71, 0x45, 0xbf, 0x4b, 0x85, 0x80, 0xbf,
	0xd5, 0x5d, 0xac, 0xbd, 0x30, 0xd2, 0x72, 0xbe, 0xbc, 0xfc, 0xfa, 0x3b,
	0x03, 0x32, 0x25, 0xbf, 0x58, 0x49, 0xa1, 0xbe, 0x7f, 0x84, 0x7f, 0xbf,
	0x82, 0xf0, 0x50, 0xbf, 0x20, 0x69, 0xfc, 0xbd, 0xc2, 0x2e, 0x12, 0xbf,
	0x31, 0x2f, 0x1d, 0xbf, 0x33, 0x7f, 0xec, 0xbc, 0xe5, 0x4b, 0x59, 0xbf,
	0x37, 0x04, 0xc6, 0x3c, 0x01, 0x28, 0x7a, 0xbe, 0xc6, 0x2c, 0x29, 0xbe,
	0xde, 0xe1, 0x85, 0xbe, 0x36, 0x10, 0x97, 0xbf, 0xec, 0x94, 0xe8, 0xbe,
	0xe7, 0xba, 0xe1, 0xbe, 0xc1, 0xa8, 0x69, 0xbf, 0xde, 0x97, 0x1f, 0xbe,
	0x91, 0x71, 0x57, 0xbe, 0x8c, 0x59, 0x11, 0xbe, 0x1d, 0xdb, 0x3a, 0xbe,
	0xe6, 0xd4, 0x19, 0xbf, 0xb2, 0x5b, 0xd1, 0xbe, 0x23, 0x1b, 0x80, 0xbe,
	0x82, 0x30, 0xd2, 0xbe, 0x66, 0xd6, 0xd2, 0xbe, 0xc5, 0x78, 0xde, 0xbd,
	0xf3, 0xcd, 0xdd, 0xbe, 0x3a, 0xb9, 0x63, 0xbe, 0xa8, 0xca, 0xfe, 0xbd,
	0xed, 0x22, 0xf5, 0xbe, 0x5c, 0xb6, 0x31, 0xbf, 0x9b, 0x53, 0xaa, 0xbd,
	0xd9, 0x4f, 0xc9, 0xbe, 0x0d, 0x0d, 0xdd, 0xbe, 0xed, 0x55, 0x2f, 0xbd,
	0x7c, 0x2a, 0x95, 0xbe, 0x27, 0x06, 0x4f, 0xbf, 0xfe, 0x21, 0x81, 0xbe,
	0xe7, 0xd2, 0x78, 0x3c, 0xaf, 0x9f, 0x3c, 0xbe, 0x0b, 0x7b, 0x58, 0xbf,
	0x8d, 0xb8, 0xea, 0xbe, 0x3f, 0xe2, 0x38, 0xbc, 0xb6, 0x56, 0x80, 0x3e,
	0x23, 0xa6, 0x8b, 0xbe, 0xb4, 0xde, 0x56, 0xbf, 0x01, 0x34, 0x90, 0xbf,
	0x3a, 0x11, 0xe5, 0xbf, 0x23, 0xaf, 0xc9, 0xbe, 0x40, 0x90, 0x31, 0xbf,
	0x56, 0x3e, 0x6e, 0xbf, 0xc6, 0x92, 0x39, 0xbe, 0x02, 0x2e, 0x89, 0xbf,
	0x30, 0xa5, 0xa1, 0x3d, 0x97, 0x77, 0x58, 0xbf, 0x64, 0xa0, 0xaf, 0xbf,
	0x88, 0xb5, 0x67, 0xbf, 0xf2, 0xd6, 0xbe, 0xbd, 0x7b, 0xf8, 0x16, 0xbe,
	0x21, 0xfe, 0xae, 0xbd, 0x53, 0x18, 0xd5, 0xbd, 0xcd, 0xba, 0xae, 0xbf,
	0x32, 0x40, 0xd0, 0xbf, 0xe0, 0x03, 0x93, 0xbf, 0xcb, 0xc4, 0xae, 0xbf,
	0x7e, 0xc7, 0xbe, 0xbf, 0x1d, 0xdc, 0xf1, 0x3d, 0xc8, 0x8e, 0xab, 0xbd,
	0x8c, 0xf7, 0x10, 0xc0, 0x92, 0x5b, 0x9b, 0x3e, 0x8c, 0xc9, 0x2f, 0xbf,
	0x26, 0x62, 0x09, 0x3f, 0xcc, 0x9f, 0xf1, 0xbf, 0x22, 0x3e, 0x06, 0x3e,
	0x5f, 0xe3, 0x2f, 0x3f, 0xb0, 0x4d, 0xd6, 0xbe, 0xcb, 0x6d, 0xab, 0xbf,
	0xe5, 0x19, 0x47, 0x3f, 0x4d, 0x80, 0x56, 0x3f, 0x79, 0xdf, 0x85, 0xbf,
	0x10, 0x0c, 0xd6, 0x3e, 0x9b, 0x22, 0x90, 0xbd, 0xda, 0x80, 0x5f, 0xbe,
	0x0c, 0x9b, 0x84, 0x3d, 0xa8, 0x1a, 0x20, 0xbf, 0x83, 0x93, 0x5d, 0xbe,
	0x93, 0xb3, 0xa4, 0x3e, 0x51, 0x63, 0x17, 0xbf, 0x39, 0x66, 0xe4, 0xbe,
	0x3b, 0x11, 0xee, 0xbf, 0x1a, 0xa9, 0x2c, 0x3d, 0x16, 0x75, 0x9c, 0xbe,
	0xf0, 0xb4, 0x60, 0x3e, 0xa3, 0x18, 0x3a, 0xbf, 0xc2, 0xb5, 0x89, 0xbf,
	0x58, 0x2f, 0x14, 0xc0, 0x15, 0x1c, 0x04, 0x3f, 0x58, 0xe5, 0x8a, 0xbe,
	0xb6, 0x4c, 0xf4, 0xbf, 0x95, 0x2a, 0xba, 0xbe, 0xf9, 0x83, 0xa7, 0xbe,
	0x2d, 0xc2, 0x31, 0x3e, 0xcf, 0x91, 0x88, 0xbf, 0x2c, 0x00, 0x52, 0xbe,
	0xb4, 0x3d, 0x9c, 0x3e, 0x07, 0x9a, 0x1c, 0xbf, 0x27, 0x05, 0xc2, 0xbf,
	0xc1, 0x5e, 0x65, 0xbe, 0x7b, 0x64, 0xd7, 0xbf, 0xef, 0x65, 0x9c, 0xbf,
	0x20, 0xed, 0x39, 0xbf, 0xdd, 0x3a, 0x59, 0xbf, 0x18, 0x26, 0xf5, 0xbf,
	0xd8, 0x6e, 0x8a, 0x3f, 0x5b, 0x49, 0x8c, 0xbf, 0x8d, 0xd4, 0xa7, 0xbf,
	0x1d, 0x3b, 0x0b, 0x3f, 0xb4, 0x74, 0xaf, 0xbf, 0x2f, 0x5d, 0x2b, 0xbe,
	0x6a, 0x37, 0xa7, 0xbf, 0x3c, 0x40, 0x1b, 0xc0, 0xf4, 0x31, 0x56, 0x3e,
	0xc7, 0xc9, 0xb5, 0xbe, 0xd4, 0xf3, 0xba, 0x3d, 0x9f, 0xfc, 0x93, 0xbe,
	0x3b, 0xd5, 0x40, 0x3e, 0xa6, 0x40, 0xc6, 0xbf, 0xc6, 0x41, 0xd9, 0x3c,
	0xb8, 0xed, 0xc5, 0xbf, 0xf3, 0xda, 0xcb, 0xbf, 0xcc, 0x12, 0x47, 0xc0,
	0x34, 0x0c, 0xa7, 0xbe, 0xeb, 0x01, 0xd3, 0x3d, 0x94, 0xab, 0xd0, 0xbf,
	0x95, 0x71, 0xac, 0xbf, 0xab, 0x19, 0xf3, 0xbf, 0x80, 0x7a, 0x46, 0xbf,
	0xd5, 0x08, 0x9e, 0xbe, 0xb7, 0x10, 0xc7, 0x3e, 0x17, 0xe2, 0xae, 0xbf,
	0x74, 0x95, 0xd8, 0xbe, 0x75, 0x6d, 0x7c, 0xbf, 0xe0, 0x3b, 0x01, 0xc0,
	0xe5, 0x23, 0xc7, 0x3d, 0x4e, 0x06, 0x27, 0x3f, 0x3a, 0x9f, 0xf7, 0xbf,
	0xc5, 0xf9, 0x1e, 0xbf, 0x28, 0xdd, 0x49, 0xbe, 0xc1, 0x83, 0x74, 0xbf,
	0xa3, 0xf6, 0x16, 0xbf, 0x70, 0x92, 0x2d, 0xbf, 0x7a, 0xd7, 0x83, 0xbe,
	0xf4, 0xfa, 0x57, 0x3f, 0x84, 0x04, 0xd9, 0xbf, 0xd2, 0x31, 0x7a, 0xbe,
	0xd3, 0x8a, 0xd6, 0x3e, 0x93, 0xf0, 0xcb, 0xbf, 0xf7, 0xbb, 0x3b, 0xbe,
	0x5b, 0x2e, 0x1d, 0xbf, 0x34, 0x52, 0xb2, 0xbe, 0x2c, 0x66, 0x94, 0xbf,
	0x3a, 0xce, 0xa1, 0xbe, 0xb6, 0xb3, 0xa3, 0xbf, 0xdf, 0x5c, 0x7e, 0xbd,
	0xe5, 0x5d, 0xd6, 0xbf, 0x90, 0xcf, 0xda, 0xbf, 0x3d, 0xd4, 0xec, 0xbe,
	0x0d, 0x8a, 0x54, 0xbf, 0xca, 0xfb, 0xbf, 0xbe, 0xa0, 0x5b, 0x3c, 0x3e,
	0x80, 0x1c, 0x8b, 0xbe, 0xff, 0xfb, 0xc4, 0xbd, 0x76, 0xe6, 0x80, 0x3e,
	0x08, 0xc8, 0x60, 0x3e, 0x8c, 0x2f, 0xc2, 0xbe, 0x25, 0xb6, 0xca, 0x3d,
	0x27, 0x9a, 0xcb, 0xbe, 0x92, 0xbb, 0xf1, 0xbe, 0xc3, 0xbf, 0x1f, 0xbe,
	0x3d, 0x18, 0xdb, 0xbe, 0xdd, 0x43, 0xae, 0xbe, 0x5a, 0x35, 0x0c, 0xbe,
	0x7c, 0x23, 0x2e, 0xbf, 0x21, 0x34, 0x83, 0xbc, 0x3c, 0x73, 0x2a, 0xbe,
	0xa4, 0x14, 0x2a, 0xbf, 0xfb, 0xa1, 0x15, 0xbf, 0x5c, 0x72, 0xe6, 0xbe,
	0x7f, 0x15, 0xd5, 0xbe, 0xa7, 0x07, 0x9e, 0xbd, 0xf0, 0x0f, 0x3f, 0xbf,
	0x03, 0xe8, 0x1f, 0xbf, 0xd9, 0xa2, 0xef, 0xbe, 0x1f, 0x06, 0xd9, 0xbe,
	0xd0, 0xa1, 0x15, 0xbf, 0x9b, 0xe5, 0x60, 0xbe, 0xef, 0xc2, 0xa3, 0x3e,
	0x86, 0x24, 0x25, 0xbf, 0xf8, 0xdb, 0x06, 0xbf, 0xce, 0x3e, 0x9f, 0xbe,
	0x1a, 0xec, 0xda, 0xbd, 0x14, 0x7c, 0x64, 0xbe, 0xd6, 0x2d, 0x0c, 0xbe,
	0xd1, 0xb2, 0x49, 0xbe, 0xff, 0x7f, 0x58, 0xbe, 0xc1, 0xa2, 0xc5, 0xbe,
	0xb3, 0x89, 0xce, 0xbe, 0x3a, 0x9f, 0xeb, 0xbe, 0xc9, 0x68, 0x85, 0xbd,
	0x70, 0x4c, 0xea, 0xbd, 0xef, 0xd7, 0x5b, 0xbe, 0x27, 0x3b, 0xff, 0xbe,
	0xd6, 0x83, 0x14, 0xbf, 0xed, 0xe3, 0xad, 0xbd, 0x15, 0x1e, 0x48, 0xbf,
	0x11, 0xf3, 0x25, 0xbb, 0x60, 0xe1, 0xc3, 0xbe, 0x4c, 0x45, 0x61, 0xbe,
	0xa5, 0x74, 0x55, 0xbe, 0xdf, 0x48, 0x58, 0xbe, 0x05, 0xf9, 0x87, 0xbd,
	0xcf, 0xbd, 0xdf, 0xbd, 0xf4, 0xa9, 0xb7, 0xbe, 0x1f, 0x71, 0x6f, 0xbe,
	0xf8, 0x72, 0x06, 0xbe, 0x34, 0xed, 0x5c, 0xbe, 0x0c, 0xda, 0x47, 0xbe,
	0xb5, 0x7e, 0x3b, 0xbd, 0x0d, 0xee, 0xbe, 0xbe, 0x66, 0x64, 0x3f, 0xbf,
	0x82, 0x62, 0xa3, 0xbd, 0xa5, 0x9b, 0x87, 0xbe, 0x6d, 0x2a, 0x81, 0xbd,
	0xae, 0x8e, 0x55, 0xbe, 0x8f, 0xf4, 0x74, 0xbe, 0x8b, 0xfc, 0x8e, 0xbe,
	0xa5, 0x88, 0x69, 0xbf, 0xea, 0xf4, 0xd9, 0xbd, 0x7a, 0xec, 0x3f, 0x3e,
	0xec, 0xb0, 0x33, 0xbe, 0xb1, 0xea, 0x85, 0xbf, 0xc4, 0x9a, 0x61, 0xbd,
	0x97, 0xff, 0xfc, 0x3c, 0x3d, 0xa2, 0x2c, 0xbe, 0xaf, 0xa1, 0xef, 0xbe,
	0xba, 0x90, 0x14, 0xbf, 0xf5, 0x78, 0x31, 0xbf, 0xd5, 0x8d, 0xce, 0xbe,
	0x2e, 0x97, 0x11, 0xbe, 0x0e, 0x09, 0x6b, 0xbf, 0xa7, 0xae, 0x14, 0xbd,
	0x76, 0xf4, 0x05, 0xbe, 0xfa, 0xfc, 0xe3, 0xbc, 0x7a, 0x15, 0x8c, 0x3e,
	0xf7, 0x6c, 0xb7, 0xbe, 0xfd, 0x6f, 0xbe, 0xbe, 0x91, 0xfb, 0x0c, 0xbf,
	0xe1, 0xac, 0xbe, 0xbf, 0x6b, 0x37, 0x3b, 0xbe, 0x47, 0xed, 0xcc, 0x3d,
	0x8a, 0xc5, 0x3c, 0xbc, 0x12, 0x42, 0x79, 0xbe, 0xd1, 0x84, 0x4a, 0xbd,
	0xf4, 0xfc, 0xe1, 0x3c, 0x0d, 0xb3, 0xcb, 0xbd, 0x57, 0x33, 0x76, 0xbf,
	0x0f, 0x98, 0x48, 0x3e, 0xe1, 0xd8, 0xc8, 0xbe, 0x2b, 0xfb, 0x90, 0xbf,
	0xad, 0xdb, 0x21, 0xbf, 0x06, 0xbf, 0x26, 0xbf, 0xa0, 0x7b, 0x90, 0xbf,
	0x27, 0x58, 0x85, 0x3e, 0x0c, 0xd6, 0x9e, 0xbe, 0x11, 0x9a, 0x4d, 0x3d,
	0x13, 0x40, 0x59, 0xbe, 0x83, 0x89, 0x80, 0x3d, 0xa1, 0x9b, 0xc2, 0xbe,
	0xa4, 0xe6, 0x16, 0xbe, 0x3b, 0xc7, 0x74, 0x3d, 0xc3, 0x1d, 0x34, 0xbf,
	0x04, 0x01, 0xaa, 0xbe, 0x93, 0x3e, 0x65, 0xbf, 0x6b, 0xb2, 0x25, 0x3e,
	0x8a, 0x92, 0xf0, 0xbe, 0x60, 0xad, 0xf0, 0xbe, 0x1e, 0xbb, 0xb7, 0xbe,
	0x2c, 0x71, 0x38, 0xbe, 0xc5, 0x8b, 0xd2, 0xbe, 0x25, 0x3b, 0x24, 0xbf,
	0xab, 0x32, 0xcb, 0xbd, 0x99, 0xe3, 0x06, 0xbd, 0xc8, 0x02, 0xc3, 0xbe,
	0xe1, 0x3d, 0xd3, 0xbe, 0x18, 0xdd, 0x76, 0xbe, 0x90, 0x85, 0x1a, 0xbe,
	0x90, 0x3a, 0xed, 0x3d, 0x2b, 0x30, 0xa5, 0xbe, 0x8f, 0x43, 0xe8, 0x3e,
	0x09, 0x49, 0x1a, 0xbe, 0x77, 0xf4, 0xa0, 0x3d, 0xc0, 0xa2, 0x24, 0xbf,
	0xae, 0x82, 0x8f, 0xbd, 0xa3, 0xc0, 0x91, 0xbf, 0x04, 0x41, 0xa3, 0xbf,
	0x04, 0x64, 0x8e, 0x3c, 0x76, 0x05, 0x5d, 0x3e, 0x38, 0x66, 0x07, 0xbf,
	0x17, 0xdc, 0x94, 0xbe, 0xc8, 0x3e, 0x4a, 0x3d, 0xa9, 0x6a, 0x66, 0x3e,
	0x74, 0xbe, 0x0f, 0x3f, 0xae, 0x91, 0x11, 0x3e, 0x2b, 0x61, 0xb5, 0xbe,
	0x3f, 0x47, 0x82, 0x3e, 0x03, 0xd9, 0xdc, 0xbb, 0x70, 0x3a, 0x02, 0x3f,
	0x15, 0x12, 0xab, 0xbc, 0x36, 0x77, 0x36, 0xbf, 0x0c, 0x24, 0xb9, 0xbd,
	0x46, 0x90, 0x13, 0x3f, 0x17, 0x2a, 0x4a, 0x3c, 0x02, 0x30, 0xb0, 0x3e,
	0x09, 0x62, 0x89, 0xbf, 0x9d, 0x94, 0xec, 0x3d, 0xe2, 0x13, 0xf3, 0x3e,
	0x45, 0xf6, 0xe6, 0xbf, 0x6a, 0x1e, 0x35, 0xbf, 0xda, 0xd5, 0x1f, 0xbf,
	0x2e, 0x2f, 0x08, 0x3e, 0xaa, 0x1c, 0x3d, 0x3e, 0x81, 0xc6, 0x1d, 0xc0,
	0x9e, 0x50, 0xb6, 0x3d, 0xda, 0x8c, 0x7a, 0xbd, 0x62, 0x90, 0x93, 0xbd,
	0x9f, 0x22, 0x4f, 0xbf, 0x10, 0x38, 0x62, 0xbf, 0x34, 0xe0, 0x78, 0xbe,
	0xd4, 0x7e, 0x1f, 0x3f, 0x8b, 0x7a, 0xe2, 0xbc, 0x5f, 0x9b, 0x1b, 0xc0,
	0xab, 0x34, 0x41, 0xbf, 0xef, 0x56, 0x85, 0x3e, 0x8c, 0x62, 0xa7, 0xbf,
	0x01, 0x31, 0x93, 0xbf, 0x3b, 0xc8, 0xac, 0xbf, 0x43, 0x65, 0xc8, 0x3e,
	0x00, 0x2a, 0x96, 0xbe, 0xe7, 0x1b, 0xc7, 0xbe, 0xcd, 0xd4, 0xbe, 0xbe,
	0x30, 0x40, 0xa5, 0x3e, 0x02, 0x52, 0x9e, 0x3c, 0x26, 0xa8, 0xbd, 0xbf,
	0x6c, 0xf2, 0x3a, 0xbf, 0x19, 0x7a, 0x98, 0xbe, 0xba, 0x87, 0x74, 0xbd,
	0x69, 0xe0, 0x91, 0x3e, 0xad, 0xb1, 0xb6, 0xbe, 0xac, 0x8c, 0x3d, 0x3d,
	0x3a, 0xed, 0x80, 0xbe, 0xc5, 0x34, 0xb3, 0x3e, 0x63, 0xd8, 0xdd, 0x3e,
	0xca, 0x59, 0xdf, 0x3e, 0x33, 0x5c, 0xd9, 0xbe, 0xfd, 0x09, 0x45, 0xbf,
	0x09, 0x85, 0x3e, 0xbe, 0x2f, 0x92, 0x92, 0xbe, 0x93, 0x58, 0x43, 0xbe,
	0x8a, 0xb2, 0x8c, 0xbe, 0x22, 0x64, 0xe2, 0xbe, 0xd5, 0xfb, 0x89, 0xbe,
	0x11, 0xb5, 0xbf, 0xbe, 0x76, 0x84, 0x9f, 0x3c, 0x17, 0x9f, 0x03, 0xbf,
	0xcd, 0x45, 0xc4, 0xbe, 0x09, 0xe1, 0x66, 0xbe, 0x60, 0xb3, 0x3f, 0xbe,
	0x6c, 0x2f, 0xe2, 0xbe, 0xcc, 0x4a, 0xab, 0xbd, 0xfe, 0x08, 0x89, 0xbe,
	0xb4, 0xa8, 0xe1, 0xbd, 0x5c, 0x2e, 0xc1, 0xbe, 0xac, 0x94, 0x24, 0x3e,
	0x0f, 0xdf, 0x22, 0xbf, 0x3f, 0xe5, 0x90, 0x3d, 0xc2, 0x9a, 0x0d, 0xbf,
	0xb0, 0x09, 0x1e, 0xbf, 0x04, 0x7b, 0x1a, 0xbf, 0x08, 0x41, 0x1f, 0xbf,
	0x2a, 0x3c, 0xd1, 0xbd, 0x57, 0x6a, 0x8d, 0xbe, 0x7d, 0x4d, 0x57, 0xbf,
	0xc0, 0x6e, 0x1a, 0x3e, 0xdb, 0x02, 0x24, 0xbf, 0x13, 0x7c, 0x1c, 0x3e,
	0xda, 0xd2, 0x97, 0xbe, 0x28, 0xdf, 0x8c, 0xbf, 0x10, 0x39, 0xb3, 0xbe,
	0x90, 0xc9, 0xff, 0xbe, 0xe2, 0xac, 0x3c, 0xbf, 0x62, 0x42, 0x12, 0xbe,
	0xfb, 0xfd, 0xc1, 0xbe, 0x62, 0xb2, 0x76, 0xbe, 0xd2, 0x84, 0x50, 0xbe,
	0xab, 0x6e, 0xa5, 0xbe, 0xe2, 0x92, 0x02, 0xbe, 0xbe, 0xcf, 0xcc, 0xbe,
	0x02, 0xf5, 0xb1, 0xbe, 0xfe, 0xbf, 0x78, 0xbe, 0x4b, 0xba, 0x99, 0xbe,
	0xec, 0x39, 0xc4, 0xbe, 0xe7, 0x03, 0xb3, 0xbe, 0x5f, 0x22, 0x17, 0xbe,
	0xc1, 0xd7, 0x04, 0xbf, 0xdc, 0x44, 0xb7, 0x3a, 0xd5, 0x0a, 0x31, 0x3e,
	0xc5, 0xdd, 0x82, 0xbe, 0x27, 0x29, 0x2b, 0xbe, 0x77, 0x8e, 0x96, 0x3d,
	0xb3, 0x18, 0x87, 0xbe, 0x1c, 0xf2, 0x0c, 0xbf, 0xd0, 0x0b, 0xab, 0xbd,
	0x57, 0x5f, 0xcc, 0xbd, 0xb8, 0x9c, 0x32, 0xbe, 0x37, 0x96, 0x18, 0xbf,
	0x08, 0xcf, 0x2c, 0xbf, 0x56, 0x2d, 0xb1, 0x3d, 0xa4, 0x12, 0x3f, 0x3e,
	0xfc, 0x6f, 0x92, 0x3e, 0x8e, 0xbc, 0x1c, 0xbd, 0xa1, 0x81, 0x2f, 0xbe,
	0xc5, 0xf3, 0xb1, 0xbb, 0x59, 0x16, 0xe0, 0xbe, 0xb1, 0x77, 0x27, 0xbf,
	0x42, 0xf8, 0xab, 0xbd, 0x6a, 0x94, 0x6c, 0x3e, 0x89, 0x31, 0x9f, 0xbe,
	0x5b, 0xa5, 0x4e, 0x3e, 0x47, 0x54, 0xa3, 0xbe, 0xd4, 0xa6, 0xc6, 0x3d,
	0x8d, 0x5f, 0x63, 0x3e, 0xbc, 0x33, 0x9c, 0xbf, 0x37, 0xc4, 0x8f, 0xbf,
	0x84, 0xf3, 0x8a, 0xbf, 0x8e, 0x4b, 0x33, 0xbf, 0xda, 0xc2, 0x8c, 0xbe,
	0xbc, 0x80, 0x5a, 0xbf, 0xdc, 0x8d, 0x48, 0xbf, 0xcb, 0xf0, 0xf6, 0xbe,
	0xd9, 0x33, 0x51, 0xbf, 0xc8, 0x02, 0x00, 0xbf, 0x48, 0xc2, 0x6a, 0xbd,
	0x2b, 0x5d, 0xc5, 0x3d, 0x2f, 0x94, 0xc0, 0xbe, 0x52, 0x1d, 0x14, 0xbf,
	0x55, 0xde, 0xe4, 0xbe, 0x33, 0x6b, 0x4f, 0xbf, 0xd1, 0x74, 0xdd, 0xbe,
	0x05, 0x24, 0x1c, 0x3d, 0x2a, 0x5e, 0x23, 0xbf, 0x3c, 0x9b, 0x32, 0xbf,
	0xa3, 0x68, 0x78, 0xbe, 0x52, 0x6b, 0xd6, 0xbe, 0x40, 0xb9, 0x2d, 0xbe,
	0xf0, 0xba, 0x83, 0xbe, 0x8a, 0x59, 0x79, 0xbd, 0xc7, 0xa7, 0xb2, 0xbe,
	0x88, 0xd1, 0x1b, 0xbe, 0xb6, 0x3c, 0xfb, 0xbe, 0xd7, 0xd4, 0x00, 0xbf,
	0x7a, 0xf6, 0x61, 0xbf, 0x3c, 0x7f, 0x33, 0xbe, 0xc1, 0x1a, 0xb5, 0xbe,
	0x3b, 0x8d, 0xf0, 0xbe, 0xa2, 0x43, 0xec, 0xbd, 0x1f, 0x13, 0x21, 0x3e,
	0xa7, 0x0a, 0xc9, 0xbe, 0x94, 0xc8, 0xa9, 0x3e, 0x93, 0xca, 0x69, 0xbf,
	0x5b, 0x8c, 0x3e, 0xbe, 0x0d, 0x0e, 0xc5, 0xbd, 0x4c, 0xbd, 0xd3, 0x3e,
	0xa0, 0xbc, 0x38, 0x3e, 0x8a, 0x5a, 0xce, 0xbe, 0xe1, 0x9a, 0xa9, 0xbe,
	0x1e, 0xee, 0x4c, 0xbf, 0xaf, 0x06, 0x75, 0x3e, 0x8d, 0xa5, 0xef, 0x3e,
	0x29, 0x5a, 0x9e, 0xbe, 0x9d, 0xb4, 0xf4, 0xbb, 0x85, 0x3b, 0x5d, 0xbe,
	0x78, 0x96, 0xa3, 0xbd, 0xef, 0x9e, 0xc9, 0x3e, 0xc2, 0x1b, 0x1f, 0xbf,
	0xe0, 0xc7, 0xa6, 0xbe, 0x5d, 0xa9, 0x0b, 0xbf, 0x0c, 0x56, 0x42, 0xbf,
	0x6c, 0x16, 0x94, 0xbe, 0x17, 0x03, 0x32, 0xbd, 0xc3, 0xe2, 0xb8, 0xbe,
	0xfe, 0x45, 0x84, 0xbf, 0xda, 0x13, 0x02, 0xbf, 0x4c, 0x31, 0x68, 0xbf,
	0x99, 0x79, 0x5d, 0xbe, 0x23, 0xbb, 0xa2, 0xbb, 0x3d, 0x66, 0x49, 0xbf,
	0x01, 0xa2, 0x3d, 0xbf, 0x63, 0xf6, 0x10, 0xbf, 0x07, 0x37, 0x77, 0xbe,
	0x7d, 0xc5, 0xd9, 0xbc, 0x12, 0xd1, 0x03, 0xbf, 0x7a, 0xe2, 0xea, 0xbe,
	0x46, 0x19, 0x12, 0xbf, 0x98, 0x58, 0xac, 0x3e, 0xe5, 0xd1, 0x5e, 0xbe,
	0x1a, 0x6b, 0x35, 0xbe, 0x0a, 0x88, 0x5b, 0x3e, 0x4c, 0xfe, 0xeb, 0xbe,
	0x35, 0xa3, 0x64, 0xbe, 0xaf, 0xd2, 0xb2, 0xbe, 0x31, 0x61, 0xe8, 0xbe,
	0x04, 0x0f, 0xbd, 0xbe, 0x9e, 0x6f, 0xa0, 0xbd, 0x83, 0xd7, 0xbb, 0xbd,
	0x96, 0x5c, 0x24, 0xbf, 0x37, 0x6c, 0x84, 0xbe, 0xec, 0xf0, 0xf5, 0xbd,
	0x14, 0xdd, 0xd9, 0x3d, 0x52, 0x5c, 0xaa, 0xbe, 0xa1, 0xeb, 0xe3, 0xbe,
	0x28, 0x54, 0x30, 0xbe, 0x05, 0x04, 0x2e, 0xbe, 0xa1, 0x97, 0xa0, 0xbe,
	0x7c, 0x1d, 0x2d, 0xbf, 0x7b, 0xa7, 0x1d, 0xbf, 0x5f, 0x87, 0x9a, 0xbe,
	0x61, 0x33, 0x2b, 0xbf, 0xcf, 0x70, 0x30, 0xbf, 0xc9, 0xa4, 0x89, 0xbe,
	0x28, 0x75, 0xea, 0xbe, 0x3f, 0xbc, 0xfb, 0xbd, 0xdc, 0x15, 0xf7, 0xbe,
	0x2d, 0xed, 0x18, 0xbf, 0xa9, 0x0b, 0x33, 0xbf, 0xcf, 0xb6, 0x1b, 0x3e,
	0x97, 0x6d, 0x47, 0xbe, 0x43, 0x1c, 0xc7, 0xbe, 0x3a, 0xfd, 0x46, 0xbf,
	0x5f, 0xba, 0x93, 0xbd, 0xfb, 0xd2, 0xaa, 0xbf, 0x38, 0x08, 0x17, 0x3e,
	0x90, 0xe1, 0xde, 0xbe, 0x51, 0x8b, 0x21, 0xbe, 0x22, 0x55, 0x6a, 0x3d,
	0x4e, 0x54, 0xd7, 0xbc, 0x72, 0xa5, 0x43, 0xbf, 0x8a, 0x4e, 0x84, 0x3e,
	0xbc, 0x2a, 0xd9, 0x3e, 0xb3, 0x7d, 0x29, 0xbf, 0x03, 0x22, 0xc4, 0xbf,
	0x30, 0x8f, 0x3f, 0xbf, 0x9c, 0x39, 0x8a, 0xbc, 0x8d, 0xc6, 0x7d, 0xbf,
	0xb9, 0x7f, 0x0b, 0xc0, 0xdd, 0xf2, 0xa6, 0xbe, 0x77, 0x6d, 0x5b, 0xbf,
	0x6e, 0xa4, 0x97, 0xbe, 0xf8, 0xd6, 0x0d, 0xbf, 0xb2, 0x69, 0x4b, 0xbf,
	0x70, 0xf8, 0x55, 0xbf, 0x2d, 0x35, 0x81, 0xbf, 0xa3, 0x33, 0xbb, 0x3d,
	0x07, 0xee, 0x2b, 0xbe, 0xa2, 0x0d, 0xbe, 0xbb, 0x79, 0x86, 0x38, 0xbf,
	0x5c, 0xfb, 0xd1, 0x3e, 0x83, 0x96, 0x1b, 0xbf, 0x61, 0xd1, 0x0d, 0xc0,
	0x6c, 0x29, 0xbd, 0xbe, 0xc8, 0xdc, 0xb5, 0xbf, 0x33, 0xff, 0x81, 0xbd,
	0x6a, 0xf5, 0x38, 0xbf, 0x0d, 0xab, 0xed, 0x3d, 0x41, 0x9b, 0x91, 0xbf,
	0x32, 0x8f, 0xef, 0xbe, 0x47, 0xe7, 0x06, 0xc0, 0x42, 0x58, 0x94, 0xbe,
	0xae, 0xef, 0x0a, 0x3f, 0xd0, 0x53, 0x0a, 0xc0, 0x4b, 0x0d, 0xdd, 0xbc,
	0x26, 0x60, 0xd4, 0xbd, 0x19, 0xdd, 0xae, 0xbe, 0xc7, 0x9d, 0xd7, 0xbf,
	0x94, 0x6e, 0x9b, 0xbe, 0x50, 0x08, 0x6c, 0xbf, 0x4b, 0x12, 0x3b, 0x39,
	0x60, 0x52, 0xba, 0xbe, 0xfb, 0x31, 0x1b, 0xbc, 0xfe, 0x37, 0xc9, 0x3e,
	0x46, 0x07, 0xa5, 0xbe, 0x20, 0xfa, 0x63, 0xbe, 0x07, 0xb5, 0x3e, 0xbf,
	0xa7, 0x38, 0xf0, 0xbf, 0x15, 0x26, 0x80, 0x3e, 0x32, 0xcb, 0xc8, 0xbd,
	0x51, 0x53, 0x7f, 0xbe, 0xaf, 0x55, 0x4b, 0xbe, 0x40, 0x50, 0x93, 0xbf,
	0x84, 0x51, 0x21, 0x3e, 0xac, 0xeb, 0x2f, 0xbf, 0xea, 0xc9, 0x2e, 0xc0,
	0x62, 0xa6, 0x11, 0xc0, 0x90, 0x4b, 0x78, 0xbb, 0x4b, 0xef, 0x34, 0xc0,
	0xd2, 0xf4, 0xb8, 0xbe, 0x0f, 0xae, 0xbc, 0xbf, 0x6a, 0x61, 0xda, 0xbd,
	0x76, 0x75, 0xbe, 0xbd, 0x85, 0x53, 0xda, 0xbe, 0x91, 0x19, 0x19, 0xc0,
	0x90, 0xe3, 0x1f, 0x3f, 0x59, 0x1f, 0xdf, 0x3e, 0x80, 0x83, 0x97, 0xbf,
	0xca, 0x74, 0x2a, 0xbe, 0x1d, 0x22, 0x73, 0x3e, 0xb6, 0x51, 0xa5, 0xbd,
	0x1c, 0xc7, 0x53, 0x3e, 0x16, 0x47, 0x8e, 0xbf, 0x2e, 0x37, 0x8f, 0xbd,
	0x2b, 0xb1, 0x3f, 0xbf, 0xa1, 0x67, 0xbb, 0xbf, 0x04, 0x82, 0x50, 0xbf,
	0x39, 0x21, 0x86, 0x3d, 0xa9, 0x2c, 0x4c, 0xbf, 0xa7, 0x66, 0xc0, 0xbf,
	0xcd, 0x99, 0x54, 0xbf, 0x14, 0xfe, 0xa9, 0xbf, 0xad, 0xa5, 0x32, 0xbf,
	0x08, 0x1b, 0x88, 0xbe, 0xd0, 0xc8, 0xaf, 0xbf, 0x50, 0xcc, 0x27, 0x3f,
	0x46, 0xb1, 0xbd, 0xbd, 0x02, 0xc7, 0x2d, 0xbf, 0x66, 0xef, 0x3f, 0xbf,
	0xd8, 0x73, 0xb6, 0xbf, 0x07, 0xed, 0x11, 0xbf, 0x1f, 0xc4, 0x9e, 0xbf,
	0xd8, 0x64, 0xbf, 0xbf, 0x66, 0xbb, 0x80, 0xbe, 0x23, 0xe9, 0x2e, 0xc0,
	0x83, 0xcf, 0x4b, 0xbd, 0xe2, 0x0e, 0xd3, 0xbf, 0xaa, 0xb4, 0x1e, 0x3f,
	0xf5, 0xac, 0x43, 0x3d, 0x7a, 0x06, 0x1f, 0xbd, 0x7f, 0x81, 0xb8, 0xbd,
	0x4b, 0x7f, 0xb6, 0x3e, 0x0e, 0xc0, 0xac, 0xbf, 0x26, 0x37, 0x9e, 0xbf,
	0xa1, 0xb3, 0x16, 0xbe, 0x4f, 0xde, 0x8c, 0xbf, 0x3e, 0xf3, 0x8f, 0xbf,
	0x2a, 0x4c, 0xcb, 0xbf, 0x4d, 0x75, 0x10, 0xbf, 0x13, 0x63, 0xf0, 0xbf,
	0xfa, 0xb7, 0xbd, 0xbe, 0xf6, 0xda, 0xe8, 0x3e, 0x72, 0xc6, 0xab, 0xbf,
	0x78, 0x2a, 0xa3, 0xbf, 0xaa, 0xf6, 0x1e, 0xbe, 0xb9, 0x51, 0x25, 0xc0,
	0x4a, 0x4b, 0x2e, 0xbe, 0x9f, 0xc1, 0x33, 0xbf, 0x3a, 0x28, 0xd5, 0xbf,
	0x07, 0xa3, 0xe3, 0x3e, 0xa2, 0x5c, 0xc5, 0x3e, 0xf4, 0x24, 0x92, 0x3e,
	0xba, 0x31, 0x24, 0xbf, 0x9c, 0x59, 0xb0, 0xbf, 0x65, 0xb2, 0xbc, 0xbf,
	0xd1, 0xbf, 0x14, 0xc0, 0x58, 0xa0, 0x49, 0x3f, 0xed, 0xe9, 0x39, 0xbf,
	0xb1, 0x15, 0x7b, 0xbe, 0x20, 0x88, 0x92, 0xbd, 0xa7, 0x61, 0xce, 0xbe,
	0x1b, 0xe4, 0xc7, 0xbe, 0xe9, 0xd7, 0x65, 0x3e, 0x6a, 0x93, 0x6b, 0xbe,
	0xd3, 0xec, 0xb9, 0xbe, 0x1a, 0x9c, 0x97, 0xbe, 0xdf, 0xb6, 0x21, 0xbe,
	0x11, 0xef, 0xd9, 0xbd, 0x74, 0x3f, 0x15, 0xbe, 0x49, 0x49, 0x7a, 0xbe,
	0x0f, 0x76, 0xb5, 0xbd, 0x98, 0xd4, 0xba, 0xbe, 0x4b, 0xcf, 0x33, 0xbe,
	0x84, 0xd2, 0x32, 0xbd, 0xb8, 0xaf, 0x34, 0xbf, 0x6a, 0xd6, 0xe4, 0x3d,
	0x3f, 0x2e, 0x7b, 0xbe, 0x56, 0x89, 0x21, 0xbe, 0x11, 0xa9, 0x9f, 0xbe,
	0x37, 0x4f, 0x80, 0xbe, 0x02, 0x01, 0xbd, 0xbe, 0x36, 0x2b, 0xc3, 0xbe,
	0x35, 0x0e, 0x4b, 0xbe, 0x48, 0x29, 0x42, 0xbe, 0xbe, 0x2c, 0x3f, 0x3e,
	0xdf, 0x69, 0x9c, 0xbd, 0xac, 0x0d, 0x80, 0xbe, 0x9c, 0x81, 0x88, 0xbe,
	0x5d, 0xce, 0xb6, 0xbd, 0x80, 0xfa, 0x24, 0xbe, 0xee, 0x4d, 0x78, 0xbd,
	0x1b, 0x57, 0x9b, 0xbe, 0x3a, 0x1f, 0x05, 0xbe, 0xbd, 0xaa, 0x15, 0x3d,
	0x02, 0xd6, 0x67, 0xbe, 0x1d, 0xdb, 0x4e, 0xbd, 0xee, 0xb2, 0xb9, 0xbe,
	0x50, 0x3c, 0xdd, 0xbd, 0x6c, 0xb2, 0x82, 0xbe, 0x10, 0x26, 0x17, 0xbd,
	0xdd, 0xb3, 0x9d, 0xbe, 0x88, 0x73, 0xfa, 0xbd, 0xaf, 0xa0, 0xc0, 0xbe,
	0x79, 0x0c, 0xb3, 0xbe, 0x58, 0x16, 0x4b, 0xbe, 0x12, 0xa7, 0xb8, 0xbe,
	0x70, 0xf8, 0xc2, 0xbe, 0x70, 0x25, 0x48, 0xbe, 0x8b, 0xf0, 0x15, 0x3e,
	0xd6, 0x3b, 0xc3, 0xbd, 0x16, 0x36, 0x5d, 0xbe, 0x30, 0x74, 0x1e, 0x3d,
	0xe1, 0x96, 0x05, 0xbe, 0x41, 0x36, 0x1e, 0xbe, 0x5d, 0xf0, 0x98, 0xbe,
	0x58, 0x88, 0x92, 0xbd, 0x45, 0x92, 0x25, 0xbe, 0xd0, 0x46, 0x8a, 0xbe,
	0xe7, 0x2f, 0x36, 0xbe, 0xb1, 0x8f, 0xa2, 0xbe, 0xc8, 0x3a, 0x92, 0xbe,
	0x0c, 0x1f, 0x69, 0xbe, 0xf5, 0x31, 0x9b, 0xbf, 0x49, 0xa7, 0x9f, 0xbd,
	0x5d, 0xd2, 0xce, 0x3e, 0x02, 0x11, 0xd3, 0xbf, 0xc3, 0x7b, 0xc1, 0xbe,
	0x5e, 0xcb, 0x0f, 0xbf, 0x14, 0xa9, 0xf5, 0xbc, 0xae, 0x93, 0x04, 0xbf,
	0x59, 0x7c, 0xaf, 0xbe, 0x6f, 0xc2, 0x25, 0xbf, 0xf9, 0xe5, 0x35, 0xbf,
	0x87, 0x50, 0x65, 0xbf, 0x10, 0xd2, 0x8e, 0xbe, 0x39, 0x14, 0x99, 0xbf,
	0x82, 0xfb, 0xe8, 0xbf, 0x0d, 0x51, 0x8d, 0xbf, 0x58, 0x57, 0x1a, 0xbf,
	0xf4, 0x53, 0x40, 0xbf, 0x3e, 0x00, 0x25, 0xbf, 0x2c, 0xe4, 0x8c, 0xbf,
	0xf4, 0xcc, 0x1d, 0xbf, 0xf3, 0xd7, 0x5d, 0xbf, 0x3f, 0xd3, 0x37, 0xbf,
	0xa0, 0x46, 0x59, 0xbf, 0x42, 0x6c, 0xc0, 0xbd, 0x07, 0x9a, 0x4b, 0xbe,
	0x43, 0x94, 0x43, 0xbf, 0x3a, 0xb8, 0xcd, 0xbf, 0xe2, 0x41, 0x7f, 0x3d,
	0x5f, 0xa6, 0x11, 0xc0, 0xa1, 0xe9, 0x46, 0xbf, 0x76, 0x87, 0x06, 0xbf,
	0xba, 0x0a, 0xa2, 0xbe, 0x97, 0xb5, 0x3e, 0xbf, 0xa2, 0x1a, 0xf0, 0xbe,
	0x1e, 0xc5, 0x98, 0xbe, 0x67, 0x40, 0x4b, 0xbf, 0x9c, 0x90, 0x46, 0xbf,
	0x0a, 0x63, 0x6f, 0xbe, 0x57, 0x28, 0x5a, 0xbf, 0xbb, 0x29, 0x3b, 0xbf,
	0xa2, 0x98, 0xa6, 0xbf, 0x50, 0x22, 0xf1, 0xbf, 0xfb, 0x5e, 0xd5, 0x3e,
	0x23, 0xb7, 0x25, 0x3e, 0xc1, 0x6a, 0xb0, 0xbc, 0xe4, 0x57, 0x27, 0x3d,
	0x26, 0xb4, 0x33, 0xbf, 0xb1, 0x21, 0xdb, 0xbe, 0x09, 0x8b, 0xbe, 0x3c,
	0x0f, 0xbe, 0x47, 0x3f, 0x03, 0x7a, 0xe3, 0x3e, 0xa5, 0x0c, 0x81, 0xbf,
	0xbb, 0xd6, 0x10, 0xbd, 0x29, 0xd7, 0x9c, 0xbf, 0xc0, 0x38, 0x4d, 0xbf,
	0x6d, 0xe4, 0x0e, 0xbe, 0xcb, 0x98, 0x60, 0xbf, 0x8a, 0x79, 0x55, 0xbf,
	0x8a, 0x0a, 0x06, 0x3e, 0xd6, 0xa3, 0xe5, 0xbe, 0xdc, 0xda, 0x6c, 0xbe,
	0x8e, 0x18, 0xac, 0x3d, 0x59, 0x77, 0xc8, 0xbe, 0x43, 0x0d, 0x1f, 0x3f,
	0xd9, 0x82, 0x45, 0xbd, 0xa9, 0x15, 0x1f, 0xbf, 0x50, 0xa8, 0xc0, 0xbe,
	0x1d, 0xaf, 0x4a, 0xbe, 0x90, 0xcc, 0x64, 0xbf, 0x1b, 0x13, 0xb2, 0xbe,
	0x4e, 0x2d, 0x6b, 0xbe, 0x0d, 0xa7, 0xc0, 0xbf, 0x91, 0x62, 0x94, 0x3e,
	0x06, 0xcb, 0xec, 0x3c, 0x9c, 0x0b, 0x42, 0x3e, 0x56, 0x7f, 0x94, 0xbe,
	0xb3, 0xc2, 0x83, 0xbf, 0x91, 0x3f, 0x0a, 0x3e, 0x64, 0xe0, 0xa1, 0xbe,
	0x62, 0x6b, 0x54, 0xbe, 0xf2, 0xf3, 0x83, 0xbf, 0x5a, 0x34, 0x99, 0xbf,
	0x16, 0x96, 0x31, 0xbf, 0x99, 0xad, 0x9a, 0xbf, 0x31, 0xa8, 0xaa, 0xbe,
	0x0e, 0xc2, 0x09, 0xbf, 0xc1, 0xf5, 0x98, 0xbe, 0xc6, 0x11, 0xf9, 0x3e,
	0x5c, 0x69, 0x14, 0xbf, 0x2d, 0xa0, 0x3d, 0x3e, 0xc7, 0xa1, 0xa1, 0xbe,
	0xfe, 0x56, 0x8c, 0xbf, 0x38, 0x98, 0x85, 0x3d, 0x91, 0xbb, 0xbc, 0x3e,
	0xe7, 0xd1, 0x78, 0x3e, 0x52, 0xd2, 0x61, 0xbf, 0x97, 0x8d, 0x23, 0x3f,
	0x3f, 0xca, 0x10, 0x3f, 0x60, 0x3d, 0x4b, 0x3f, 0x6d, 0x1e, 0x2e, 0xbe,
	0x8f, 0x49, 0xbd, 0xbf, 0xab, 0x67, 0x09, 0xc0, 0xe3, 0xbb, 0x30, 0xbf,
	0xa0, 0xa2, 0x3b, 0xbf, 0xab, 0x2a, 0xcf, 0xbf, 0x86, 0xb9, 0xef, 0xbe,
	0x08, 0x04, 0x81, 0xbf, 0xd4, 0xe4, 0x9f, 0x3c, 0xe7, 0x8d, 0xa0, 0xbf,
	0x4f, 0xb4, 0x82, 0xbf, 0xad, 0x83, 0x60, 0x3f, 0xb1, 0x3d, 0x0b, 0xbf,
	0x1a, 0x2c, 0xc7, 0xbe, 0x4e, 0xe2, 0x54, 0xbe, 0xae, 0x48, 0xe3, 0x3e,
	0x76, 0x77, 0x80, 0xbf, 0xa4, 0x51, 0xe0, 0x3e, 0x91, 0x11, 0x0e, 0xbf,
	0x72, 0x9a, 0xce, 0xbd, 0x01, 0x5a, 0x7a, 0xbe, 0xe7, 0x7f, 0x18, 0x3e,
	0x49, 0x40, 0x9f, 0xbf, 0xa5, 0x29, 0x0b, 0x3d, 0xd9, 0x7a, 0x9b, 0xbe,
	0x1e, 0x0a, 0x4d, 0xbe, 0xb0, 0xb7, 0x44, 0xbf, 0xcf, 0xac, 0x12, 0x3f,
	0x18, 0xbf, 0xdd, 0xbf, 0x6a, 0xb1, 0x63, 0x3f, 0x9b, 0x8a, 0xd4, 0xbf,
	0x2b, 0xef, 0x3f, 0x3e, 0xe3, 0x62, 0x03, 0xbf, 0x09, 0xd2, 0x86, 0xc0,
	0x35, 0x8e, 0xc6, 0xbf, 0x00, 0xd6, 0xa5, 0xbf, 0x80, 0xd7, 0x22, 0xc0,
	0x43, 0x74, 0x00, 0x3f, 0x63, 0xca, 0xd4, 0xbf, 0x77, 0x0b, 0x5f, 0xbf,
	0xec, 0x1a, 0x18, 0xc0, 0x27, 0x83, 0xed, 0xbe, 0x67, 0x78, 0xcf, 0xbe,
	0x29, 0x66, 0x51, 0xbf, 0xe2, 0xdd, 0x11, 0xbf, 0x00, 0x21, 0x36, 0xbd,
	0x88, 0xb6, 0xf3, 0xbf, 0x00, 0x0f, 0x62, 0x3d, 0xed, 0xbc, 0xe5, 0xbf,
	0x7e, 0x9b, 0xb8, 0x3c, 0xb7, 0xd5, 0x33, 0xbf, 0xe1, 0x8c, 0x23, 0xbf,
	0xa0, 0xa3, 0xb6, 0xbe, 0x04, 0x61, 0xe4, 0xbe, 0xa1, 0xc9, 0x17, 0xc0,
	0xd9, 0xbc, 0xeb, 0xbd, 0x8d, 0xf4, 0x85, 0xbe, 0x96, 0xb6, 0xcc, 0xbe,
	0x67, 0x0e, 0x96, 0xbf, 0x40, 0xb7, 0x00, 0x3e, 0xc1, 0xaa, 0xf1, 0xbf,
	0xbf, 0x26, 0xb3, 0xbf, 0x9a, 0xa6, 0x03, 0xbf, 0xf4, 0x38, 0x7f, 0x3e,
	0xb9, 0x4c, 0x30, 0xbf, 0x91, 0x53, 0xf6, 0x3d, 0xc9, 0xac, 0x9a, 0xbf,
	0x79, 0xd6, 0xa1, 0xbf, 0x21, 0xfa, 0x8c, 0xbe, 0xac, 0xd6, 0x2b, 0x3c,
	0x4e, 0x43, 0xd1, 0xbf, 0x97, 0x5b, 0xb6, 0xbf, 0xf5, 0x4b, 0x34, 0xbe,
	0x9c, 0xc2, 0xb0, 0xbe, 0xef, 0xa3, 0x57, 0xbf, 0xa0, 0xa0, 0x58, 0x3f,
	0x22, 0x24, 0x83, 0xbf, 0x95, 0x28, 0x89, 0xbe, 0x1b, 0xd9, 0x55, 0x3f,
	0xbd, 0x54, 0x3a, 0x3d, 0x10, 0xca, 0xce, 0xbe, 0xfc, 0x86, 0x70, 0xbf,
	0xa4, 0xab, 0xb3, 0xbf, 0x30, 0x03, 0x1d, 0xc0, 0x42, 0xc8, 0x42, 0xbf,
	0xfe, 0x1d, 0x0d, 0xc0, 0x10, 0x4c, 0xa6, 0xbf, 0xea, 0x21, 0x40, 0xbf,
	0x92, 0x7c, 0xde, 0xbf, 0x76, 0x49, 0x98, 0xbf, 0xf5, 0x36, 0xa8, 0xbf,
	0x85, 0x39, 0x6e, 0xbf, 0x58, 0x8a, 0x3d, 0xbe, 0x36, 0xee, 0x93, 0xbc,
	0x04, 0x04, 0x0f, 0xbe, 0x74, 0xc1, 0x7a, 0xbe, 0x80, 0xd4, 0x85, 0x3c,
	0xad, 0x22, 0xdb, 0xbe, 0x31, 0xb5, 0x0d, 0xbe, 0x44, 0xbe, 0xa3, 0xbd,
	0x1e, 0x55, 0x1b, 0xbe, 0x0a, 0xb9, 0x3b, 0xbe, 0x15, 0x90, 0xc3, 0xbe,
	0xbe, 0x4d, 0x0e, 0xbe, 0xf8, 0x61, 0x91, 0xbd, 0x84, 0x91, 0x09, 0x3b,
	0x66, 0x5b, 0x3d, 0xbd, 0x66, 0x25, 0x81, 0xbd, 0x10, 0x32, 0x1c, 0xbe,
	0x2b, 0xbc, 0x53, 0xbd, 0xfc, 0xca, 0x5b, 0xbe, 0x05, 0x64, 0x10, 0xbe,
	0xb8, 0xc6, 0xa7, 0xbd, 0xe6, 0x02, 0x82, 0x3d, 0xfc, 0x25, 0x9a, 0xbe,
	0xf0, 0xfc, 0xc4, 0xbd, 0x2d, 0xf9, 0x2b, 0xbc, 0xb7, 0xf1, 0x47, 0xbe,
	0xe4, 0x56, 0xdf, 0xbd, 0x33, 0xbb, 0x17, 0xbe, 0x00, 0x4f, 0x8b, 0x3d,
	0x5c, 0xa1, 0x24, 0xbe, 0x19, 0xd7, 0x85, 0xbe, 0xe1, 0xfd, 0x32, 0xbc,
	0x9f, 0x39, 0x17, 0xbe, 0xa0, 0xee, 0x30, 0xbe, 0x4b, 0x8f, 0xf9, 0xbd,
	0xd6, 0x39, 0x29, 0xbe, 0x12, 0xce, 0x73, 0xbd, 0x89, 0x7b, 0x21, 0x3c,
	0xf5, 0x2b, 0xee, 0xbd, 0xbd, 0x46, 0x87, 0xbd, 0xe2, 0x1b, 0x0a, 0xbe,
	0xd9, 0x7f, 0x42, 0x3e, 0xc6, 0x08, 0xbe, 0xbd, 0xc9, 0x9c, 0x81, 0xbe,
	0xc7, 0x83, 0x2b, 0x3e, 0xd4, 0x39, 0x01, 0xbe, 0xc8, 0x14, 0x2a, 0xbd,
	0xec, 0xb5, 0x3c, 0xbd, 0x40, 0xd6, 0x8a, 0xbe, 0xc9, 0x44, 0xed, 0xbe,
	0x74, 0xf0, 0x69, 0xbe, 0xb7, 0x71, 0x28, 0xbe, 0x4e, 0x61, 0x21, 0xbc,
	0x2c, 0xf7, 0x51, 0xbe, 0xc4, 0x59, 0x6f, 0x3d, 0xdb, 0x40, 0x81, 0xbd,
	0xd5, 0x9c, 0x83, 0xbe, 0xa4, 0x6b, 0x3a, 0xbe, 0x4d, 0x6a, 0x83, 0x3c,
	0x5e, 0xf7, 0xaf, 0xbe, 0xf0, 0x1c, 0xf8, 0xbd, 0x2b, 0xa5, 0x97, 0xbe,
	0xea, 0xf1, 0xaf, 0xbe, 0xe9, 0xce, 0x6e, 0x3d, 0xc2, 0x28, 0x45, 0x3d,
	0x8e, 0xbb, 0xee, 0x3e, 0x71, 0x75, 0x85, 0xbe, 0xd2, 0xe8, 0xef, 0xbd,
	0x94, 0xa3, 0x18, 0xbf, 0x02, 0xb0, 0x5d, 0xbf, 0x3b, 0x05, 0xf6, 0xbd,
	0x68, 0xc7, 0x55, 0xbe, 0x0b, 0xab, 0x94, 0xbe, 0xe5, 0x99, 0x7b, 0xbf,
	0x64, 0xfb, 0xef, 0xbe, 0xa2, 0xfa, 0x6e, 0xbf, 0x6f, 0xee, 0x47, 0xbf,
	0x4e, 0x3c, 0x05, 0xbe, 0xae, 0xcc, 0x60, 0xbf, 0x3a, 0xec, 0xac, 0xbf,
	0xaa, 0x90, 0x2c, 0xbf, 0x63, 0x30, 0x60, 0x3e, 0xec, 0x0d, 0x9e, 0xbf,
	0xc5, 0xae, 0xa4, 0xbe, 0xd2, 0x97, 0xb9, 0xbc, 0x81, 0x01, 0xc4, 0xbf,
	0x8f, 0x88, 0x9d, 0xbd, 0x7b, 0x0b, 0xe5, 0xbe, 0x52, 0xd2, 0xfc, 0xbe,
	0x20, 0x0d, 0x8c, 0xbf, 0xc0, 0xd0, 0xa5, 0x3d, 0xb7, 0xf1, 0x82, 0xbf,
	0xe5, 0xc4, 0xc7, 0x3d, 0x7d, 0xb4, 0xc2, 0xbd, 0xef, 0x89, 0xc9, 0xbe,
	0x58, 0x40, 0x67, 0x3d, 0x64, 0x4d, 0x20, 0xbf, 0x40, 0xae, 0xf8, 0xbd,
	0x13, 0x1b, 0xe0, 0x3d, 0xdf, 0x9c, 0x9d, 0xbf, 0x43, 0x43, 0x29, 0xbf,
	0xb9, 0x01, 0xa8, 0xbe, 0x4b, 0x9a, 0x61, 0xbf, 0xb3, 0x29, 0xd8, 0xbe,
	0x8b, 0x2f, 0x0b, 0xbf, 0x3b, 0xe5, 0x13, 0xbf, 0xcb, 0x85, 0x59, 0xbf,
	0xb6, 0xee, 0x66, 0x3e, 0xca, 0xb7, 0x32, 0xbe, 0x9a, 0x80, 0xb2, 0xbe,
	0xe6, 0xe8, 0x0b, 0xc0, 0xde, 0x18, 0xe1, 0xbd, 0x27, 0x86, 0x43, 0xbf,
	0xb8, 0x8b, 0xe5, 0xbe, 0x35, 0x4a, 0xe9, 0xbd, 0xdb, 0x43, 0x45, 0x3c,
	0xc0, 0xb8, 0x97, 0xbe, 0x93, 0x72, 0x03, 0xbf, 0xa4, 0x3b, 0x38, 0xbf,
	0xb6, 0x4d, 0x9c, 0xbe, 0x4c, 0xe9, 0x3b, 0xbe, 0x46, 0x92, 0x3b, 0xbe,
	0x27, 0x0d, 0x9c, 0xbf, 0x58, 0x00, 0xbe, 0xbe, 0x6b, 0x57, 0x74, 0xbe,
	0xaa, 0x4b, 0x1f, 0xbf, 0x3c, 0x90, 0xfe, 0xbe, 0x30, 0xe0, 0x01, 0xbf,
	0xf5, 0xab, 0x0c, 0xbe, 0x3d, 0x9c, 0x22, 0xbe, 0x4a, 0x3c, 0xf7, 0x3d,
	0x3d, 0xbf, 0x50, 0xbf, 0xb2, 0x05, 0xd9, 0xbb, 0x20, 0x89, 0x40, 0xbf,
	0xb0, 0xe5, 0x05, 0xbf, 0x1f, 0x1e, 0xb1, 0xbc, 0x33, 0x90, 0x78, 0xbe,
	0x65, 0x05, 0xb9, 0xbe, 0x0c, 0x41, 0x46, 0x3c, 0xf2, 0xdf, 0x13, 0xbf,
	0x6b, 0xa5, 0x0f, 0xbe, 0x29, 0x5e, 0x62, 0xbd, 0x41, 0xda, 0x56, 0xbf,
	0xd4, 0xcf, 0x01, 0xbc, 0xa5, 0x8c, 0xbb, 0xbd, 0xd1, 0x44, 0xc8, 0xbe,
	0xe8, 0x1f, 0x5e, 0xbe, 0x61, 0x86, 0x9a, 0xbe, 0xce, 0x4f, 0xa4, 0xbd,
	0x63, 0x5a, 0x33, 0xbe, 0x30, 0xb7, 0xc2, 0xbe, 0x03, 0xc5, 0x2e, 0xbf,
	0x3a, 0x21, 0xa4, 0xbd, 0xed, 0xa8, 0x28, 0xbd, 0x30, 0x99, 0xda, 0xbe,
	0xa3, 0x33, 0x29, 0xbe, 0x92, 0x37, 0x61, 0xbe, 0xdd, 0xa1, 0x30, 0xbe,
	0x93, 0x18, 0x25, 0xbe, 0x66, 0x65, 0xd5, 0x3d, 0x70, 0xa9, 0x1f, 0xbe,
	0xbf, 0xb9, 0x98, 0xbf, 0x46, 0xf5, 0x0e, 0xbf, 0xd6, 0xbc, 0xd6, 0xbe,
	0x25, 0x7f, 0xdd, 0xbe, 0x4b, 0x9b, 0xbb, 0xbe, 0x8d, 0xd0, 0x18, 0xbe,
	0xbe, 0xa3, 0x66, 0xbe, 0xde, 0xe6, 0x92, 0x3a, 0xe9, 0xe4, 0x22, 0xbf,
	0xa1, 0xcd, 0x08, 0xbf, 0xcc, 0xf9, 0x14, 0xbf, 0xf3, 0x22, 0x58, 0xbe,
	0x9b, 0x87, 0x23, 0xbe, 0x80, 0x52, 0x81, 0xbe, 0xb4, 0x06, 0x6a, 0xbe,
	0x6c, 0xb2, 0xa1, 0xbe, 0x97, 0x69, 0x0d, 0xbd, 0x99, 0x0c, 0x44, 0xbf,
	0x2e, 0x6b, 0x58, 0x3e, 0xe4, 0xca, 0x12, 0xbc, 0x09, 0x3c, 0x5b, 0xbe,
	0x73, 0x58, 0xa3, 0xbd, 0xd3, 0x3e, 0x1b, 0xbe, 0xe3, 0x75, 0xf5, 0x3d,
	0x74, 0x79, 0xb2, 0xbe, 0xff, 0x5c, 0xc0, 0xbc, 0xca, 0xe9, 0xcc, 0xbe,
	0xcd, 0x4a, 0x93, 0xbd, 0xd8, 0xa4, 0xbe, 0xbe, 0xde, 0x7b, 0x20, 0xbd,
	0xb1, 0x5b, 0xe0, 0x3d, 0x55, 0xd0, 0xe0, 0xbc, 0x82, 0x41, 0xe1, 0xbd,
	0xdd, 0x09, 0x9e, 0xbe, 0x8c, 0xc9, 0xcb, 0xbe, 0x12, 0x07, 0xba, 0xbe,
	0x25, 0xc5, 0xa3, 0xbe, 0xa3, 0x10, 0x9e, 0xbd, 0xed, 0x75, 0x8a, 0xbe,
	0x92, 0x2f, 0x93, 0xbe, 0xa1, 0xb2, 0x28, 0x3e, 0x89, 0xa0, 0x19, 0xbe,
	0x90, 0xcb, 0xaf, 0xbe, 0x17, 0x8b, 0x3d, 0xbd, 0xda, 0xb0, 0xb7, 0xbd,
	0xbe, 0x5c, 0x58, 0xbf, 0xf6, 0xf1, 0xe9, 0xbe, 0xb4, 0x33, 0x90, 0xbe,
	0x82, 0x76, 0x06, 0xbe, 0x8b, 0xd1, 0x43, 0xbe, 0x8d, 0xe1, 0xd4, 0xbd,
	0xe8, 0x73, 0x49, 0xbe, 0x4e, 0x39, 0x00, 0x3e, 0xaa, 0x92, 0xca, 0xbe,
	0x10, 0xa8, 0xe0, 0xbc, 0x37, 0x70, 0x4c, 0xbd, 0xcc, 0xbe, 0xaf, 0xbd,
	0x70, 0xea, 0xb0, 0x3b, 0x6a, 0x2c, 0xeb, 0xbe, 0x89, 0x0d, 0xac, 0xbe,
	0x1f, 0x54, 0x28, 0xbe, 0xa2, 0x2b, 0x1e, 0xbf, 0x7d, 0x76, 0x8c, 0xbe,
	0xd0, 0x79, 0x99, 0xbe, 0xac, 0x56, 0x00, 0xbf, 0x2e, 0xeb, 0xa8, 0xbe,
	0x6e, 0xf7, 0x3c, 0x3a, 0x3a, 0x55, 0xd7, 0xbe, 0xce, 0xde, 0x12, 0xbe,
	0x56, 0x89, 0xa3, 0xbe, 0x01, 0x7b, 0xed, 0xbe, 0x6a, 0xa1, 0x19, 0xbf,
	0x59, 0xec, 0x85, 0xbe, 0xa3, 0x1f, 0x02, 0xbe, 0xbe, 0xc7, 0xb7, 0xbd,
	0x86, 0x3a, 0x0a, 0x3e, 0xba, 0x46, 0x26, 0xbd, 0xe7, 0x8d, 0xd5, 0xbe,
	0xa5, 0x09, 0xb0, 0xbe, 0xe0, 0x2a, 0xde, 0xbd, 0xde, 0x25, 0x90, 0xbe,
	0x4a, 0x5e, 0x2b, 0xbe, 0x4e, 0xa6, 0xd7, 0x3e, 0xe7, 0x4f, 0x68, 0xbe,
	0x44, 0xbf, 0xc1, 0xbe, 0x63, 0x2f, 0x93, 0xbe, 0xe8, 0xfc, 0x5d, 0xbe,
	0xae, 0x68, 0x9c, 0xbd, 0xb7, 0xf8, 0x92, 0xbe, 0x72, 0x49, 0x9c, 0xbd,
	0x75, 0xbc, 0x41, 0xbe, 0x20, 0xff, 0x45, 0xbe, 0xe5, 0x40, 0xd9, 0xbe,
	0xc1, 0xe0, 0x24, 0xbf, 0x2c, 0xd7, 0xa4, 0x3c, 0x14, 0xaf, 0x7c, 0xbd,
	0x30, 0xc0, 0x14, 0xbd, 0x4d, 0xc5, 0x9c, 0xbd, 0x67, 0xbe, 0x8d, 0xbd,
	0x2c, 0x3b, 0xf5, 0xbd, 0x55, 0x86, 0x91, 0xbb, 0xfd, 0xf6, 0xa3, 0xbe,
	0xc5, 0x3a, 0x8e, 0xbe, 0xcf, 0x39, 0xd6, 0xbe, 0x6d, 0x40, 0xe2, 0xbd,
	0x0e, 0xf6, 0xc9, 0xbc, 0x37, 0x4f, 0x8b, 0xbe, 0x81, 0x4c, 0xdb, 0xbd,
	0xc2, 0x92, 0xd8, 0x3b, 0x18, 0x5d, 0x35, 0xbe, 0xf6, 0x18, 0x02, 0xbe,
	0xc0, 0x74, 0x2c, 0x3c, 0x6e, 0xb2, 0x21, 0xbe, 0xe4, 0xf0, 0xae, 0xbc,
	0xa2, 0x20, 0x16, 0x3e, 0xdf, 0x86, 0x1f, 0xbe, 0xff, 0x4e, 0xa3, 0xbe,
	0x2d, 0xf0, 0x17, 0xbd, 0x1e, 0x69, 0xa3, 0xbc, 0x71, 0xfd, 0x3c, 0xbe,
	0x5c, 0x9c, 0x2d, 0xbe, 0xd7, 0xa9, 0x13, 0xbe, 0x4a, 0xc9, 0x82, 0xbd,
	0x53, 0x31, 0x51, 0xbe, 0xca, 0xd2, 0x7f, 0x3d, 0x8e, 0x86, 0x74, 0xbe,
	0x9d, 0x31, 0x00, 0xbe, 0x74, 0x79, 0x53, 0xbf, 0xbe, 0x4e, 0xff, 0xbd,
	0x68, 0x4b, 0x3a, 0xbd, 0x0f, 0x58, 0x87, 0xbe, 0xad, 0x76, 0xa9, 0x3b,
	0x67, 0xd5, 0x96, 0xbe, 0x21, 0xe9, 0x59, 0x3e, 0xb0, 0x59, 0xb8, 0xbd,
	0x96, 0xba, 0x16, 0x3d, 0x75, 0x6d, 0xa3, 0xbf, 0x19, 0xbf, 0xf8, 0xbd,
	0xe3, 0xac, 0x3a, 0xbd, 0x07, 0x2c, 0x6e, 0xbd, 0x8f, 0xe9, 0x49, 0xbd,
	0x36, 0x8a, 0xa7, 0xbe, 0xce, 0xd5, 0x0f, 0xbe, 0x23, 0x62, 0xd9, 0xbe,
	0xa9, 0x93, 0x89, 0xbe, 0xd8, 0xf3, 0x98, 0xbe, 0x84, 0x2b, 0x0e, 0x3d,
	0x75, 0xeb, 0xcb, 0x3e, 0xf9, 0xcb, 0x70, 0x3c, 0x0b, 0xbb, 0xcb, 0xbe,
	0x59, 0x96, 0x46, 0xbe, 0xd4, 0x2a, 0xe8, 0xbd, 0x83, 0xdf, 0xd8, 0xba,
	0x95, 0x09, 0xff, 0x3b, 0x95, 0x16, 0x97, 0x3d, 0x94, 0x87, 0xd9, 0xbd,
	0xaa, 0x6c, 0x57, 0xbd, 0x6f, 0xb0, 0x0b, 0xbe, 0x63, 0x29, 0x10, 0xbe,
	0x66, 0xfc, 0xff, 0xff, 0x04, 0x00, 0x00, 0x00, 0x00, 0x03, 0x00, 0x00,
	0x87, 0xe0, 0xe5, 0x3d, 0xdc, 0x6e, 0x77, 0xbe, 0x6c, 0x48, 0xc5, 0xbe,
	0xe1, 0x7d, 0xbf, 0x3d, 0x59, 0xcc, 0xf4, 0xbc, 0x77, 0x54, 0xca, 0x3e,
	0x4a, 0x40, 0x2d, 0xbe, 0xcc, 0x6b, 0x80, 0xbe, 0xba, 0xc7, 0x06, 0xbf,
	0xda, 0xaa, 0x84, 0xbe, 0x04, 0x23, 0x88, 0x3d, 0x32, 0x4d, 0x89, 0x3e,
	0x66, 0x4e, 0x5d, 0x3d, 0x91, 0x8f, 0x73, 0xbe, 0x5f, 0x8e, 0x0c, 0x3e,
	0x20, 0x69, 0x9a, 0xbb, 0xb2, 0x2f, 0x22, 0x3e, 0xa6, 0x3c, 0x5a, 0xbd,
	0xe2, 0x31, 0xd5, 0x3c, 0x1e, 0x67, 0xea, 0x3d, 0xdf, 0x14, 0x91, 0xbe,
	0x2c, 0xe8, 0x08, 0x3d, 0x98, 0x7a, 0x46, 0x3e, 0xd0, 0xd4, 0x47, 0xbe,
	0x64, 0x57, 0x02, 0xbf, 0x6a, 0x24, 0x4d, 0xbd, 0xa7, 0x18, 0x36, 0xbe,
	0x33, 0xd5, 0xd7, 0x3d, 0xc2, 0x40, 0x2e, 0x3e, 0x5a, 0xbb, 0xf2, 0x3e,
	0x1f, 0xf9, 0xb4, 0x3e, 0x7a, 0xee, 0xe0, 0x3d, 0x0f, 0xa6, 0x25, 0xbe,
	0xad, 0xcf, 0x3e, 0x3e, 0x59, 0xfa, 0x25, 0x3c, 0x7b, 0x64, 0xa5, 0xbe,
	0xc9, 0x96, 0x5f, 0x3c, 0xdc, 0x55, 0xe0, 0x3d, 0x22, 0x0b, 0x22, 0x3e,
	0xb2, 0xc6, 0x46, 0xbe, 0x42, 0x6b, 0x98, 0x3e, 0x0a, 0xe8, 0xcb, 0x3d,
	0xe8, 0xd9, 0xbc, 0xbd, 0x31, 0x54, 0xcf, 0x3d, 0xdd, 0x41, 0xd4, 0x3e,
	0x89, 0x90, 0x7f, 0x3c, 0x20, 0x37, 0x8d, 0x3d, 0x2d, 0xb1, 0x18, 0xbe,
	0x43, 0xf5, 0x4e, 0x3c, 0x74, 0xa4, 0xd5, 0x3d, 0x3e, 0xcf, 0x4a, 0x3e,
	0x49, 0xf7, 0x7e, 0xbe, 0xa3, 0x17, 0x05, 0xbf, 0x22, 0x45, 0x41, 0xbd,
	0x97, 0xaa, 0xa3, 0xbe, 0x38, 0xdb, 0xb2, 0x3c, 0x76, 0x2e, 0x32, 0x3f,
	0x3a, 0x52, 0xdf, 0xbd, 0xb2, 0x32, 0x0a, 0xbe, 0x45, 0xa4, 0x1c, 0xbe,
	0x5f, 0x2e, 0x0a, 0x3e, 0x69, 0xcf, 0x30, 0x3e, 0x11, 0x8f, 0xcd, 0xbd,
	0xd3, 0x11, 0x03, 0x3e, 0x47, 0x78, 0x41, 0x3d, 0x73, 0xf2, 0x79, 0x3e,
	0x41, 0x33, 0xf1, 0xbe, 0x2e, 0x27, 0x89, 0xbd, 0x71, 0xce, 0x55, 0xbd,
	0xd3, 0xf3, 0x54, 0x3e, 0xa0, 0xba, 0x9c, 0x3e, 0x66, 0x34, 0xb4, 0x3e,
	0x81, 0xe3, 0x95, 0x3d, 0xae, 0x46, 0x23, 0xbe, 0xe5, 0x0f, 0xb3, 0x3d,
	0xc9, 0x15, 0xb5, 0x3e, 0x08, 0xeb, 0x26, 0x3e, 0x8f, 0x11, 0x13, 0xbd,
	0x7b, 0x66, 0x01, 0x3d, 0xeb, 0x4b, 0x2a, 0xbe, 0xca, 0x61, 0xc7, 0x3d,
	0x23, 0xb4, 0x0e, 0x3e, 0x17, 0x12, 0xa5, 0x3d, 0x66, 0xb2, 0xda, 0x3e,
	0x6d, 0x47, 0xe2, 0xbe, 0x6a, 0x41, 0x99, 0xbd, 0x68, 0xfd, 0x85, 0x3d,
	0x52, 0xfb, 0x45, 0x3e, 0xb1, 0x36, 0x6c, 0x3f, 0xc0, 0xcb, 0xb6, 0xbd,
	0x09, 0xa9, 0xa3, 0xbe, 0x1f, 0x2f, 0x3b, 0xbd, 0x40, 0xc3, 0x8e, 0x3e,
	0x46, 0x53, 0xb4, 0xbe, 0x9e, 0x49, 0xa1, 0x3c, 0xc0, 0xc3, 0xae, 0x3d,
	0xda, 0x1e, 0xc5, 0x3d, 0x0b, 0x20, 0x0a, 0x3e, 0xad, 0x30, 0xd0, 0xbd,
	0xa2, 0x20, 0xaa, 0xbd, 0x6c, 0x26, 0xf2, 0x3d, 0x9b, 0x1d, 0x11, 0xbe,
	0xc8, 0xf9, 0xd0, 0x3e, 0x52, 0x02, 0xa9, 0x3e, 0xe2, 0xc7, 0xf5, 0xbd,
	0x7c, 0x04, 0xb5, 0x3e, 0x76, 0xb3, 0x52, 0x3c, 0xec, 0xcd, 0x12, 0xbe,
	0x0f, 0x58, 0x63, 0xbd, 0xa9, 0xfc, 0x80, 0xbc, 0x3b, 0xe9, 0x75, 0x3e,
	0x63, 0x1b, 0x03, 0x3e, 0xe4, 0x60, 0xff, 0x3c, 0xd0, 0xa6, 0x64, 0xbc,
	0xe9, 0x55, 0xc2, 0xbd, 0x8b, 0xdf, 0x9f, 0xbe, 0xa0, 0xe4, 0x72, 0x3e,
	0x29, 0xd8, 0x29, 0xbd, 0x20, 0xff, 0x1a, 0x3e, 0x10, 0xbb, 0x92, 0xbd,
	0x42, 0x60, 0xb7, 0xbe, 0x62, 0xea, 0x15, 0x3e, 0xdc, 0xea, 0x92, 0x3e,
	0x9a, 0x72, 0x54, 0x3e, 0xab, 0x08, 0x0e, 0x3e, 0xca, 0x42, 0x43, 0x3e,
	0x51, 0x83, 0xb3, 0x3e, 0x78, 0x77, 0xc1, 0xbc, 0x1e, 0x62, 0xd2, 0xbd,
	0x80, 0x62, 0x50, 0xbe, 0x96, 0x1a, 0x5f, 0xbe, 0x21, 0x51, 0x2f, 0xbe,
	0x2b, 0xc8, 0x4d, 0x3d, 0x69, 0x46, 0x38, 0xbe, 0xd1, 0x8c, 0x18, 0x3e,
	0x17, 0x2c, 0x2c, 0x3e, 0xc4, 0x84, 0x36, 0x3c, 0x7b, 0xc8, 0xb8, 0xbc,
	0x1e, 0x0b, 0x0b, 0xbd, 0xee, 0x37, 0x99, 0xbe, 0xb0, 0xa3, 0xa6, 0xbe,
	0x1b, 0xfa, 0x1e, 0x3e, 0x75, 0x79, 0x23, 0xbe, 0x2c, 0x29, 0xa9, 0xbe,
	0xac, 0x30, 0x1e, 0x3d, 0x95, 0x85, 0x9d, 0x3e, 0x24, 0xda, 0xbc, 0x37,
	0x85, 0xaa, 0x69, 0xbe, 0x71, 0xfd, 0x53, 0x3d, 0x7c, 0xe8, 0x86, 0xbd,
	0x75, 0xbc, 0x4c, 0xbd, 0x41, 0xe2, 0xb5, 0xbc, 0x30, 0x30, 0xcc, 0x3e,
	0xbb, 0xf3, 0x72, 0x3d, 0x72, 0xe3, 0x12, 0xbf, 0xc7, 0x49, 0xb9, 0x3c,
	0x42, 0xdd, 0xb1, 0x3e, 0xb7, 0x2f, 0xe0, 0x3e, 0x34, 0x52, 0x6e, 0xbd,
	0x28, 0xf9, 0x32, 0xbd, 0xbd, 0x72, 0x97, 0xbd, 0x13, 0x12, 0x88, 0x3e,
	0x4e, 0xc2, 0xea, 0xbb, 0x0f, 0xd4, 0x28, 0xbc, 0x18, 0x9c, 0xcb, 0xbe,
	0x0e, 0x9b, 0x7c, 0x3e, 0xc9, 0x76, 0x2a, 0xbe, 0x9b, 0x8c, 0xe4, 0x3d,
	0xa2, 0x63, 0xd6, 0xbb, 0x0d, 0xdb, 0x8a, 0x3c, 0x73, 0xf8, 0xcd, 0xbd,
	0x13, 0xe8, 0x7e, 0xbe, 0x22, 0x91, 0x9f, 0x3e, 0xf7, 0x4f, 0x2e, 0xbe,
	0x8f, 0x3d, 0x3f, 0x3d, 0xbe, 0x59, 0xb6, 0xbe, 0x4e, 0x31, 0x5a, 0xbc,
	0x6b, 0x89, 0xcb, 0xb8, 0x78, 0x68, 0xbd, 0xbc, 0x9f, 0xfa, 0xa9, 0xbe,
	0xcb, 0x29, 0xe8, 0xbd, 0xa6, 0xdb, 0x33, 0x3e, 0x27, 0x99, 0xab, 0x3d,
	0x2b, 0x8e, 0x1d, 0xbd, 0x8d, 0x04, 0xcd, 0xbb, 0x1c, 0xb3, 0x3c, 0xbe,
	0x57, 0x0f, 0x0f, 0xbf, 0x15, 0x9f, 0x89, 0x3e, 0xe6, 0xeb, 0x06, 0xbe,
	0x23, 0xda, 0xf3, 0xbd, 0xf5, 0x3b, 0x1c, 0x3e, 0x18, 0x9e, 0x05, 0x3e,
	0x72, 0xff, 0xff, 0xff, 0x04, 0x00, 0x00, 0x00, 0x80, 0x00, 0x00, 0x00,
	0x3c, 0x69, 0xf2, 0xbe, 0xd9, 0x0e, 0xc8, 0xbe, 0x14, 0xb5, 0x78, 0xbf,
	0x9a, 0x5c, 0x9d, 0xbe, 0x4b, 0xaa, 0xa5, 0x3f, 0xec, 0x37, 0x6a, 0xc0,
	0x9f, 0x7e, 0xd4, 0xbe, 0x85, 0x5f, 0xd9, 0xbe, 0xe7, 0xfb, 0xe3, 0x3e,
	0xe6, 0x3d, 0x8e, 0x3f, 0x2b, 0xb6, 0xbd, 0xbe, 0x3d, 0x74, 0xb7, 0xbe,
	0x1b, 0x83, 0xab, 0xbd, 0xca, 0xab, 0xfd, 0x3e, 0x6c, 0x60, 0x8e, 0x3d,
	0xba, 0xe7, 0xf5, 0xbe, 0x0e, 0xc1, 0x5d, 0xbf, 0xd3, 0x1e, 0x67, 0x3f,
	0x26, 0x89, 0x0d, 0xbf, 0x73, 0x0a, 0xfa, 0xbe, 0xe2, 0xcd, 0xae, 0xbe,
	0x4b, 0xfd, 0x0c, 0xbd, 0x52, 0x60, 0xa7, 0xbe, 0x3b, 0x68, 0xae, 0xbe,
	0x8e, 0x9e, 0xab, 0xbe, 0x85, 0xe4, 0x08, 0x3f, 0xf1, 0x99, 0x52, 0xbe,
	0x2e, 0x57, 0xb3, 0xbe, 0x63, 0x45, 0x91, 0xbc, 0xf6, 0xee, 0x34, 0xbf,
	0x47, 0x38, 0xf7, 0xbe, 0x96, 0x94, 0x27, 0x40, 0x00, 0x00, 0x06, 0x00,
	0x08, 0x00, 0x04, 0x00, 0x06, 0x00, 0x00, 0x00, 0x04, 0x00, 0x00, 0x00,
	0x18, 0x00, 0x00, 0x00, 0x69, 0x29, 0xac, 0x3d, 0x74, 0x95, 0x9f, 0xbe,
	0xf1, 0x29, 0x7f, 0xbd, 0x57, 0xf6, 0x4d, 0xbf, 0xa4, 0x68, 0x21, 0xbf,
	0x86, 0x53, 0x39, 0xbf, 0xa8, 0xfa, 0xff, 0xff, 0xac, 0xfa, 0xff, 0xff,
	0x0f, 0x00, 0x00, 0x00, 0x4d, 0x4c, 0x49, 0x52, 0x20, 0x43, 0x6f, 0x6e,
	0x76, 0x65, 0x72, 0x74, 0x65, 0x64, 0x2e, 0x00, 0x01, 0x00, 0x00, 0x00,
	0x14, 0x00, 0x00, 0x00, 0x00, 0x00, 0x0e, 0x00, 0x18, 0x00, 0x14, 0x00,
	0x10, 0x00, 0x0c, 0x00, 0x08, 0x00, 0x04, 0x00, 0x0e, 0x00, 0x00, 0x00,
	0x14, 0x00, 0x00, 0x00, 0x1c, 0x00, 0x00, 0x00, 0xec, 0x00, 0x00, 0x00,
	0xf0, 0x00, 0x00, 0x00, 0xf4, 0x00, 0x00, 0x00, 0x04, 0x00, 0x00, 0x00,
	0x6d, 0x61, 0x69, 0x6e, 0x00, 0x00, 0x00, 0x00, 0x03, 0x00, 0x00, 0x00,
	0x90, 0x00, 0x00, 0x00, 0x48, 0x00, 0x00, 0x00, 0x04, 0x00, 0x00, 0x00,
	0x8a, 0xff, 0xff, 0xff, 0x1c, 0x00, 0x00, 0x00, 0x00, 0x00, 0x00, 0x08,
	0x1c, 0x00, 0x00, 0x00, 0x20, 0x00, 0x00, 0x00, 0x00, 0x00, 0x0a, 0x00,
	0x08, 0x00, 0x00, 0x00, 0x00, 0x00, 0x07, 0x00, 0x0a, 0x00, 0x00, 0x00,
	0x00, 0x00, 0x00, 0x01, 0x01, 0x00, 0x00, 0x00, 0x09, 0x00, 0x00, 0x00,
	0x03, 0x00, 0x00, 0x00, 0x08, 0x00, 0x00, 0x00, 0x03, 0x00, 0x00, 0x00,
	0x01, 0x00, 0x00, 0x00, 0xca, 0xff, 0xff, 0xff, 0x10, 0x00, 0x00, 0x00,
	0x00, 0x00, 0x00, 0x08, 0x10, 0x00, 0x00, 0x00, 0x14, 0x00, 0x00, 0x00,
	0xba, 0xff, 0xff, 0xff, 0x00, 0x00, 0x01, 0x01, 0x01, 0x00, 0x00, 0x00,
	0x08, 0x00, 0x00, 0x00, 0x03, 0x00, 0x00, 0x00, 0x07, 0x00, 0x00, 0x00,
	0x04, 0x00, 0x00, 0x00, 0x02, 0x00, 0x00, 0x00, 0x00, 0x00, 0x0e, 0x00,
	0x16, 0x00, 0x00, 0x00, 0x10, 0x00, 0x0c, 0x00, 0x0b, 0x00, 0x04, 0x00,
	0x0e, 0x00, 0x00, 0x00, 0x1c, 0x00, 0x00, 0x00, 0x00, 0x00, 0x00, 0x08,
	0x1c, 0x00, 0x00, 0x00, 0x20, 0x00, 0x00, 0x00, 0x00, 0x00, 0x0a, 0x00,
	0x08, 0x00, 0x07, 0x00, 0x00, 0x00, 0x06, 0x00, 0x0a, 0x00, 0x00, 0x00,
	0x00, 0x00, 0x01, 0x01, 0x01, 0x00, 0x00, 0x00, 0x07, 0x00, 0x00, 0x00,
	0x03, 0x00, 0x00, 0x00, 0x00, 0x00, 0x00, 0x00, 0x05, 0x00, 0x00, 0x00,
	0x06, 0x00, 0x00, 0x00, 0x01, 0x00, 0x00, 0x00, 0x09, 0x00, 0x00, 0x00,
	0x01, 0x00, 0x00, 0x00, 0x00, 0x00, 0x00, 0x00, 0x0a, 0x00, 0x00, 0x00,
	0x00, 0x04, 0x00, 0x00, 0x84, 0x03, 0x00, 0x00, 0x08, 0x03, 0x00, 0x00,
	0x9c, 0x02, 0x00, 0x00, 0x34, 0x02, 0x00, 0x00, 0xcc, 0x01, 0x00, 0x00,
	0x50, 0x01, 0x00, 0x00, 0xd0, 0x00, 0x00, 0x00, 0x50, 0x00, 0x00, 0x00,
	0x04, 0x00, 0x00, 0x00, 0x3e, 0xfc, 0xff, 0xff, 0x00, 0x00, 0x00, 0x01,
	0x10, 0x00, 0x00, 0x00, 0x10, 0x00, 0x00, 0x00, 0x0a, 0x00, 0x00, 0x00,
	0x28, 0x00, 0x00, 0x00, 0x28, 0xfc, 0xff, 0xff, 0x19, 0x00, 0x00, 0x00,
	0x53, 0x74, 0x61, 0x74, 0x65, 0x66, 0x75, 0x6c, 0x50, 0x61, 0x72, 0x74,
	0x69, 0x74, 0x69, 0x6f, 0x6e, 0x65, 0x64, 0x43, 0x61, 0x6c, 0x6c, 0x3a,
	0x30, 0x00, 0x00, 0x00, 0x02, 0x00, 0x00, 0x00, 0x01, 0x00, 0x00, 0x00,
	0x06, 0x00, 0x00, 0x00, 0x86, 0xfc, 0xff, 0xff, 0x00, 0x00, 0x00, 0x01,
	0x10, 0x00, 0x00, 0x00, 0x10, 0x00, 0x00, 0x00, 0x09, 0x00, 0x00, 0x00,
	0x5c, 0x00, 0x00, 0x00, 0x70, 0xfc, 0xff, 0xff, 0x4c, 0x00, 0x00, 0x00,
	0x5f, 0x5f, 0x6d, 0x61, 0x69, 0x6e, 0x5f, 0x5f, 0x2e, 0x65, 0x32, 0x65,
	0x4e, 0x65, 0x74, 0x77, 0x6f, 0x72, 0x6b, 0x2f, 0x74, 0x6f, 0x72, 0x63,
	0x68, 0x2e, 0x6e, 0x6e, 0x2e, 0x6d, 0x6f, 0x64, 0x75, 0x6c, 0x65, 0x73,
	0x2e, 0x6c, 0x69, 0x6e, 0x65, 0x61, 0x72, 0x2e, 0x4c, 0x69, 0x6e, 0x65,
	0x61, 0x72, 0x5f, 0x66, 0x63, 0x32, 0x3b, 0x3b, 0x5f, 0x5f, 0x6d, 0x61,
	0x69, 0x6e, 0x5f, 0x5f, 0x2e, 0x65, 0x32, 0x65, 0x4e, 0x65, 0x74, 0x77,
	0x6f, 0x72, 0x6b, 0x3b, 0x00, 0x00, 0x00, 0x00, 0x02, 0x00, 0x00, 0x00,
	0x01, 0x00, 0x00, 0x00, 0x20, 0x00, 0x00, 0x00, 0x02, 0xfd, 0xff, 0xff,
	0x00, 0x00, 0x00, 0x01, 0x10, 0x00, 0x00, 0x00, 0x10, 0x00, 0x00, 0x00,
	0x08, 0x00, 0x00, 0x00, 0x5c, 0x00, 0x00, 0x00, 0xec, 0xfc, 0xff, 0xff,
	0x4c, 0x00, 0x00, 0x00, 0x5f, 0x5f, 0x6d, 0x61, 0x69, 0x6e, 0x5f, 0x5f,
	0x2e, 0x65, 0x32, 0x65, 0x4e, 0x65, 0x74, 0x77, 0x6f, 0x72, 0x6b, 0x2f,
	0x74, 0x6f, 0x72, 0x63, 0x68, 0x2e, 0x6e, 0x6e, 0x2e, 0x6d, 0x6f, 0x64,
	0x75, 0x6c, 0x65, 0x73, 0x2e, 0x6c, 0x69, 0x6e, 0x65, 0x61, 0x72, 0x2e,
	0x4c, 0x69, 0x6e, 0x65, 0x61, 0x72, 0x5f, 0x66, 0x63, 0x31, 0x3b, 0x3b,
	0x5f, 0x5f, 0x6d, 0x61, 0x69, 0x6e, 0x5f, 0x5f, 0x2e, 0x65, 0x32, 0x65,
	0x4e, 0x65, 0x74, 0x77, 0x6f, 0x72, 0x6b, 0x3b, 0x00, 0x00, 0x00, 0x00,
	0x02, 0x00, 0x00, 0x00, 0x01, 0x00, 0x00, 0x00, 0x40, 0x00, 0x00, 0x00,
	0x7e, 0xfd, 0xff, 0xff, 0x00, 0x00, 0x00, 0x01, 0x10, 0x00, 0x00, 0x00,
	0x10, 0x00, 0x00, 0x00, 0x07, 0x00, 0x00, 0x00, 0x5c, 0x00, 0x00, 0x00,
	0x68, 0xfd, 0xff, 0xff, 0x4c, 0x00, 0x00, 0x00, 0x5f, 0x5f, 0x6d, 0x61,
	0x69, 0x6e, 0x5f, 0x5f, 0x2e, 0x65, 0x32, 0x65, 0x4e, 0x65, 0x74, 0x77,
	0x6f, 0x72, 0x6b, 0x3b, 0x3b, 0x5f, 0x5f, 0x6d, 0x61, 0x69, 0x6e, 0x5f,
	0x5f, 0x2e, 0x65, 0x32, 0x65, 0x4e, 0x65, 0x74, 0x77, 0x6f, 0x72, 0x6b,
	0x2f, 0x74, 0x6f, 0x72, 0x63, 0x68, 0x2e, 0x6e, 0x6e, 0x2e, 0x6d, 0x6f,
	0x64, 0x75, 0x6c, 0x65, 0x73, 0x2e, 0x6c, 0x69, 0x6e, 0x65, 0x61, 0x72,
	0x2e, 0x4c, 0x69, 0x6e, 0x65, 0x61, 0x72, 0x5f, 0x66, 0x63, 0x31, 0x3b,
	0x00, 0x00, 0x00, 0x00, 0x01, 0x00, 0x00, 0x00, 0x40, 0x00, 0x00, 0x00,
	0xf6, 0xfd, 0xff, 0xff, 0x00, 0x00, 0x00, 0x01, 0x10, 0x00, 0x00, 0x00,
	0x10, 0x00, 0x00, 0x00, 0x06, 0x00, 0x00, 0x00, 0x44, 0x00, 0x00, 0x00,
	0xe0, 0xfd, 0xff, 0xff, 0x37, 0x00, 0x00, 0x00, 0x5f, 0x5f, 0x6d, 0x61,
	0x69, 0x6e, 0x5f, 0x5f, 0x2e, 0x65, 0x32, 0x65, 0x4e, 0x65, 0x74, 0x77,
	0x6f, 0x72, 0x6b, 0x2f, 0x74, 0x6f, 0x72, 0x63, 0x68, 0x2e, 0x6e, 0x6e,
	0x2e, 0x6d, 0x6f, 0x64, 0x75, 0x6c, 0x65, 0x73, 0x2e, 0x6c, 0x69, 0x6e,
	0x65, 0x61, 0x72, 0x2e, 0x4c, 0x69, 0x6e, 0x65, 0x61, 0x72, 0x5f, 0x66,
	0x63, 0x31, 0x3b, 0x00, 0x02, 0x00, 0x00, 0x00, 0x40, 0x00, 0x00, 0x00,
	0x0f, 0x00, 0x00, 0x00, 0x5a, 0xfe, 0xff, 0xff, 0x00, 0x00, 0x00, 0x01,
	0x10, 0x00, 0x00, 0x00, 0x10, 0x00, 0x00, 0x00, 0x05, 0x00, 0x00, 0x00,
	0x44, 0x00, 0x00, 0x00, 0x44, 0xfe, 0xff, 0xff, 0x37, 0x00, 0x00, 0x00,
	0x5f, 0x5f, 0x6d, 0x61, 0x69, 0x6e, 0x5f, 0x5f, 0x2e, 0x65, 0x32, 0x65,
	0x4e, 0x65, 0x74, 0x77, 0x6f, 0x72, 0x6b, 0x2f, 0x74, 0x6f, 0x72, 0x63,
	0x68, 0x2e, 0x6e, 0x6e, 0x2e, 0x6d, 0x6f, 0x64, 0x75, 0x6c, 0x65, 0x73,
	0x2e, 0x6c, 0x69, 0x6e, 0x65, 0x61, 0x72, 0x2e, 0x4c, 0x69, 0x6e, 0x65,
	0x61, 0x72, 0x5f, 0x66, 0x63, 0x32, 0x3b, 0x00, 0x02, 0x00, 0x00, 0x00,
	0x20, 0x00, 0x00, 0x00, 0x40, 0x00, 0x00, 0x00, 0xbe, 0xfe, 0xff, 0xff,
	0x00, 0x00, 0x00, 0x01, 0x10, 0x00, 0x00, 0x00, 0x10, 0x00, 0x00, 0x00,
	0x04, 0x00, 0x00, 0x00, 0x48, 0x00, 0x00, 0x00, 0xa8, 0xfe, 0xff, 0xff,
	0x38, 0x00, 0x00, 0x00, 0x5f, 0x5f, 0x6d, 0x61, 0x69, 0x6e, 0x5f, 0x5f,
	0x2e, 0x65, 0x32, 0x65, 0x4e, 0x65, 0x74, 0x77, 0x6f, 0x72, 0x6b, 0x2f,
	0x74, 0x6f, 0x72, 0x63, 0x68, 0x2e, 0x6e, 0x6e, 0x2e, 0x6d, 0x6f, 0x64,
	0x75, 0x6c, 0x65, 0x73, 0x2e, 0x6c, 0x69, 0x6e, 0x65, 0x61, 0x72, 0x2e,
	0x4c, 0x69, 0x6e, 0x65, 0x61, 0x72, 0x5f, 0x66, 0x63, 0x33, 0x3b, 0x31,
	0x00, 0x00, 0x00, 0x00, 0x02, 0x00, 0x00, 0x00, 0x06, 0x00, 0x00, 0x00,
	0x20, 0x00, 0x00, 0x00, 0x26, 0xff, 0xff, 0xff, 0x00, 0x00, 0x00, 0x01,
	0x10, 0x00, 0x00, 0x00, 0x10, 0x00, 0x00, 0x00, 0x03, 0x00, 0x00, 0x00,
	0x5c, 0x00, 0x00, 0x00, 0x10, 0xff, 0xff, 0xff, 0x4c, 0x00, 0x00, 0x00,
	0x5f, 0x5f, 0x6d, 0x61, 0x69, 0x6e, 0x5f, 0x5f, 0x2e, 0x65, 0x32, 0x65,
	0x4e, 0x65, 0x74, 0x77, 0x6f, 0x72, 0x6b, 0x3b, 0x3b, 0x5f, 0x5f, 0x6d,
	0x61, 0x69, 0x6e, 0x5f, 0x5f, 0x2e, 0x65, 0x32, 0x65, 0x4e, 0x65, 0x74,
	0x77, 0x6f, 0x72, 0x6b, 0x2f, 0x74, 0x6f, 0x72, 0x63, 0x68, 0x2e, 0x6e,
	0x6e, 0x2e, 0x6d, 0x6f, 0x64, 0x75, 0x6c, 0x65, 0x73, 0x2e, 0x6c, 0x69,
	0x6e, 0x65, 0x61, 0x72, 0x2e, 0x4c, 0x69, 0x6e, 0x65, 0x61, 0x72, 0x5f,
	0x66, 0x63, 0x32, 0x3b, 0x00, 0x00, 0x00, 0x00, 0x01, 0x00, 0x00, 0x00,
	0x20, 0x00, 0x00, 0x00, 0x9e, 0xff, 0xff, 0xff, 0x00, 0x00, 0x00, 0x01,
	0x10, 0x00, 0x00, 0x00, 0x10, 0x00, 0x00, 0x00, 0x02, 0x00, 0x00, 0x00,
	0x44, 0x00, 0x00, 0x00, 0x88, 0xff, 0xff, 0xff, 0x37, 0x00, 0x00, 0x00,
	0x5f, 0x5f, 0x6d, 0x61, 0x69, 0x6e, 0x5f, 0x5f, 0x2e, 0x65, 0x32, 0x65,
	0x4e, 0x65, 0x74, 0x77, 0x6f, 0x72, 0x6b, 0x2f, 0x74, 0x6f, 0x72, 0x63,
	0x68, 0x2e, 0x6e, 0x6e, 0x2e, 0x6d, 0x6f, 0x64, 0x75, 0x6c, 0x65, 0x73,
	0x2e, 0x6c, 0x69, 0x6e, 0x65, 0x61, 0x72, 0x2e, 0x4c, 0x69, 0x6e, 0x65,
	0x61, 0x72, 0x5f, 0x66, 0x63, 0x33, 0x3b, 0x00, 0x01, 0x00, 0x00, 0x00,
	0x06, 0x00, 0x00, 0x00, 0x00, 0x00, 0x16, 0x00, 0x18, 0x00, 0x14, 0x00,
	0x00, 0x00, 0x10, 0x00, 0x0c, 0x00, 0x08, 0x00, 0x00, 0x00, 0x00, 0x00,
	0x00, 0x00, 0x07, 0x00, 0x16, 0x00, 0x00, 0x00, 0x00, 0x00, 0x00, 0x01,
	0x14, 0x00, 0x00, 0x00, 0x14, 0x00, 0x00, 0x00, 0x01, 0x00, 0x00, 0x00,
	0x2c, 0x00, 0x00, 0x00, 0x04, 0x00, 0x04, 0x00, 0x04, 0x00, 0x00, 0x00,
	0x18, 0x00, 0x00, 0x00, 0x73, 0x65, 0x72, 0x76, 0x69, 0x6e, 0x67, 0x5f,
	0x64, 0x65, 0x66, 0x61, 0x75, 0x6c, 0x74, 0x5f, 0x61, 0x72, 0x67, 0x73,
	0x5f, 0x30, 0x3a, 0x30, 0x00, 0x00, 0x00, 0x00, 0x02, 0x00, 0x00, 0x00,
	0x01, 0x00, 0x00, 0x00, 0x0f, 0x00, 0x00, 0x00, 0x01, 0x00, 0x00, 0x00,
	0x10, 0x00, 0x00, 0x00, 0x0c, 0x00, 0x10, 0x00, 0x0f, 0x00, 0x00, 0x00,
	0x08, 0x00, 0x04, 0x00, 0x0c, 0x00, 0x00, 0x00, 0x09, 0x00, 0x00, 0x00,
	0x05, 0x00, 0x00, 0x00, 0x00, 0x00, 0x00, 0x09
};
